{"note": "base64 little-endian float32; LSTM gate row order is i,f,g,o", "shapes": {"embedding.weight": [118, 48], "rnn.weight_ih_l0": [128, 48], "rnn.weight_hh_l0": [128, 128], "rnn.bias_ih_l0": [128], "rnn.bias_hh_l0": [128], "rnn.weight_ih_l1": [128, 128], "rnn.weight_hh_l1": [128, 128], "rnn.bias_ih_l1": [128], "rnn.bias_hh_l1": [128], "fc.weight": [118, 128], "fc.bias": [118]}, "tensors": {"embedding.weight": "okzbvvH4tL0j2lA+cPXlP2f38b8mRLW/QLexPXQNrD6HCK6+JtXdP6Z1Ir+G7my/xQAyv7ewyj6aEv2+RsGNv6btkD4/gJ++jY0aP59wWT9CGdk/sgDLvtHBAkCAjVo+91WVPiYpiD6G9mW/nESZv2wVsb4sNXE++Ou+PLkQID+8oHw/UoQjv0+3Cz9JiFW/wwx0v5d6JD8R6cu/Ymhpv5qvob52jqk/puy3vq2ol78+pJk+8sWuv4UxDL1fZ6m/8usbv/+XEb+AXvS9x/UIPawyS79k8j8/h3y5v9j4vz8poJU/MUpFP9sQV78wBI4/Zx2NP6MXBsDmdoW/PcuXvzRYZz8zlqg9KcM0vsG5qr8+z4Y+gWVeP/emlL3Pyj0/bGz9vp7FUz9l/vG/VRk4Px273D47x4M/HN4pP5DclT50+bC9brJCvjys272x8Qk/qnZxv4Q1qz5UngY/6J7Ev4Einr5iwea8ywypvw/A6j6DHqs9PXecPcQcEj+GUWa+psr6P2qo170blA4/6rTOvhA4Qz+QsNe/l98SwEnPmj+RPUG+SEEKvz2Olr0rC24/xUIpPouddT9fDqe/7TBUPwtR6b8CDYi+ZKuEv1ZTpL9Whu+/4BYNv/Cftr5P8Qc/NVrcPgfo0r9xvWe/OWmdPqQBd7855kg/VfMJv8zR1z87W1Y/dcwNP99JrD9tWG+/yEKIPqs7nz8qgts3/ogjP4eZeT810f0+koVVP4+vtz+J/AS/b+unPngLar/IlF6/Akx6P7UZTT+jhq+/DYUyP1xRD8AuT7g+OMbHvxJmYT/2Z2G/niqJv6A5jT+o4bK/+zAcPn31pr3Q6J0/MM6bvksbcT6QnKC/Zk0kvvzjdb9DKgK/wVZbQNHe0D0f9rA+2lWsPors2D80zsC/gTKiPgweGToewPE+WwWsP1tZWz617EO9LM9rPxN5iz/dKm0/3yONP3769756C9y+SgLzPhR177893IO/y8dTv6rVHL82X4S+oT4xQDjgir9T9W6/21HCP3XvMz9wvQJADWIjwI66KD8uuWk/ECiUvyLCaD9AJBs/EFd+v6INWr8Dpmk/Iaj3vdoJob8ACoE+/WSLPQu6/D25nOG/z1Xrv+SFRz8+Zq2/3fuEPq1il7+JFou/UNbJPtcRlz0RFIo/B473Ps/GTr9mdX4/usQev5epPz8vtbO/qV4JP5nFPb5zQCu+ktY9wIoqAj3jL92/x9lhP9c6vj8UBMK/HOMAQHSfsT85Qkk/0OMXv51miz1bSKu/15GKPldMIj/rVTm/SeFTwHWCGcCHjoG/JCfaPp/gcz68bcS+PAo1PWiRub/0Bp09U1jKPh/U5T8pFtC/VAeHP2/IGr+9T9c+nQO0vmynBEDb5+U+xVMBwKVziD+oOPu9b4s8P7z/fj9Nbrc+FfD5PvrUfj9EHJI/v7QMwOGWG8CV0eC/9xbPv3zLBD9pMho/w8LFvnFJ/T5yWgA+U/26vzoP/r/tHDo/L0ioP+gUZz8Y3A0/17CXPqfqkL89tc2/CC6kvkqUi7+ZOD8/Dc5Ov70SW78kYzi+HOLJv79wZr6b3fs/yh+xP5kBKz/w/Zw/un2Bv4j7HT8xyaO/c2sbP95aCMBBPHS/CHeWvtnfn7+y27q/nKpzvr/1wL6jkJa/EH4hvmkq0z+eMN6+a04FvyaOLD9cxxE/inLkPzrEB791ZjA/PpqpvzGG6b18Rn6/TqpLP64N3r/K1pO/UN2PPzzbhD/3jGQ/7GISvytQXT+Ow5O/o0nrv47Fwb/tbco+kXA7P4XWN8Altsw+eWv+PrcEFj8b5/6+YZjcv2idx77FAu4/upKlP2IaMT1+WJW/7UeGv83WHj/Z9Ia/5aspv7UtBD/IakQ/MqZGP5dKaT+yU+I96sn2vxih1b+zaaW/UL1dvzcYXD9eZMK/irqGP639ZT+6Vn0+SB6vvC/lAb+MKGe/eTzXPhmzdryClps/LA98v6ZtFL/0h+E+sQC6vXZmE0Dzi2G+PPkCwDdkoT9gBdK/OomVv5uW9L/UHQ9ApFlkvobSEj9Ahmc/+GubvleKPr1Z6FM9kYVdP4nU7rzNYla+6BeMvnILkD5760m/Drbtv8yzpz8Tk46/qL20v3qQy7+JbLS/J7QNv9gKBED3UYG+fXkLQLw9ZT+wfhW/xstAP91Ic7/AaI2/YguIP88m1z4eF2s+9FarPhUNcT6fYzy/hU3Xvzo/7D0PWhs/TcelP0MwDT61XWE/z736P7IkBsCMBIc/TrJOP7S22T4PwU0/GhK1P3I4oj74HsU/BpEqQMGVFjy4o4k+7Gyfv0n4or/tjV9ApHhLwKMHib5yNAO/2VG1Pp2eLT+xocI/PvY3P6O++zxYcTO/5ZQDv0Y04T6fLwi+y4TmP7BBsj8mZT4/At+7vlBuPT+uIMw+0wZlP37qfr+Y0xW/hmr+vwhMhr6p4Ks9j7jkvX/D1D6gm6Q+MKWwP/AaH8CWIUc+zf8LwBj40L9BOoM/cz0Nv1Bee79Ie6E/cfP6PlRhST5eM+K/dL0tP8DrNL4ZpEu+rQElPo5OOr6CP0c/6y9Rv0BLyz7LFcC/MnSjP+c+pz8hJlo/gKHrvXjGR78LZlq/8nYEPwVaub9L3oa/RuShP+YnPr+YwBFA7wBCv4BxBsC+UM6+my9pvk1zhj6Ann4/Wn98v1IxB79HgoK+U1Xxv8NWZr2e6m6+cVOVvy3LN74EOZe/GsQiP+cEpT/FSgLAMo4Cv0Cq079nREw/OcCMv5tB1z6L+GS/VmNGQF7GZT862aO/kkTKvXLHyT8qsgFAI/b3v1YnJT+wW6E8DaTHv16gVb+br4i/swa3vsMDFr/MOXg+RKShv9DY0T1878s+t1Utv25Pxz8IZAvA21xeP+Cuq7+2SYw/Uybhv0VwDD4+rJk/fWZQv3mJBMD7e5k/F1I0v5dk2r9ZXPa/ak20P2cXpD5eI5q9fQhlvrN5cb+UopS+KMCwvtGbDL38daa/6ICyPcKtLL+U+k6/3Atov2MTCkDsUec/Z4k9v4EVnj9VGJC+B18FP/EfMMBn9iw+JxAvwGc9374SIM0/jxcDv1/N0r5pSMS/ExScvqZrlDwyAIu/Vt8nPxrIeT8rJz49QQkJP4+TEkDLhIg+uTOYvpnoar+5k4+/akFMv5/HSb+XbTjAZ/EJP6Xg6z/E5ae/jQ8hQI6yFUDOe0TAxQ/NPuIHVL9v+Y++UUDsPfDGvT6eRAfAXDPZvghPDb+5des/fqpJPg4qI7246vk/JPelvg+tWD2enN6+DNWOP6IvLz7KRC3A6Ek5v/du+L9MFhNAA1rbP35sx75HmPk/vhAvQFg3376RkzY+4XsEvtkGmL9w0Ai/ueqhv07DCj+9VlRA5YyiPwSoDMCN5cU/lxEqP47HUz6W1jM/nLBqPw4jLT9ibwzApWkDPunZKr5eg7U/8TptP5xHmT8l+QS/kMj5PgPixD/LbJQ/boEBQIVzCr8+25O/VK2bv4HukbsExqi/j2N9P0Z1iD0AJuG+X2bEPpbrVL9N5nu/FFDMvlnt5z3CcJ+/sIc9v0CecL97r7O/D09VP3Wpvr+0o1+/EN6fPw2im7+FwJU9Jn5IP32iPD9Kytu+w7Yfv8Crqj+dQEy/0tozwN18Hj9dHf2/r/FEvxJjKr/BkXY9kPm0P21yzz6y8Zc/0IiCvxVKrb+XE5k/hoemvrqJzr8UF+Y/VzI9P9Qsqj5tDn+/gz5FPsAl7D9Da/6/i8ioP7YJ8z5zVYm/93eDPiFH0j42GwE+rK19v/x2hr4l9tE/3hMkvjjCJb73LXq/q5MvPyMvlj8a8Qw/d3/jvlH9k770MkW+YDk/P7bXkD3kRwE/eFDjv77cKz8Zehg/pYYBP1MHhD+G0Aw+46vXvqc8PL8ADtM/i04Cv6aLCj/FQje/xfVvvTIjiz+qto4/qmyxv7sqU793QMa/s2APwLFzJUATcFq/cWAcwArwyT512iPAnNX+P6vW5D47oY0/9eT7PsHwEb8aNo290G6FPuc+t714NBbAFuNvviQulb/ufCLA1YGQvvcY8b0cIpm/kuoIPwBLBkAoepw/rm8vvisxTT+b84s/vDT0P5B3dz/CSs8/n6c+PRCd+L5kT06/URALPk7tOj4p3sa/aW6rP4LaNr91EGtA7H2dP98kyz9aFSk+DFaKP674oT8OYGm/nH3vP/UAub6vHqs9z7lqPxMFWL/CLYA/IT+gv4/x8j7Tt+A/+q3VvpE2DL65tq2+qhs5v2a8jj+8sSe/OgbqPcHFbj+JBJO/iDYfQEwfkL9xh4k/Z5iHP43AbzwLn4g/sLcyP99joD471aq+CPExv7DiiDz55mq/2UNYv4s9cL5SGL2+/kE4P/2Jez7V2we/1yYSwHPlUT8sFb2/tX8tv9XbND9Xf6y9/V3pvsxs+z+LR7G/wj/3vv5eOT64F7A+xIVAvjlXkr8CV3I/v/ALPsIGE7/E9SE/THfBP9uavz/oEiq+2Lw4PGrhQj8Qlvk+n/GTv0NDBUCmubS+84C/P1DqQD9zvmQ+yKuHvuJRsz/39r++sNmNPtGebz87kiy/OhpCvy808T9EVEI/n8S9vsqKtj9Jb/A+kHzMPr50rz0ea6++XZJyPyZXiz8nyIg8oc3mPyLSzL97iJY+IYMkPeVnKMBoiPO/xDlOP4ltJj+2VYM938twv4pPXj8G+ti+N06xP58F6L8P7M8/F/pHP9Kx2b9i4a49OkOwv5eSkj5lUmc+79MqvfBbk7/G0KO/u2/EP/tIJL8TIwC+MLmXvj42976hMqY/UDICvkjorD7OlxW/KFcXwEo+rz8Sfvo/TWU+v69oKb/btRM/ZLuEP2SpnzyFxZy/jSXRP4mwFL5VZoK/buAFQE+I678757e/7Ka6P2DgwD9v6cc9TSqVvrlac74OS16+ySiHP66uWz05hJO/v/i5P2mQw7/8TyI/mc15vywy5r9RhXk/UwOGvwap1D+nFTFALoLevzvvm75yL8k8tgnCPuZ/CECadbg/a8bfPcFoMD+Wvwy/cIZzPxkDeL97Gic/tjqdvzB/ID/C5k+/15FCv1MLKEDtpxE/nH9/vpzfAED0pdY+RUmIPhUKOb7FWLs+5jUcvwXzq78TMwTAQlJpPsbrrr6XUo0/ViCcPTPPNj9mnk8+4S/qvsLyVD6pWj4/Gl3SvwDeoL5K2V4+TJHVvsBiiD+U2Vo+Vgc+P97Bp7/5xjQ+gJ26Pycdgb8MzJG/TzSNv2Ythj+Kssm/nKVCvwbVBEBToO0/zZYVP97pBD7V1to+/9A1Pnz8gD7lV+a+trzJv90q9T4PBNg+c+OHv8x/Vr+lLYo/cW+vvk8nD7z+J28/IKO4P/W1kb1/H4s/kKhrv8d8XT/yuLO/S/SDv3yn678gTEy/2GPsv/Ot2L8lhm+/Eet4PkqSP79NoZm/a1F+Pn1Q2b0UA2k/3oiWP2UE9z8nFaK/BtfjP/Lyx7vis54/AHyaP/lV1L4HgFhAFrI8v5wWZb+AO/8+TZaHPvo23b02H2U/3elZP15QKD/9Nuq9qH+JvmbPHj+dotA8XuGevWPwmz0GfqU++8BGPmdR1T+d3ZK/eFgVP8X6Vb5joCi/u149vpLJmT+E+u0/eH5ev3m1zD/q5q4/sIaIP1IpgL8pNRJA/DfXvy5dPD8ZJOq8Pec/vdnGzb5EhNy/XJ4MPxM/UT8bxlA/Ftq1PvY2bz2mQeM/sdQFv9Ohub6A8vQ/2MiEPh1sqT9ZQ/c+rmtUP6j/bT9Jybm+1Lvyv9EJhL92HM6/kye6v7p3kL83QwrAlf63PYnhlr5o3WE/zNq3v70lhD/jvjC+bbKIvyxkqD+XV7a/4j10PniXxD+OM7q/5tAkv29ntT+Oxai+dmVXvwCap74b2qg+U7OuP6akBMDCP/E/KBqPPuEeg7/WObE/f7Afv74q+L+HUgc/jCGtv6xmXz/ckS8/+PALwPL+y75DWiRAeeSGPoHVoT/GDUM/4VkVP/YVxL8e+Bg/0FNmv9vxpb/9yO6+lkbAvqRmXT/dFYU+cHCgv+q1hz7V6RPAwNmRPyZikz9ZGaO/wSKNP3iK370hnBa/AmTDPjVUpz1rDE6/bym8PgXqyz/SZq+/2YNAP0RpuD0AJ3c/KC7MP0BIpD9T4+G/g/D8vmj3ED4Mmpq+3lUfOubum7814Nw+wrXovpGllLw4++a9Naihv1xJYD8Zsi8+kpwHP9HWhj9ubIU9ecAUvynjKb552zM/hWMYvwLUcL9iXIA/kbWhv9Vq+7+pMye/Sbuev0GgNbyFqQfAmjDVv6c7lT790qU/CvBhvnT/A0DR3gW+/s6IPymGBr9wtVFA+GxhPVN8kb/5W9M/TDIswIyoTr/Xs/c/9oKTPjVrPr2Enba/lzr4vp3Fkb7m+14+MsiAPkQtYr9SOMo/5fQjwCVptj/QjyO+jDqFP6I5ST8NNMS/jDqfvub/Kr+vynG/ZKbtP9SGYTwGVg3AlufXP0tItb8maSG/1yvrPaVr0r9lTb2+CCyDP5Bjtr7Zetc+vaHav2pLgT82ujHAFe9+PpXXlz/87zk+Hk4CPsnjUb+Abae/+BQRQBJD0j+uEus+YxxRvg9wRj7RJ1K+zu2bv8zAKL+Qjy/AjyG6PzqD7T4Fu+G/aHgEP+zeJL9TOGG/G17ivd1mrD/4t04+yPJOv3UdwT0237s/cn98P2IxHT+5Krs/dzWxPg41B0Aup3q+c+yHvo2ROMBdbcY/tu6Sv9l7A0BMda8/Rf7cvxYUBz+TsGM/vgaCP16ppj5cT8+/np2Fvw+knr4T/JS/1WbpP2yMCUBLMj++3kUqwAg/vT82KI2++n86viL1ir/S10W77BkWvyyXmD+HUV8/LC4PP3B6tj8H0o++RX4fv+qLkL8JVIO/wqRvv9I4HUARU+k+VSiWvsA/F0C/xfk831tHwO5zmz7gWw5AOCfJP1MkwLynaqs+yZ8OvwMXDj7KcvK+aWxuPzRzsLyK3Vs/srUUQHDlEzwk6XS/xdciPq1pAkD6sMw+VKkXPrzp8T5aMFE+oY+fvzCFV7+UQCK/735RPV8ViL6PY5s/7RPpvT5947/UBNc/GUhJP95vj76iwVu/jQc7PyafF7/zuwpAp87ovzHVyj7Zu5I+UmXPP5NwIL+jb3M+ZYHkPyV/QD1Qams/LCBsv/YDZr+n76q84ArSvup5xb8zq2Y/EGuyvnb5+T1612W+r2Lfv9EqEUBxSCW/L15VPj7vNj7+jts/gWY7v14YK74W6AFAVgQQQIlGz78CsSe/9MQfv8c/HT9a+Rm9mg0lvuXjEb8PfJq/ywyZP4aRgj8dhEy/CL3KvuCAubyk2VO/66UCQBtiMD4WzoK+k/6DP4I1R79CtSu/LWuaPRFqk785gVa/MCWYvsbJpD9SA4O+XwoKQKFk977uv/A+BjnsP73gz78GkHC/f4upP2coqL/XmaS/HTZVv5pFpb1epjw+9WFpPil0ej+IxCHAqovHv8DUKT9V2Ps/wv7xP9Tp6T9yKoy/x5msPqjwbD9JZYk/nnx+PwFQXL5fc/E+BrjtPkFvnj+pKDq/cL60vjuSi7/FbiO/9uC4vmVLI0A5wK6/QRmsPsBXPT9Ywkc/OepTvvpp0b8OOAS+XAwKPxPZir+PgLI/hPJhP6Cwij590Ja/ERrxv/cYmD85z6g/sHJ1v0ZYvL8vGbe/YSAxPyCBFT8w/yzAxdCRvwM1Hr9lGAi/pdVMv9c9kr6kPYa/lms0P9Gqpz+0Sui8wYy5P2Lvy702VN0//Fm1vsABwr4XHuI/KMcVvZomsD/gTQa9k91Pv59P2r46k0S+x1Opv9r4pT9/a/+/9skFvq6zr7+M/ZO96ZEvPrfBej/3aJY/4PLgvvlZxT8x4w7AhOM+Pys0Dr8s2BO+/mlMv3W5jj6bEV0/Hox3Py87qj+IG8y/Kf0zv0mP3L2M7K+/nIJlP1421D/Eo/s+GOSbPwyxxj+hCvy/xmyhv3iWx7459IK/vwIGv3x93D5V4Eu/wGwiPwR7yD121ZI/1UqXPz5/cr+eXyY9CNRUv4IBmT9lRRu/QAQiwN52Az/CRju/yA10v+6OMz8DGpW9Q1pFPakgOT/dMpw+jMcHvz2fjr+VDCrAx0uPPyzmKz9EWoY/QP4dQEBBdD+hnRtAoI0kvvPMnT+VCgG/ITX3vUyP2j+p6S9A+XX9P9Ehez/pY5E+5v+Zvo+HgL+eAOQ/FrYIv22XAD4cFYe/Gjadv9IqU79yuJu/Gl/GP9vLuD4IGaC+5rjmvwEjUj8YqwvAagD1vkGe17965KI/E9c1PgMmMz+zZAg+4vOIv42oUT+jFtY/bxVXPDWbwD/mTak/LZanPs793b+u2sO9zGFXv8eG5z5wFcs/ANMlvljfbb7+o9G/KUtyPvo+ZT8dG4U/RM65v+MmsTyYHp0/7HzPv+zCVL9lNQ1AGzJUP7dQzj70fEC/VY2qv6qjjj4Ymlk/rYcgP0J65r5a6Og/A/3Mv1T25T2D0xi/yqPNv6xBi7+siCO+FR6xP/0oRj+1OtU++KGzP0jvHr8Gg7A/LyM1v0KUgj+KxHK/jqA7vzuahT/FAyK9iXwZP/zGb75Sszi9J0XpPzccwD90Kv0/Dq3kv8pCmj9Y4ZA93Ou3vdba5r5+O1S/BQ8+QO/JE7/uuB5ABcTGP7KGIL+7FxLAvIpPv9gCYz/5+Zc+VZAZP30wgb7SMvy/h5KNv04MKj++9s+/qgUMwDR7aj0bTg/ADeOxP7mD8L5/OQW/AoUyPsL4/b6TFxw/kLUkwO/6Qr9bmSU+OeQ2QEZGnL+kffM/S7laQKxTUcBNoJy/3ZrGv3e3IsDeHva+CkYVPy5PH73gbwhAC4jOvf+5SD+AzXK/IAvrvy0SD74v3T8/1mdjv6bMMz8NHeA/tnkTP7bcmD6V8jk/CyEgv96iOL+cQpy+vs+cP509sr+ylHk+1T2Qv0nATj3oILO/0N8awABwH78HlM4+WTjrPsm6cr9D9wo/OvJbv4+Rxz6qR2a/9tNfv46ngD+6pjLAWfbhv46mVT5Ym0O/BSGGvnN88L8d+rg/22XhvvUi1L+oLgu/peyCvzJupztak/8/nmvwvzyTET+0doS/SUOLPg5Vhj8z6IW/Q4+5Pz2wCsAhPMY/V1adP+fScr+HqpK/7yE6P9Zfyz9y08m/GnDHvqFsvT2NiRC+2ndSPi3TBz7xpo+/0rMwv+W7VT/09gW/XiuCPb0Psr+oB4o+0ADvPAUxOb90hxdAkMFUv325xr9CG9y+g3lNQMXhlD9+biPAVRoMPmUp4L4PMCq/W2PkPxpUZb9sG4C/5EKMP8mIPr1zvys/dp+NPxc6mr+w5i4/4zw9P/2Fir8ZRNs/yUo/vxfWM0ABGSU/QAQlvzVgvL91Z9E9XaXaP5toWz+v+ZY9yCYQvycu6r1/xfs+MqAvv+s2AT/jhRq/8FlwP0CI5b8b5wc6uV2yP0XRir8om029L8FqPxUb1b9eVdE8YJkbvoAXjL+fMo2/SOMHwMyo0b+UHI6/czPpvx+kZz0+Yq6/FS8nP+Lypb82Tls/ihqpv1trDb8Tykk802AJPX3IIEBzuxPAeDsawOhaob/kp9m+T7XkvkyBkj9A0v88K+aDvjcHqj8THPA/nV3OvVQror4mqDi/9KkEPzpspD98TKe/MrgfPib/UT8ZLHO/8CC9P3VSiz77xE89GpKwvlt1/z8kMmq/SALkPhpGHj8CLx4+WKbxv/N+t79dx5W/+yY4v1aBPr8Esy6+edWKPytwzj8u7sa/2C7RvsB3xz5WlQY/r1YAwAuhpr9WJKO/WTHlvzeaR7+oveG/T9Edv6ra8L8UB84+mvgyPh3+qz47Epo/9pDCvrcZi79RakM/fRAvv8CLlT+ggBK8+rl0P078KL8jHYC/TIGIPjDFxj4Zze8+NkvKPnQKSr9hdmg/IxvSP5j/0z/wWTBAdeD2vj0gEL/WMQM/uH4XwIroAbwlps8+VZcUPSVVhr/DpiBAHeY2PkLpnz1CrCbAvY6WPjKuST4TaKG/4JgGPj2Lqz+GRxxAckZ3P6lZSj//4Te/LODgPeJIez8+ZhW/ipLIvjn7474caCm/JyAAv108Vz+PIFO/T0QvPkfS1L+ko+Q+q7oYv0qIsL9JNpg/pBjTv+IT076MP9i/yLi4PkX6U7764jE/tAIvPypcEMBtvA/ArBaev/H8iL8naOy+0108vxd9hT8RvXg+/tDhPzTGOUAeEAk/L/AKv0ZFID5jftk/oLN7v4DFl7/UiKC/tKHbv2J3ir/QHEe/fMwDwE17jz+W/ek/xBgcv/7gGz8phCtAyBylPS4siL/TogS/q66QPxBncL6adFk/hiX5vjYQeL845TM/AJ6Qvy3pHr+maOc/rHAMP+hxIkBAreA+TEJOPy+QxL9f4vW/FGjGPsUKqL+jfc0/U7Civu5vH79M4Pg+2mCfPmxyI0ADBqG+BzblPjMePr8bA6A+QkG9PF71AEBtvg89GnjxPoGnrT7NvPO/m5uMvrLhEz+n/gM+8uaiP9nFPT+rmny+Ib7OPVG1hj/0hKM/ltT7v1Zhwb7vU0i/jL3rP6SmRT8FgoE+upWEP0I43DtVQFW+UIbNvoNpk7/QDbC9zFMRPkdf772diLk+X7FIv4rbPD91VAJAcUPCPykVGb+SPow/do73vs7qwb8TRXy/l31nP3stXz+MGpq/SwQLP1JpkT8ldpk+Kh8IwGIP8r47s8a/bsEOv/zCPD9B+Ww+xSddv/F0mz/nu2W+xEWFvxogSD9DAOM+Qt9VvUGfpb83UKu+S2LhvxS00b9fWYu/kRIWvgbds788CZw+Jdl8P3Gnfr+QDlPA8jokPxlSQ7/GYyq/Lzydvqe+5b6T+UK/NWWsvzMm8L54Aws/FThLv8o/S78ZsVo/5LAKPzj4lL//uea/wfdIP5Qabz9hLyy+jVlUPg+NO7zrYaU+yKaHvzWfVD+sKCW+dJAUPoXNgz4FKh8/vgLDP3GXAkA0KFI/j5Y/PhDVZD6OAla+yy4NPhSIEz/qk8W+zqACQBVbtz/KcYi/KPXHv5f1vL8ojuI/Wb8VwEfYqb3+Xca+lHN4P8ZomT8XaqS/hW2DPoOC8L8q1VC+TOd/vxEsQj7ZPK8+UJOHPn2dnT3dX5Y/iF6TP3yR079hRjvAWWeXv4V9jz+7Evq+Bq7Cvjg3jj17Cui+U2s0PYi8M7yfnda+cxumPrEo+T6rUpY+wIOcv3zclz69Y/C+XiCrPkW/Or7yP6i/7eWsvqXgOz+MwA7APsSjPwYLIL7pxX6+UXKNv4weEr8S9dA/l+TWv1xdvb72bNO+rYSbv8DDez495c0//x/TP202B79qlzm+fx0WwBmdWD/vvKq/j61HvVHMX73pZgnAuOiTvxCmlj6JAvW+PsjvvOvBqL7kvtM/0AauP4MLDz9WRns+ziEEQG9TCT+De9U+ySpBvlEl4r/Din2/m0BAv9HNvb6NXeY/kpEVv82E8r/LKcO/XX0YwK2LmT+2o6a/QQi8vjsjtL97G7s/+ZOavltLDz/NGuU9+0o/PzDysb7uDUS+Ko+CP5q0kL9iEwk/1mp2vlXxAsD08Aw/8UcvPyETPz4PiTJAQtuYvzAntr5LPx0/1nbMv0B827/M7TXAz48avFw2vT/PGhVAfGZoP1X1tT0TK1Q/DvnVPvWQmD/4isU96hpiP0VvyL/ek/a+KYoQv2byfj8a4iu+ih3Wv60arb+ITOy/QNAxvjTZur/QhBk/Zha+v8x6rL9DACU/fEAXvgK3lD9RyKu+7jDtPgmanj7dhj2+sOVnPWAK7D+KVNe8+0k6vhKVuD+gRK4/5JwJv8Tucz8RMCe+WVNQPsmX5L694SM/DXGSP21l1r5LAWo/OWfNPtOaAb8/98g+3UJPv1zCBr5fO1E/HnwBvzCvNT83dBxA624pPRvCCUCJH76/F7LNPwmkMT61I/q/9pVHvxDHJUCjMA/A2CtWv9IB2r+6Upk/8GH5vzVsjL6y8dI81bPPP7Rh3D9JsMm/H7UwQAIEiT7xgI4/IKz+PzZuzD53dru93FGkv4wzbr9V3q0/9sL3vj4HOz+HHIg/11/pvJVP+b6rs36/gCYJwApIsz9NUBRAuByjvLd3A78nkOc/nLbfvlnzCL0kGKS/p17fP+aly75M1AZAxQosv73Q5D/AohA+LkXsvvtjEEAqjQg8NdzOP48XoT/gK768OiR0PziB1z8aOp+/raKJv5yTkL8k2j3A6mf2PrLrmL/uXPa/G/ASwIxBkj/Fu/u90TkhwHlULL9Cwo+/EyWfP/IE+D/DMbq/FITZvqoKXr+KWbm/mxA7PWF6p74yTlE+JejNv5WHyz3x/Lg/hHy+O+xdUj/6DBy/zWUSv3Jxoz9Md7E/oeCNP7U+Xb9eZ7O/nrmPP/ZcIL+lGJg+Q+PEvlxtnT9KNZK/PKLBPz6XGcBcdaw/abiEP/4ToL7fKZk/G7iUv23tJ79MPgA9Bk0TwFE15z1s236+F/lwP0kElr3VXWI/ariCPzMYHj8GL72+2FE7PmxUtL4eDs0/j7MVwKVYvj6x9XI/TKm/v+y2L7/JTwY+j495v72Cij44URg/Xh1evhMA6T89NOK9YUCxPUbT0L/35gC+Gat8vybM4b8yHES/r4cYPz828D+Fils/ssk/QCKusL/wsYY/BJYzPzWcd7+pJtG/G2l2P2gcCsDihpi+HVJMP8+Pqr8WpGA/F1PuPwed2r/hUbs9e6AsPxzGhj+Q9mW/COMeP3yYrj+MZto/47iRPp8+tD/VucW86tiyv8pPuj67gaK/BT13vYaWiL0IDUC+Mz3KP+11vr7sUF+/61wbvzflgj8pjGA+pLTSvr6HH0DtDNs+ooTKvJWHLz6ZYQW/YD6EP2xyHUAoJ3C9R3kfv02TwL5USX4//mMwv1h2AMDN9pO+Da+Zvg6MLD4Qn80+omG+v55OOj8iUPS//HdXPyijqz+QhgO+6ya4P/1Wa7+j+xq+80f0P/yI8z+6W7Q+iIFHPt8RdT/tNpU/b3Qcvw0em7+c5WA9wdrTP1H0872Hu7q+zsWKP602Sz/NWW6/UnTbvnWBWr/NPq8+ibsfwNGXjr7soos+0lT3vuPCm70D7Z8+tCMlvzI2Gb5nuQW/jcHYPWMaMb8mlrI/0xnuPlKm7r/nCVa/ASPjPbCm2j9Ekgg+JvrIP5UBrD/Bao8/Ji4lwNyUtD4vPUO/ZsX9P9uxvz5AmHU/DNSsvU+kUr9SR/S/+ofJvqiYVr/Yulk/N+KsvkZqfr8xsJI/4CxRv2r+uz6yGMm/u8zWv/JYyb7F6Ok/J3UHvMyU2j9jn42/U7UtPyuVBz8xPQu+ZZrKv90PqT+cEjO/uMviP9RCKr8VDb6+TgblPmyR6b93DqG/8eo7vxt5Hb6DSNc+dgzSP3LfdL3TlVG+NBeQvsKWGT89V/a9pp/vvlvTkj7VRYs/phwLPwb1Vz8o25U+yDWQPwRG5b97Zm8/VpHZv8exp7+8L4m/9xwYv5GCoD3lloZAc6ywvw6uWD+ymAHAxHuaP+5xuT+AH48+MIyLv6Oagz9PUQ6+rQn2P57qdT8eNo0/65LVvskCl77LeFO+O0zbPmfcA0C0sBBAaIXTvp+bvL/UBhQ/ZtvpvvUuKj8VElC/NnwmvwLvvj9/5tC+aH+9vov0lz7Oer4/GfkDwJ+pMj/WG3Q/QhIQv2tHjj/+Y6c/k9tBvpdYrT9GGnU/ggLZPTD5wz9YxLS+MyTcPzWvBr8AIRu/Rc2zP/Xjyr9MU5++VUH5vrkBnj/BoIU/yO3IPpNSiT924WG/swIiwLRri7/OkjnAYMyjPmQWOD8vNVq+c3XlveMPbb+pVrG/EE+KP8Ceg7/a8Zg+4/Xhv9SfrT95zMQ/g6jFPo1iV75m7607CA/hPrpO2D8SmaK/rTBMvlbuf7/xo9c/N1AMP8PA277fKv++bdvevwGXKkBnClg/1Uz7P1XwJb96O4C/DAzyPuiB3j84p+g+mICNP7Fx1b+UoN2/e+QHP5eahz+UeBU/p9wcP7z50b5IQnm9b5kMP+YABUAJcZw/8DSsPc5Rdb/DQKM/MdMDv60cMj8INN0+BlOGv5V44b0ZOPk+eccfv6KYwT/aLKI/90ImP5mp67+wKai/QW4ev2Qs17+DghdAMiafPVMqPL/JfzK+9rvDPwh9Ar/syS0/fYfevlqaFr6bnpW/2xNpPyiCtL9KdaM/6Z6EP44C8L+ZAei+wKxUv0nfdj7nDSq+mpEAP6Gb4z+Rvdi+mrEDQN4DaD+JKOU+/Z11v5LRsj4i07i8G8KUv/hTJL+Cr50+P4mSvr7Mmr9MBYo/JFy1vgvieL9B+Ha/PtLXv7Q/K8AEjG87uAaUP2/jHD9wg4y/ARCjPmqPbb+u1b6+rge6vrtiOL+ymAO/liB8v4tbDT8Yyba+8o65Pr287z+2DlHAGPZkv5bG87846Jc/GRtbP9FP+D6489O+ZhGLP+lc079dbKi+8oyGP1Ht4z8O0/U/gT5ZvjOyoz/lLi3ACgjZv0bxBEDlHO6/t/dXvwZ3zz0zNyu/2KYNP148ED+ckyLAfMclP9TzHb7l/DU/vqSqv+OA2T9jUKy/j02FPwAzHb+Vst0/EcknwM6Ixz5Yq1i/3dxnv9MVvD2LzRK+Qd+vv4MJ2j8eLcy/uaTEv/CLuz6TmiG/50+sP36pqj9h0x2/LiA2Pqj0pb8r1T8/EB6kv7w0/j07XCg/iJE9v+JTij/nNsO+ICFrPg8XsL4BX5M/832Nvx3nb74awVs/jw2PvxSaH8Ato7K/NN0kv4yiWT1xqvm9a6cQvQO2hb7xOMu/af/tPocI+78qPMi/+yV4v7aFuz+RZgY/KHwcvXUcer7KtJi/X8Pgv4J4F0DQRhs/c2vJPYT9fbw1CSm/JlHMP2bfKcDgNRvAYlX1vvG3kz1teyI/JurGP16nAL/V9US9FKtEP50wXD4nRjO/Z0XSvYCewL9dGxY/eEexP0LIg7/AO7K/Kn5aPhavu74meTE/akuHvefUiD/GbwG+6R6ZPx+moL+NRmM9G+qFvyjkfj+Lj6c/bDdfP9wIRr/8Nkw/1/EkQO3XpT7K91u/NgzVPs4tvL6bMwQ/2/9Cv6HOpT8yHRo+dLINwGg4dD8CQLa/vEx0vmjtHcBGUbk+u0FZP4L22j7DkNo90budPywDqj9XF9Q+9Y6BP8wyUj/zQqW/1m5pvpnjIEC71em+LjwXwBAKlr57hL2/9hzxvr2+1T6algW/HmtUQGUn0b8Kmpo+5OS0vghe3z+JI5k/FlWQvzSH/b6K/XM/vjeBvbWqoj9AhiA+Mn0XQJAdib7ehN4+HoKBP416AMBsNkc/PMcoPZzvqD53IZw/X0W7vw7hHb+6jjM+0+2RPXrWgr9uxga/+1f2v4LNHcAQqIq/FSvGvxgU5r6VlYI/PlgGv4I8yj8AFgq+lzdPv6bjFcDkgrS+L/afP+nBh79gpqO+LYfmvhpizT6Jj4w/TjhGv3PsK78Jm+A9F8hFP28sgz+4Kx6+xULDPkZmQT9uffe8+BivPzUXTL+wOoW/0BqtvymmPD/mnE2/WOI6P8w7ND/iVIa+lp6Ivj7ylTzkdq6+N8zAvizqEsDGlOC/EL2RP44bcD/w+pk/jeILv8r9rL55GMS+/vUEv0ATlz6U9RPACNwMQH4HIsDYVjG/j6p7vswJmT+QOaa+cqO3P8EQGr8J/+y/bPo1v1WAtj59LoS/L1h5v94OO79aoJY/CdFXP4oX5L9Eth+9NmmbP0Jblj8VUXc+v0Whv23blD7QIhC+iXOzv3dRgr/2PB0+WtODvEf32D+vWti+xrTjvz9YAL9BbtK/ANtIu4XBEcA7CIS/cgYBP2Nsnr/vuCJACUhtP8z+Dr+viIs/Nw2Mvz28rj4s22i/iUBrvx+mxD6ii0w/ZGXDvpMTKMADn6k+iVnDv5UhEb/KfOE+wFMeP8rQNMDEECm9Z6fuP2/RZT/D/Kw+MdUnv6mzLT+y2h5A7+n2P10yBEAdJhPAPjfvv4DkO8BHrUU+oct4P6LiAUCM4Ro/N8QJv1BxCcAj+Tw+fttDPu5cWT9a5p6/EY8Sv+pZGL9Z19C/v4M3v9MegT5V0ym+qVziv/Tenr+VBso/wVcQP3XbIr75jkC+uULAPsODJz+Rgf4+qaAJP3XyNr+Z3RG/lidSv9EZUj8VHKK+5oGfPxAthr+0sga/5uApv5hthD+sm9I+mRfgvobwpb8gVSq/oCNXQJEOAr8dkwQ/vwjMv4JPlD9NYTo/XafKvgtACL/w7mC+oMUmPxNSJL4m1nC/5Rq1PX6p1L/H0IY/G25Yv6xhGT3ZqqQ+o4r/P6F51L4Xbii/gvEvv/4cm79EbmG/F7w0Pu4EDj1lk+0/n1vgvvkL3T7H0TU/W/2cvoGOtT9QMps+GzsYP/ZRXr+3n7K/vm4tv10Whj68nLE/9ZFmPwt50T/q9b89D1x0P7Zulr+IZJ+/aylvPx3ygz2vFOI+ajmIPpo8rj9Szo+/5F8QQG1dgb/m+BnAhrGPPlsXGD9ARWu/k3QvP0oqSj/WiIO/dwC6P/2bEcD0Oao+H5KPP0sHJb9x9Po/4t5HP6kg7L8DIoQ+4f5uQJsIG0Be7sO/188VPrS2qr5I1eM+VhhEv58Z9b7QOr2/YjCDPxm90r6JMPI+SGf5vlCYQL5pNOC/ZaHLv3n8N8B9bOe/UzBtv/HRaz9iM1a+MVETP9QMMb9dIY4/a+WdvzEQsb5U0Oe/JBmnvmpgjr/1om8+AxBEPyc+b79XtIw//a/dP3GNXz/9BwU9fI4AwGJuCL+/f5A/aMvwPuyWW74iTYk/MXAPP5ni3T4ms/E+gsOLvxxUw79+UkA/P7h/P0xSMD8CNLg+F3g2PwolEj+gDDM/w4wZwE7Aar4nODbAeXBKvjVsDsA6BY6/nLPpPzaBtz5BoAtAeNoVQLOyFj+E1V4/Lmr4vkBa2T8dWgQ/1zb9v+cE5T5Wuw8/Gn0tvsOGDD8jEKs+a8q0vpKbh7+dt5Y/eO/AvWtsgj6wqQDAloP6vtLE3j0Ki3A/nzt4P5eeK8AD65w+LUdvP//m5z5U5Ee+jLjuP9Mb4z4O2ZK/Xes6P13AuDwadqu+qMsJwIM3nb+A5Q8/6iTQP6RVfz+Jspc/zhqjP7lLpT5tQdu/iWvoPoqmoL97g7W+D1Ijv8CpAEB85Ik/ahM5P2kFAT7dN5W/WTeQPxzhej5Pk+k/Y53NPWoY9L8ujYw/TVUxv1nS4r85/n4+vEXpPksNVT9gYzM/Q+M4v+swPb/8EN2/m+E0vzoV7D5Zjps/j8LePgRdRD5BqAVAYckLPWePtj8/nb6/+2YiQO4szL/0Sd2/CuvPuzXoGkARTpe+uzSvP7KyjD54sug/qW7VPgj0m79o18c97tndvaT9dr/6W/W/C0YuwHWcC7+CVoU+ZqAZP3x1TD9L2oC/hHaAv6T/kj1QWYw+hk5XPrA+tr8Z3c8+TIdtv6iUvj5cSRk/Cabrv9Kyoj0beA6/cY4DwBJMbL7uNQG/SLkxPr6hMT9I8HU+52t1vradHb+bnzE9gPzNvZL2Wb96/fu9bI/FP8K/Yr/9BWg9U3YpwMcoJz8hiNy+k+spvteajb8Wtx7AKTCqvgI8Uz/nFYQ/pRnzP3ODYj8yFgM/RgRZv9sgUz6a5dm+FADMvckkq7/aHaA+ypOKPImM2T8vwYM+Hek9P3apzL6hk0o+5UHpPkV1Cb+kW6A/6SSOvwOoP7+LNDY/DxOTvw0ypL7Ecsy/6rKSvp1Xhr8D7kk/64++v8GIkD9vNl++OkSUPzqkwb9vr0i/SBl4vxL5CUAhL9C+UidWPzFtOT94JMk/52wmP1SNJsDtp7S+vCQQPtrrEL/44y0/7NbSv7HQLD+6sn6/iPmHP3mqrr1/Kdc+I0j4PwxNcj8yyA+/cpvwvvhmqD6GrZm/FQRnv8XeSb7lI6094ycOv8S9KL+baBhA4MiIvxM5AMAysZu/ri+/vxj3fj9ePJY/1kgcPYg60L8at4A8i5dWP7EBrb6JNO2+pm2pv8L47b+3V8O/OAGpv/Hr0j3kNP09Wa0UwAGRGT9cYku/m9DLPesLXD8fTis/GCM0v35VDL/NxHW/r7FMv2TZ075OO1+/Ij+HvgxJh74Rad8/nIxnP6PBoD9e4Dg/WZe8P24Jaj108gTA3M4PwOWphD+9Lbm9mbM9v3krXj+oEbw+Mvixv/uknb7llLE9FqmZP2SF2j+Tmwe//OnYPhPLjL/LKZm/XR1swCFf6D2ALII/kI4QQJYPhb8sRNA/c3jiP12AYj+Eaiw9WX2eP5E42z0gIiu/gmXEPwofqb8p6Bw/p6tsPhPHDz/HCwA95aiCPzLZRL+rF/O+EZuDv86SZr9x21c/6lmpP9wk0z8uiBW/9NPnPd1HGMBM160/9WCEvtUIvr+j7Jk+k68bQDGgIr9wLE+/BwxFPuP36L8iP1I/GJ0ePyA5BT9UDRs9zFsMvzyiZj+l7cS+66qKP8WQg7+3esS/8+6nPdRmWr45kL+/XsfPPr9gtb3z0YM/KH4vvxF/5r/SmGu/YzSxv3pVnD8G3WU/J/y4P6xbCMCD8yG/KZWAv7CE+L4vlwzAIixhwCZwxL/JlFC/Tnucv7Q66L6UpDK/pBXBv/extj4mh46+TO0+P76Fkz8LkTS9SyLwv57JF7+R4JE/K0lvv/J9GUD6TIg9oEQIv4KGCj5dLxM/Y1DtPdGxtL+CI0w/vlFhvl0s1L9ffAHA6zwGvyKRsj9WtPG+GPbuPnBTQT8m23C/dpXWPqDJScBqDMk9DbRFPvN0t74dUhO/zyHePhNXrr/2+tG/MjnpvzQ6zj86lVQ/fdiUPSUyMcAij5Q/p1eMv33dlj0qBPw+LrZfPrYkN77Yl98/V6IKwE1kFz83sRFA6hMSv1igbT/e+4a+GglNPxdPQD+qSPm+7t2mP5ouyD0XEni/zpDUPeleNT+1TvM/iPYSwAf4a7w4EJG/7Ck/QGvhgz0RgYk//GcUwDOAwD+1fUs/sHW8P78hbb+e1wc+YVRav+2Ddb/a77m/mKjgPZjXDD85KiS/jAR5P/TeBL9vyTG/JVDPvy0QHL4RP9M/EUy2P913MT/l4qc/rsi9vxFDQcDF7yk+L/eCPcn9hz886MW/xMLgP4o96r/1aI4/KyTjv3TgVb8N4be+OR2zvmUkWr9xKIm/mf4tvgbqHD9jJ4Q/Moizv3TJR7+pqAu/zj3HPz5IEkBtXyY/sCz/uflz6b5AwpE/cWOSP9yk1r8RtR4+gNGnv+z8zD9QJSG/O8ttPh9Vsb3FxVQ+xzOoP37dbr/r0Sg/xfd6PGMZLMBcVwI/OtT4vhf8EsACL5Y+s4z4Pq/GLUDy8IY/zreqv9L0nj+DAVW/k/r/v5tTsr5qfMA/oub4PmeK8T/4zYI+RG9VP2HMXr8XWzQ/h3nZPwXJgD5ry70/5NAdv+urJj/Xb3m/fTNMPgSPnL9+fKw/4v7/vzPDtz4scyy/YANfPw2B4D/6ZkQ/eCoDP+DQf79seHY+ykDAvlr6kjwOn1S+ZWARQK4e4L8aJbe/6ugePIuy4D/FRrq/9ucYPb6tTb/FGbQ/2TYcv8MDwL6yPc07BNoFv1h3z7+2ZgW/DDROPmEI3j9kAbS/CWG2PylFRj7Ku+w+4oHEPCRusD9HNs8+j1ygvhtddr+5x9S+8tmKP1xL/z8fTJi/eLPCvuV/zz+lRG6/xx+tP7RZNT88kEU/d9vjvljQDL/95q6+pjtIv7ZyzT48saS+BfWovgGNyj7fw5+8BxfdP0WQkj8tnLm/skyqvqBsaj3MDyY+4nitPlTl0j9C/qs/d3kmv/tXQ7/qRsU+Gy9PvwqFX78UhXY/gV08P+XTjT5B4Hi+0OkfvvWylj/v0G0/kYnLvuOkg7+v7ny/eiKFv43uuL+anzA+E5X+vi+0HL+vHZc/yvTPvqnuzj+LpR4/QfwdQJ30hz6eBb4/us2+Po2VL7/Fk0o/cmMwQH0TuT+CCGa+9w8EQMrfvj6d5M2+TvwXP2kFPb5Qjwm/rYhKv3dHqz5+/54/3QPcv6uCQj1zqW2/WQ3bPwbbGr/LAam/bNgfwPszI8BosE8+5oqqPz6g2z3IEiU/w5sPv9PQtD8GPA5A4rd1P7a8QL/VNinAWVePv6vZB7/p4rM+Es/GvOcRvD7Af/S9z4SwP0vp4r6Iw4Q/+YeAP3BfCkBQpmy/QKX9vzWlYD9I38w+BKL5PeA8i7/Msqy/xwbVvW8Pqj2zcXk9nX8kQKSL0b6pmYQ/SZaLv/sPg751g5I+zdOcPu/1Fz7/jhFA/dakPs0q6D91RrO+zjRQQLN3Nr123wO/WoQRPyZA076AJdw/gdTZv3pWS72QhyA9gri0P/565j7jl5U/FMSvv3o4gr+iCL4/MJnHv4glET/S5+o/tcUWPw7pkT7vPJ4+J320vj00Iz8XQeE/9FPWPk+vH0BiPkg9nZ2Hv5Kf6j+LYQHARTahvj550r67bo2/lovJPkgJwL87Qcw/4JQ/P0RuuT/u5ARAVBrOPlR92z77FHE+z+gCwMBngj8kt5M/ionhvzvDg7/Rai+/+SXPPBwnez5QjoU/lpnMv3rCEr+Lmfi/v31GP7uuEsDZvSRAcySwP15PYj7WHdY/SIHcv6AN/j5ZF3S+zgqZPzPYN0DIKQW+sJP1vmbYOT4+nx4+gAwFvzGfkD8va70+bXPwv9KD2b69mli/1z42P4wqf764op4/QEWuvv5Wyz8Utpc93nPbPkuYHb91+mK/epFfv49FYT+sJtq/WZALQHo2iD+YP/k+pQ4XPw64nr8kEJo+W9LRvnZvZj9g9Bk/AxDQvyHqEz6atAHAY1Qiv9E2Kz4pxpw+XOM0PW+oDb/g1/i/m+GsPxyuw76KTcg9DGrVv8vDWr+RxHQ/MmYcPyU5Bj9AlIo/SESNv1KB0b7emM4/viVrPzp/sb8biZE/ibS0vRQQGj8Smgy/lousPG2+mj+/Vw4/GV8uv84Wjb/YeC3AU+cJP+oJ47y2VgM/ZzwxwDFjSD/cQyS/OJe+vJ9VTr+U0D9AvqHiv+I4mL+8vxq/i5GCv74P7j5Gvjy/zvmhPyvu3b/Qflw/s0yvv0T9wD7VsTc/Ff/rPs3KKL4+RoC/SKcGP9xngz4bRBG/DiO2PxhOpD/lKpK/e71JQEp0RL7+fmI/0lwUv/yHLj9xLKk/yULkPiNgL7+aCUY/5u9eP73h977RbZc/lOAdvuXCsD/06o4/cfRtv5Faib04KaG93JcXPv7/2D9CbQY/IrfSv157nr1Qdw5AeP8kQKfOU8CvWZe+Fw7tPvQlgD9WqKu+pv+1PkSLgz8qtY8/tSSSPvD/Jj9jdPg+J4DUPxDsVr++PYQ/ktd8v7Cebj3qfgA+0qGLv/S2g76ccZG+y9zyPyeFRj9FNp4/sFL/PxntzT9rcg0+FnjQv+EmbD9yyvo/qtuavjX93r4fVSc+s6IfPBEwFz80qsY+PqWmP4E56b0fZoi/UshZPwRM8r6vweq+9LEoP/SVg76eUwW9bsb+vmaWWcDXL6i+5JztP4XIn7+ZH5c+p1VqPn55ib0sj0m/RPdmP2R5qb/GgzE+CBlQP+3Cxr+S68c+Xc/OP3QAAT/ncUy+qBceP0nQE8CYJeo9p//vv2DvVb2eYx0/CVMqP9t0XT93JVg/XGHAvVPXPr9YfZE/735+PlCkzj4YO8S+NFAeP6LUyT/5jno/P4iGvzLphT6DwqI/4Envv/NECMCyCbk+m7z2P1npgT9KZjg/obOUv04vGz9tcaS/WRnGPw+Hkz8Gf8O/KHiTP2cr8z5lRBc/mATovwC+mr/rQ3m+jC/0vyVHmj/ob8C9lcF7vmB7PT/ijfU/otehPt1T0T/45po9b2EtQHempL619rc+VQr5PeSBIEAByBBAoZELQOcHG76N/qI+cQijvwIi4j8DnkW+QP6kvWR2Ir/udJ0+g6nTPpdCVr+I2YW//mx1Pp96br/uP4u/5w32PxIgCT9TKcY/9v4KwC5Z/D+6K00/rljeP4ZNtz+2aeM/SaGuvkH64D/UNkY/qJ9mPg2uHj9kJnk+JOFyv5LvsT7DIzJArAz7v0Il0L7ePc6/IbBYv5Xrhz86H10/xiNDvztogj/P03g+ApNUP8bnID/BepA+u+MZvkyJHT/Ow6M/tD5mPdkmb7/w4U6+A8J8P8JBGUBHAAK/T/amPwb8sT7oOIq/85Ofv87htr8nmJe/Op5Evt2O076kq7a/XFKTvk+MaL7JuwS/1WMrPiD8YT5aH/g+IcuqP2xDJL8xJa299E2nv6Zn6r5i4BA/tykvvfTOgL/qi7s8w6FcPuuGhb4mnxe/ci6IP57oQz8QMso+I564P7AQ5r/ouLU9Qo3jP8R7Ob8G5xo+88sTQPYs+j3r2E+/TmNDvzBk4D598ME96ccJv76ogz8C4OS+gQ0CQOEBiz9C5y8/6qc2vw4sjT8u+Ly//2guwESavL9klDk+nLKAv2Yyd78fkau/gNIlwE/dxr75HFu/klefvzRtHkBmKUy/pDyev7BiFD+b4wE+4pjdvzvWBj9VuFC/oQ2wv/F9JL9VUrK+G/sAv/Ertj6wWcM+mgQrv0DTyj9Sd929A9vxvvMs5744V+O/2U79PiGZzT58uJ2+5VKXPrOVsD+A4VY+4l0gvx1iSkDAqOw/HiaHvzLu+T7y+FU+CT8Dv7H7dz4TC5u/4W4FPoW/PD7iLYQ/6H7Wv/iZ6z61uyi/078Av3/iwz48yVu/LT6DvqAzLT9Ocmo+qGYdP3vaKb9aqAi/Iuarvw97a74rUcK/1WYpvyylOL9K49o/CjcxvySGvL89Vhu/cFesP4uY3z+gAIQ/R2Hnv1bEAT+Uvpa/rc0LvVQIvb0oIUy+AQQFP1mjjb/f7Is/av+YP7gpkr+AIV6+S5GUvzv72z7y7LC/xZ9bPkLhsj+A2BtA4BOPvvbQEECiMLE/iBmUv1TYdz5plBq/+El5v5eWHD/5oXA+t8CQP96HST+zqS2/dLWIP5rDiD4VhO0+49AXvwWksD4Hvps7BcZwP7nAKT/vj1E93KjPPsma6T7zq0c/PKd4Pjudsr+fTx2/8R4IP62kzL5z36O928D3PdmcF0AfTY0/FOszPy95RD8DSfE/g66JvX1z4j6degdA480Hv3S0g7+v/3M/4cViP0vl7j7hTdM/0VGyv03TPL//NMM/f/vOPv0c7r4J3sa/RIRpPxll7D7Tlog/HJXmP0+W+z4vJZc+DScPQA0+sD+Fn6O9RMUpvqJ3w7+LzSO/dKqFP8+7X794D4E/Pb99P87Hwj8F7HC/tl0fwJRzQL+jftu9oE6vPnz2Mb28KYo/8bNPPyIFhj/0vgi/O2trP/QMGT0hMSnANN6tPjR1iry6aixAI9/FPsHFrr9VFIY/qmvJvUjbf78reUW7tOUeP1E2S7+3FAXA4k8/vkI6Jb+Y4QC+UW5hvsKVZz6DyZU/KeHkvurEXT8O40M/4AXQv1x5MT4zdam+vHkJwKISP75B6z8/8wDWvRILuD+BbCZA8vRuv7/Kfr8Wrge/3inNvnqpSL8HBDE/riFIvVsukT/AOok+0XJpP5QdPr9erre/WhFgvyvcaz833So/hy2cP8XbVj/WBsG+2GgyQOhrnT7GXnE/kbPWv7ApiD7tEQlAvQTeP8oub76W6xg9/auLP/5oMb2lBQxATegtv+xImr6JGre/BdR8v6ghzD/vndk/U4ITPzVaIb8vMAu/URHzv8kmMkDGyWk+nOuIvkeKXT+yNCTA5gsTP3BHCr1g7Eo+42AFPvXR0L8FqwJASrgEP9U9yzwUgAg+D55EvzraAUAL1ATA6jCWv9y56L+dIqw/laa3P8nR+T+u0JA8tTrpP6eRGL/OCky8zqiQv4X4pL+Eg5m//z7QvyDNQL4ho7e9vpmJv5J1W7/m5PW/wvYpvxcBKD+6GH2/pzShP9KJfL97H1Y9u3Wavhsfqb8Oj2o/uXi5P9KnUL0aFB49I610PzXPML8i6AbAz9JMvzLo3j9soGK/AablvqM2/r75CR1AP+9jP/qu978CmBdA6+gQv1EZjL/33Oc/UbwHPytZ+z7C8y2/dBm6Pg5dvT009ey/Aa0QPx8z074DObW+IY3UP70Tlr9v+/C+4QqVv2d5DEB91HQ/ZXvRPqxiuD5TWbK+ZHvOvxmbccC55Kw/WOOXP8ZVxb6Blcu+TR8VQATc/D8JYe6+u/XjPd5Bjb6xHuM/JKPbvt/5sL//SXK/ZBXJP9pJFL8D6LI9Rzn+P6FCJj46yqk/vficPVPbOr/2BIy+urStv4FEBUCZLM0+/+FmvikTAECF7ArA+FQSv9q8BcDf12a/L//LvlrpzL+nv38/9Pm9P/s0Ab/J0ws+Q0+NvtpvlL/xyec/w96iP1N28D/hKpK/gfaEvwNOqb69Jfc/NYJkP/qkFT8Rltq+24eWPwwaxj96rSa/2kS9v5cLgj0ihge+DEo/P4BpMb/rLoI/23FOP5R4sr3soYM/8veRv+MMWL/crQPA6fa+vsnhZb8/e9w+f3LRvmK8er6Kehk/lFEtv3l/kr+DISRADcWFPz5G77/G1K6/61zHP9bQu74c4RDAktPWv1nhMb1rS9Y+TtiOvooi/z/CGWC/i3hxP4KYt7/RC4u/bU2qv/fNhD6wchS/GXnNP/RAEUBFK6s/JB+YvCNp0D3KUXm+tATqvgAp/T6r6K8/H3ZyvzmtIb+OyKE+ZA4DQAiEV7xeL1W+gukXwDtAZL9oO7g/m/2UviUruj6mw1g+wR/xP7UHZ72nGNw/lK0gQFaChD51JEi+tuQXve6+pb+OawI/jmecPkDnjj2ZjALA2+86vxGJzD6c3y++zU2Uv/rnpD/Jw8C+Jr2Ev+teLj+ewX6+LP2ZPa+emz4pzixAB8gTPwl3+r8g93xAciYHwBravD84IL+9QvaVv+f/xz+Oesc/WXGyPyeSdb53i8y/SqIov9cqjr91uRY/9ps/P1Qpjz2BiAPA8fNxvE/Zfb2pax3AXTOOPosaxj4mda+/06wfwJ12m76u4Zg/UEyOvxuB3L7U4Yw/b/QZQGTO5D9fMFO/IAgwP4BJQL/WoOC/Yec0P961Vb/RI0c/dwwgv820mj+uZ0Y+1vzAu7jYxz5CzDs+5ENev/SOjj9oBpM9r7sYP7x3iL97o5s+MrgpQJikC7/WLKy+SoAqvUOj775tVum8+oSMP9GAVb/3pM6+Zv8kv7dElL637whAPPjlvlw5tr6tMoK+6IIQwG/kzj+GbJm+G4VTP470UD+4fnK/6hS7vcTqKL7rdXG9gY+xP3s0Pr9naha9znBZP3ZICDzTCVe/6hbKPs16uD559ExAGFSbvQ716r49o0m9PaLEP9C4rL9ncIG/C8RBPygJv797iyw/p9y9P/Y8H7/kDsu/YmxEv5CiRD8Wqg2+X0ndPwtIFD82m3s+m8qGPs5Kij+UrWq/0UDPv4RRMz+hHRVAvsiyv2AAF75w1Qc/gfMiP+qjE79m+cc/RSwiwAeDLz5hJw+/XAOVv6Z7Az38B92+QSFVv5edEUCgKNa+44CGPREvvTzw2S2/9hDGP/X1sT67Vqo9Mh6Fv02f1r8qjZi+Tt+qvTVxUD4iO2I/cuyfPm5kvL+lXwHAnoMXvM7srD8CR70/D0ecPVEZPj8tRW2/iIHWvsKFKcCP4oW/x8JsP0Ktgr4G9nm/yuO5PcQvaL8sPsw+8L6fv7ShXL76+KK/uL0gP0mJbT+IBK6/7zipvk77Wj/V4x5Ag9sMQJd1ez8j6tK+V3TOv1hLJsC0I90+AF5+vyobBD6V/c29nHU8P2gREz+BUTy/PHTjP8jomDwDPJc9algXv0zfyL9WKCU+jVQtP3jCpb8HMi1A1be+v+Y8vb5MKX6+40llv2f2f7+LU9i+Dzk2wNS4mb7CQ6m/z+IqP7boy7+sX9q//N0AQEhG4j/jVDq/WiiwP7Piwz8I7aS/vimPPPhHsj/GtcA+uFhQP2Bx9b4bgrq+Ed6Yv360Xj87oDW/n22IP58y+D49SKC9/rDiP2+CF8DP7BA/ZfOMP1iGrD5Wig8/1cGGP6Cjzb9bS8m+UgYCP6nzr7wqz429FXZAvycCmb/X5rc+MsQUv7T5vL5szbO/ZgWGv1KOCT44Cu8+tpE2Pj5pML+Xzoy/3CMZP4AHEj/Q0e2+ZlOMvrdWXb8nY34+XUdLP8KoBb8cK649tHdtP0JmGr+F41c+J1ghv51T5z5b0m0/4m2ovhhtgz2YVp++xQjcvSZflD70tIk9fK9Xvy7Zsj8k2Qi/G77nv6MwsL8CS10/P32tv1DMXb8kL4S/nlrGP8Xx4b9sASS/rNH7PjhwKTw9Op8/o5SUv6Y9Jb9v3PW+PeDYP59KeT9O6fc9kZlrP2JVhL87G34+0megvgGE8j5cno69QHudv4sSBD98Pu0+TnYlP1QuYL8FJqu+EXPtPtc4jr/uJ5q/lUNhQEezvD7t/IK+xb3uv4sB4z6/rN++8F2vvicRhT5wvBa/8VzHv6LeIj3f3Us+Bu5DQAOunL/TgdM8OETLPvq10z9U9a6+5HUxP3Gpr75bNAk9fgG3PlShJz/9Pzy/M9OJP7dDjj8MFAxAT7gzP08k/7+8S1k+SVssvwHANr/am5E+sgqMv2DSGz9RWDG+H2IevzUmWj88ATw/t1qsv4PR4D/yZpu+X84VQH8SXD+Rg1g9nK9zPgprJ78HSYA+dI/dP+p3BL1mCcU/IJmMPpDh3z+dsKy/sOYvvrit2j50PSNAh4l6vlZleb4UoF4/nEkDPnGqaD9jKQy/qA8cv+gLB0B845o/gcfePy0q/75OWxQ/mrjbPhivrL/axDw9/6CEvjK7or+LAh2/4m4lvpi+0j0a+ze/9l67P23Jpr0mHpe+C6C/v2a4dL8dB2NAIM+zPkRwBkCKd5i+HSzMv6q0k78owz4/U24dvlNm0T5O1Fq+vB9wv0wS4b17uGY/FDFYv34hsT9M/0+/q6kUQI0Y8L5BEKO/B5mYv0JNDj/jxou/vYJ9P1VkS76jAZq9K9M4Pqjq7j5MIpc/NONoP8usyL9uGU+/dQoEP4/WPT/rQ9s+FC2lPura8b6MOzy/ODZ9Pn6rIb9iBNW/T1riv0Qkdb8ukd89iZB4Pgj0tr/isO0/t6cowGT06T+ISqA+UhIOP4W0j76AXx1AoGtCv2qbkT9SA/Y/eKDyPY/eyb4rTLA+eWPfvRb6Xb9Jebe/6xqNP2UY+b/p1WnARISjv+r6Cz8G61o/PtJHv4v0vD/by/k+fLjNvsQ4Rr4VMv6+Zqj+Pz0hp7/gcte/hzXPPRA3H78zIzO/C2PyPw9dlL5+PIu/4stmO+JcUb+O87+/Zzw7PhK6Tr+CgNg/M7jgvgDGiL8Qupy/m4UwP7zUCL9f3km/DqC1vz9EMr814CFAXZKcv/OcIr5XNAa+fFUWviwdfb9oAWK/tLPzPBKvNj+Jk569lMubv5fJ+z/RDY+/yKEaP2oCBkB/lo6/PDgbwK2QjD9at4q+UW2ovPsFq7/Zp4S/W3eBv97Rkz94RYo/MflDP30hAT/bKwbAfVv+Poo2w74kS1Y/g0Bdvy739j1NHIS/61rBv+cKgD8nUyE/v9+bv739dL+aGpw/OtYmPbWmTT/PnQY/80OdP7Wbhj+Z002/Vfg5vw/kyz6WICw+GCyGv3ewBD8ENtU/cEjtPkEBk74UH60/lha7vvA9ED66bhQ/UJCXv0E0oD8EGI2/npSyP2Zvzj0PqtY+utzUPgwU8D5Dypy9t6vovjGehz/tVAG/jnTlv0u/iz+xSUm/aQmDPz9uEz2XDGM/R6Advz0ONUB4HbG/hVGVv5Frfb9KgEi9DtlAvwGGzz9h0b4/eZ+Xv+a5rL+pKoI/Vr0IP8DBED4MSgXALHa1P3lOEUBxE8M/WOpZPyCca757BV+//mwhv9OYAD/93ci/OtEsP/TLlL4hFvq+kO0CP77p7j8fRoO/hVyRP1U8pTv64YC/7AO4Pm4ONL4h2A/A7FvQPY95Hz9sGRFAFGCBPxDZt76Z/em/QIvdvvcNnj+y6bi/BRWlP7Wfpz/aTwDAe+W0Pju9g7+PkQPAGz9RvfgRFT/E8e++30jgPwWn0j6bJnq9rxt8vkrEF8B3OHy/YhJ6v7K+6L4oCSM/ksI+P0V4Wr+E2mW9d1ICvjlwxD+EvW2/B0kIv4ctDL7pco8/mAyJPxwPI7/6NJS/qVGgP1J7x78evxRAzoGnv+AdI0C3D0k/kHG2P/pyiz5vK+w+rE7UvnuRur/arCHAm2L7vhB1XD8edg8/gsmpv81avT+bK52/BEUAPrMU8D0b75+/MMYyQGDEHcCwfoQ/vbE4v1vEob5OdbI/pm0bP3XJxz6BZce+0C2Hvkl8Q0Cf8wXAnnuAPt0VCDx9zGs/ZO2dvo6uOr7o2z6/XUvdP2IMsjy8Zzs/Z/2JvxX0GsC6N6890llXPwIKuz5C020/yhEjv7b4AEBIAnI/1Q/QPnJWhz+PAeG/J8r4PrIxEr/YC5M/qyCHvwfNgT7bbFE/TSY/v/o+oz9HChe98giVv09/pz/unD6/DwvHv1nJSz/GXs4/xawNwCB3OL5vK+g/RaEsP0Fkvb+Ncmc+7r7Tvi59iT4Ebuo+MukGv37DnD6wfYs/aCUZP581Hz7NeyU+5Zk4PY1y377kEyK/zZDNvq3M9T6g4Lk/V5Vdv95RCT/3haQ/X8wLP64XRj+FNZa/ZPUJPvaEwL+sxF09zQ9cP1cH+z7iLNQ+z2l5PjpnCD8U9Ci+QNAkPx5Ixb8qcng/1HbpP8ryrL/sguE+HhKuvzsMGz8lb4e/XJcpPGjBsz0ZMZM/B2/bvzB2BUCU1Bw/SaSqP0DA9Tyr2pE/dKfSPSuGhL/maoa9o6UVPy88Bz68sDfAybMEPuvqkb9Vv7e/JS5NP2yusr58i5W/QMRsv70vY7/FFzG/Se9KvxW54T4K/cc/7nDXPnk/ZL8ZNyPAi/MYQDAloj8YnQw/hde9v2mLcz+AbSk/VT0ePd+m6L5KdBPA/d/ZP1/3j79wPNo+NkgSwKsgyz8yQQFA9bzVvOWkB79rJbO+llPzvqex9T1Ub+u+T2aHP/8x4L+9XrG9NeC3vv5ibT76ROY/5DADPyShDj8bJOO/YKl5P6v5Z7/PKiQ/SuS3v17TQT5XRCs+Vni5PqLKAEA7/NM/Kc8VP8NXG7+o7l1AG4jbP4/M5T82Hus+MsZLP0sSv73wfiM97Kxevw7jED/1R0Q/42SJP5a6dT7PvNA+fbbMv3tikj/PLhY+q+kJwOUGnT3ndtc+OjCmv1tcUT9dase+XeBUPIsqob97B+E9EwQ2v2wtZ7/BZgHAg16avg/Uob9ZzUa+kbm9v1lGnz8JTZC+0MojPzUoL8C1erQ/2NnSPghCpL6lGya+4ZE5v7tLJz6CDzk/LBLLP068Jb8h5sY/YoBJv4b/FsCuGG4+M8F+vkyn+D7ckuy8gDHZP4B7UD/5NSq+hH24PhQ5Gr9npim/9qWCv5/Qdb4C+9M/+UBGP/Byqj5lNRRAOkE9v/FDKr+FlO4+ixaRv8sRR78Coms8e7dcviasV77B02W/n/J7P0PnCb8RzKG/QdnPvz+aAsA0ewg//ByPPn2tTr3gUBjApUI3v4YxrD9KgE6/r6l/Pyw+mz9hMAi/3nQEP+NmUr6J4y+9fA7mPaK6nr+HPRq8S/OpPpIUYz/YdMi/rjkrwEFnoz+VZts/zkagPsBJj7+yXrW/HMSqPQAs4L41fVG//KQPPs4Pdb+4vRi/D9ASwDz5BT+LoDu+U5ysPySRiD2ufbS/cKxHP6J1v76sGnI/Oc+Mv+6fML9eK6c/U4bAP0+cAECadDa+pl8Vvwu6dz6I4xm+v7qSv3NnIT4YoGc/UGPNv9D44b9Laiy+pmW/v46HH7/tPtg+4tmsv3CqqT9OUqK/cvJPvxLpx78Lxjo9oZitP7kEhj4/zso+it5bv9v5ID3EcC1As+DQP4pBkD8TvAm/bz76PivqIz81y+U/VMQpv3FxWb+bjEY+tko0wG47Fj/Qg0a/", "rnn.weight_ih_l0": "RPDCPnNHnT1TB/m9RQljvrUJ/rzP3WC+5xsTP2C5d7wFimq+/7aCPhV6Sj7OXJA+xi+/vH1IU72+jT29LNl/PYM5C7yXdNG+kjMKvlWzxT34ogU/7CBRvDFNhb7ED7y9rt3QPfitv75ZFKe7FkUgvgoY4j1fCAq+b75TvhU2Xz4muRQ+8RsFPhMBi72d2JK+YHUrvoFj8b1SmXs+XNNfvuu4CjxJ29k+/nwJPodbCb0w2gm+O/zgPjs0Lb43Ely+g7t+vm7LDD1ndqU94DRkvuYWzL3lvpG9N2AhvkGiwr1xhgu+S+iiPbtwQr3WtYu+sRjuPmhaF76/6sm+uAKbvJimjb1LUUI+NCosPpiwx7wk34S+cLaPPs1MGb5v9gk/S1ECPz1itz17niy8CIJ5viF1Uz6Gwo6+mtQJvrozNL1EGkS9P/6fPr+8Ej5RRHy+YKCOPeVZ+L6dfEA+ukOBvkvXEj//3IG+qCFFvgMHaD5L/xQ+jX1PvOz4hz1R4ds+nvWdvgVILr3jG62+WKGavUzftjuOf6o+7jq9vS5WHj/V7me9HN5aPtcsKD7m1mS+qlKsvBDOVb6LAS++TsEzPqhmmD0xO7K+NdTSvZ82/D6iDoy+VOAevpnQyj6M8ZI+rLP6u23NTL+qem28bVClPlSpIT7oNIa+M7njPGklyL0bpne+lNuivKwNYj75sIq+9qsTvlzm+729gTa+MOh7vLMLkL7PKQi+swGTPu7FpD4WbMW+VGXuPffkUj1iski+R+GHPjMA2j56CAS+wnkRPuNgjL6sSrI+EsxaPnarqb4iMT4+WpxfvHExIT6TvRO+8O4NPs4PhD4CvS6/wOFevhlAkj69oYc9P/2Jvo9wwT0qYQE+StVNvlhLYj1ui0M91PbAPqtp975BkSA++78Pv48EfL3zPlw+RcYLPKm9ET7oL2W+ukLPPNKzTj4DqDY94ypTPBK/eL7K3sG+G9mePFI0VL1WDak7YXTaPjTJGL1iAl8+MO+3vgF+tT7RQX8+e0jlPt+PVL2jiL+95z0JvYpc3TzjU0i+u+r3Pf2GWD5eN/q6wa6/vfxakT4q16A+B/l6Pi+zwb2nvU++AQm+va4mjD6HFEI+C14Bvz5IML7boxa/iNhkvas+lD76R1A+GxSNvsWZSL0AFhA+L7g1vlKnlz2IERw/8/6pPamFIb7+kl29/2tXPDWJ1j3HJIQ+AEOUvpWm0j4EggG+6BsKO7T0472gHLy+StZWPuPtOj6RSZ0+QrsQv3JBBD+2Uls+bjOnvg225z6jdVC+xuroPgL4s760JQ8/3w0OvgjmgT75xby+iDE1vknuvT0kHvm9g+mavT569z6Ygrw+2PelPlyZYr4Kxm0+V9MCPnhGiL51IG8+ScHRvu7jtz4f4AS9Fqu/Pjly4j4fv1G+Ki2jPp1Y076q6Vi9WF6dPppCM77nBkS9j0AQPW1RmL7IOeU+kAOevZbaFz5701+9RgGFPv7Hlb422yc+8PWQPsGMDj0sE6S+Fh+6PjCX/Ty5Tzq+qP8gPwIjhT0S202+dgDtPtKjcz5MTGU+9yidvFApGb6Qsm4+7bO3O70h7D1f6e69FtVovvxxOL4mxFM+MKW2vpGd/70FU4w8tTgrPoZAf76BbKg+zGv5vsF/9LxlW8C+NcsqPmb9ZT2W8L8+AgIZPdolV70ZyFI8sigPP8dSPL/u5J0+1r4ivhLjIz4nRmm9sd/HPRJQUT5ROKY+Oi38Pa9leb2P6Wm7zWwUPqGFrT7Hsw2+AT3nvUEt6j7XQ9a+2zL5PvGro77eFNw9xcYFvy0juL1lUOq+zxSMvcC8IL10nwK+ugQjPvmwuT5e3m8+8sXXPDZV1L57qsY+C7zqvS6BObvMxlm8AAW8u08W8zx3aF6+FVQrPuodhD3qdcC+KCO8vmnDFr77Pem++icqPq9/BL2v7eg+2E5FvRzxhj7jYvE+ivT5PEzLxr6S4IW+VegMPjWBST4wD1e+Qmcwv5eUzz2OldY+DudMvgOkxL79vSm+dYokvmrsKb5AYWg+UQNOvYNYF76V+dE7KeYfPqnJrD4rjuu+R0klP6psbr1SDJe+JBO/PoK/Ab9HefY+7kaEvi1Utr4rLS++yTL4Pbn9Jb7vxoW7w23DvR04Pb7j1rM+ryQzPgJ4+72tU6i+WLgevlyoZT3TjQK+GmamvnbnHL/QhcU9xt/SvVOcjj3mGzo+CbDPPQbzKr7F5Iy+H/w8PqvTuL7kxfw9a9vyvFbxlT4on8M+IUrlvXLSo75fOIc+ZEMAPu8w2DyEDrC9rprePDCIXz4X10M+t2cGPsW35z3VMeu+sbsVvksklL6FVRA91IDNPt7wp770vsS+SCpmPaxDmj5O+BC+EKrKvUxGDz2ul0u9WeuJvkmn0TzXflQ/1jDlvdohgr6MoHQ+pcKXvRnIFj4nTlQ+S1e6vaO9Pz7KzHw9caMOPstcS77C7oq+RWNOPW5ZYjvNBrA9ZN90PYHf1T455LW+yt8fPYGJ/D4g8cW+g5c3vhNoPDo7N+M+YVSbPh+VtD2fLQI8zTRWPqjBZr6N+rC+7N+WPP/BSD6H928+k7akPhYHsL4TK6M9LmPYvunw7D5O2YA8Jq0MvCHwqD01EIK+UlWyPgHwMT5/ojw+fXucPgM+qj39sge+akdFvq6nO74t2XA+o3tJPU+Nlb1CzZC+XuXoPcY1YL7l6HK+NHcqvW6OQT58QJI+bcJxPKImlj2JmIC+XuOQPoKeUr/4Jlc+uWucvvtD2D5txeg+V0Ievk5sur1pPVS+I401vyLDvb2PGvS+AeBzPnzgE78Vpcu+cg/IvlVhUj3CvdW8v9TNu9TNxb6gSYW+psMmvQ7hFz+WpX87HMuaPvc8c70hN/s6RWlVPAb6yz1wFQm+9p5nPCZehr48Q3a+/BQyPiDHE77Rg3U8Yq9NPSgGOz4DdQU+XE78PiyDdr4VuTw+EnmCPV692jyUgos8pprdPosx+T0ghGU+Q1giPyGahr4YjEu+RYIJvtXs+z6OmG+8d4LMPpfs1r2amYC+Z4U8vrvOt75fflq+Lj/HvrFpnr5qQ3G+MRKfPhbg0T6tkya9X7VIPvFr/72N8Oy8aYlyPjQQa76lrX29fg99vivGPb5c6lU+JtEMPiZHDz4oRL4+CPknPmCVuDxtBI2+Z1GKPqiSTD41CGe8dujavm7CA72Oe9A8LOrePVsy2b6fXHc+f3UXvb8cPj32GJ2+vwMuP+kpaL27fug+5rc7Pr43RD6c3Ag9y1HAPh4reD6ijF0+FlOiPhQeX76QiFg+l6F+Pv3Uhr6EKHs+/nQWPSgWFb7xFcC+Kma+Potxlz6wUTw9feGzPEfrsjxITcY+9DnOPq5poT2XSRg9o5+IPFMfv76Fvwy/KVqWPt99nj1966K9YuDuvicohz2MxUu+LVKbPbciqT7Qsl695dwFv5fqmzw41d2+atibPiNMoj1ydU4+e9dfPh44l760uqG+jY5Bve6Sl72q4fY9IdGavniuBr6uvAM/CYtdPezD6j4OgrA9qdH6vYJzUz2CB+G9rULSvZLtiL5QXsU+eTqkPf3+6D58yvE7jG1JPfABmr1z00q+ISKdPXbqxzw7Cxg+eAY4PWt0mT1ACIY+L1aSPYCwpr3aom6+eXQlPgt39z5ysY492ayDPq8Aw77QNkM8uQedPqhV4r6xN4O9hb/zPVmgML7efDI+v3a6PuZAOL2CG6a8+XzoviNYkD6ROvU9ATuAPjaRiz7taBM+GERevqwNEr2Zwgq+xVgyvivbGb56a2o+Ip73vkczNz2p/Tw+dtMiPkFXyL4yKYi8BKFSvvT/qz7Ey1U+Yc+oPq0Ngb4VyCK9m9anvjecGD5PTIs+1bwNPr0Po74cl6i+apWUPDzmJT7G7ck9YRtQPh0flr6vjbc8JZksvg6xZryeX5m9h96ePSnT8T3LuaS+ol2fPvUPvT4xkAi+YP6OvheUDz66HK09tQ+lPgwWqL54r1U+FekQPH23dL6E8HO9DgqSvuHpiL16xUG++RRjPr7bar6fpra+YSOcvrGVX70QPxw+V5lvPtvxyb1NPgQ+LxsfviGePb6ENoU+GVQlPnZzkD652Cs+IXYYvtIdo77ZTey9gwLIPUPSpL72dDu/zMMSu/xX6b2g/4g+bBQwPokaTb1LgLG9aC4OPkfTDb6/mr4+udgCPq3e4Tu+JhA+JZkFP1PYQD3q9+m+7dTVPILp+r5AQ8s9f55BPkuug75rvNI+iQSVvrUqNb7r5+I97iWfPhwGLj7xoMA9ZncJvm8geD4kE/8+oDoQvgc2hb4asRc9tgWsPvOjIj7cgRs+hg/bvu0C6j1wWT8+9cbGvdKMej7tucU9jzU+uvUzIz6WQCc7RRGPPm0k/j1JcS2+KhtdPrLSz7sbbRQ+AohlPn8np71tMbG9+z8zPu+me75Txjm+E01kPu3ggD5hLIA9ZpCUvUJOzD7MDWK+RCJQvhRNOz7uR4o8GzLqPZ6m0L5g55K9SClsvtG4szyoO+6+ju7pvRl3WL4aTxA+mbj7vVtHVT7ysBU8d3xZPl5tbz6EEk4+hDs6vr2C2T5ROto+Q4FDvWiXwr5l9cu+yQykPSVKKz+RFm88Cpn+Pu4IQL5YwGU+zgomvwMRUz3MnnW+vFQjvzdDTL3r9Js8Ep5DPklp2D7CqeE7KQHJvPIrx72SxsI9QbBNvgxuwD6lnFQ+82tJvr1MQr6YFJm+3GBRve4rlL76vVK+zoV7Pehnnz5NjUQ+FOnUPAuXSj7GXQI9BHeiPCYDOr2e0Vo9xSvSPNRRpD2hoDa+S9I4vpBoib5GAZY+hrCjvuy4BD6kmgI+ad3BPnq1kL3K0MW+NvkIve39Pz4my+e9SLrzPnixeb6ux3q+3NKLPgG9Az923+i9tTYivsD7Rr5j2so+NwIKPoeqAr6i7f2+kNc5vbEiDD9rm3G+n0VKPr0uqDvX0r2+sIbPPDQ6AL+TSjG+ZzVYPlS6JD6W3BY+Rr76vVajez1CxzY/s2CCvvCpeT6oKJ892LG5vHeQnz5xj6Q+YYKLvviy5D7MhYA9iCKsvVifQL4Ruhk+jlh0PgFiAz3jJEm+KfDCPjvbMj4I3ZC+fOKxPscA/TudZqS9768oPcSYND2VgLw+hq8PvG/fGj8GY+I9gNHgPuVFu77xI409GA68Prv60T7PaZK+N5YGv3INdb1t/Hg96S5GvoLiiz7PH4s95woavvkKID7x95s+Rk2ZvmNBUT7lXEQ+qlimPgcObr4HhEQ+tyfjPc7e2D3onZu+76sTvvF9/T0yZbI9ErVQPhdfkj3zt368y6MUPpLEGT5w0Q2+QoaCvsFp1b3MPqO+Q6uWPQfHMz0FuhA/4lk3vtYDD7+YaVK+4+CUPcnZMD61uVC9EAMBPXrvDb2jFmO+QP99vqk2Kj7rs8w9uqxyPrhWdz3QORC+9QzWvhLdqj70w5i9f2y0PpuP9L0CVLe9DynsPdfK0r68HNm+F9hmvsMypz4tWaW+BOsivhaz6z1vBcS+aI6ZPSHOFj7qtdu+WPinvkdqvzwRSDu+oEKiPoSxYb5MebI9AV/GPASmAj7R0gu+lyc+vcKRuD7pobI+TiCHvjs6gz3ng/28pt/6vGmwab0GxXe+FmAdP0Ia6D0aDAw7pP/BPcdgpT7SKJ0+8bfBPM0xhj7W/d48ZkVDPouRnT4EZgu+0PREvrpIyr3vZ2I+A7lnPaEiDz6vijE+xFuyvupk4j3QtNW9cABWPhJau76fEIq9PlrDvtJT4j619LA8yfTGPpPznr6SMFU+W7kXPRuKjT61LJ0+BtE4viB7hzzTJNA7aOEEvw2SgD04diW9gEORPbHkDr6LLv89WkkKP64x4b79hFm+uFA1Pc6nkb5aEby+ewkMvow3sb7tiKS9ueQYv4Sfor3Um6C+rY7ZPDH42b3hUYk9WTU+vC08Gb2bY8w9kbznPpFwXb4ZMXM9KZZlPLJJ1TsvSS6+WWKDvqEvTz5ZDJO+t7sNvcaUIL0ABRe+gQ9RvmtnqT48OkE+cmM4vmgAbr30OIq+jwF6vo/R7b2G79U+Ad9SvqbrC791U+G+zHwUvvC/MD7DhXi+7aXnPS2CYz6CuM6+3abtPjN+wr5/EQe+Pu1dv1/ehz5iAAi9fmGmvdNaML7XRIc9kCscPUPzDr5lDKs+iEgKOwcrmb3cjyW+62HsPGcrX73iuAs8BVc7PvjPTj4cu2++zBG0PibFAj3ToY29ajxivWk1Ab6iiee+0S1GvYv+VL5lzy4+PeK6vvigZD6Hebw+mW5AvmTkFj7K78i91FHGPHMen77a4Q++VidPPk81tj552eA+5uuPvtEphL4NIbQ9MesCvueNnL4gDCQ+9j5zPoxa370XXu+8J5KDvbCDkj4wjI2+iDNfvi5uK7/VWj0+eBosPsWqDz478Fa+9syjPjJrcb6PJYk+kd/NPlO8gL0QCfc+P7itPksI9D2U3sm+/QnFvFulm73K4vC9bgGvvr6mkzz2LB89yoMZvkryjz03/kO+zYwYvhsIrz63wEY+7GoIv3NIHr6r+fk91aJCPWK3tj5E8Yw91fcOPz8o8Dt+z5o+v+OlvupBHr5aOm++/6K9vdCML77NtZA8abqwvpaJDb8852K+oAoqPoPxFz5ZVZS+JnupPuS90D51aXw+PRvxPgE9WT6TC3s+UYkDvUakIb7D12G9wuiKviwm1L1PAMW+STobvswpyr32vRa771QGPiVDhDxQwLi7p/mPPD7MfD6pdVY+YoVBvZjBqz7Yj749EG2DPYtOcj5Z/4e+TK6fvSfl970iM8k81dl/vS8ryj5w4Z09q/NrvsUDyD484Gg+EGZOPah4a74bjVo+mPTNvpBL477oci0/AHcmvn5I5LzLGG2+NY/qvTPrF772DQq+WdaFPgeItz17+ba8DRRbPnGmBT/Wm+Q+AQoJvVtjqD1yiwC+UV/BPvWVNT5s43k7Z1UbPZ+zr7y27O+9sQEfvPQJQb4+6cg+Xg1PvobuJT5w1ta9StP4vUwq2j7N1Dw99MCVPexRAT7OY4i+hREiPnRX/D4HkAG/zpaIvna+gr5YQbc9MkW1O33Vjb1Z/Qs9QZM4vSLxa71borK9D77svgZcjr1gCvI+89nFvpJTBrxwmkQ+OwtkPkcbOz1CNeM+Tvx6volzTbzEqzo+Sr67PUe5Qb6ypYe+gqnHvn81Fr51n6Q8zoyJvevT2b1SJrE99zrlPHZtkT1GWSW+3TXgvc/k+b1r94O9SCjqPOX9r7x3zjy9V4WNPeaMjD6E16w9G7OoPtm8Er/jMka+rnLgvHlcsj0mtXa+s3+wPpjr1b5uN1w+RtIbvULTgz4bfeo+LIGSvp8LmD46nEK97GAqPkgTU70yx7E+ydyyvkUERj5Fr4O+lLjPPgTRRz6uXri+CSpqPggkor5cs88+bgszP23BjD1Nq2S+E+sIv/ifkr45rIi+u9UEPtWTBD1ebIK+K1xgv9rY0D1h2xy+mflMPYUrYb2JEK4+4GmQvjOE5r3BHM2+tJW+vm/aB7/sPfO+YfxRviQCjz5ssNG9ctA9PhVXij1Zea2+zWjxPgpu271V/aE9mJKHvQGTET6NWr+9IjrQvhPAsr6enaA+PFvCvmLFxT2u18M+OliUvselQb17ziO+LoQ7vplXNr44rj88tMHrPvoMx71vN+4+IAW+uJaFvb4FRPY9TtemvjVqdb1tPfO9+UbAvhpcJL4srMo+Wx6RPjbj4ruG19w+mtqAvlH57b1shQC+DuqXvk3M3L7Q+46+S7XlPsi2P77IK4k9bRSlvi/WlzxvXL49Qi/kPnktVz3la78+HluQvrimjT5jGsk+8PVIPgyHWL7KjQ++1Vh+PssvAb4HugU96D3wPe3GQz4xkzm9BGPxvjeXur56wo8+AmH2PeE2T71iMMm+1n2svfw14b5FbOu81HjzvjJzBb6wwaQ8oHVQvj3clb1tDJA9t0iiPt4gtzzvUDm+wq6gPVJS/j4LMgo+bxYDP/jVUL5XzDw+9AsbPrk72D4HJd+9fdqMPqrQcL1TkVM+Y8UhPssMJL7Tpa890C9BvnK1wL3KVVm+WU/IPmuS1b60B6Q+3k/SvRk5DT8ejeC+4YD1vpXCtL79I0Q93iV5PBWelTyTc2Y+LBIiPidnWL2Uf5W+GS1lPpEsJz6PXYc9SnaSvT2R9b4744e+riDjPWT2kz29ovg80cQRPpZR1r7HLBw+p3ynvQMujD5Eyj8+zu5ovL4qWL79i+68ltu6PoYFaL4Rvg+9rqhkvvRnWTz3sHw9mW0+vojSaL7XbwU7+WiFPss7lD5OqFA+rUm9PqbhlL42GXC+QYEHP83JET40Rnq+DUh8vcVHzb58V/E90MHOPUEesr6woP2+woa1Pvw7NL4V+Yy976qWO10Cnz68cJm+Z6YdPSiyuL0yz4W9qFBXPrGCuD3fGc0+TJ+tvSRGhz4EcEK+SVrPvYRPlT7M20G+V/TUPX7AMj5ZVjo9dtg2vgODyr4+JJ6+tFWlvfLfGT6U7Mw9Sz52vlDvqr7HW/e9hwhNPpDMFjtaHHW+531Ivpj4CD6IY488mTuZPqIV47wCKME+84FUvb3RHD0A8w68WWyuPX1SnD1hM86+3W2AvsNJsD7LPXW8jLJAvudhEbyC1oQ9u80mPlfZlr7Wji6+TbK+Ps3dTT54Zpi+OL8ZvcJ+Pbzi5NS+f1GbPoAjoL7Inxe/+k46vkgpV71iSqY98EV0vWVvOr5llQm+Xo+ovpxbPb4J9Xm+TBprPv/frj7r25Q9E6TiPfMfvz1bJF6+jxDxvsHucj4D4cK+oNAtPWdn176iRrK++f8ePcV6gT62f0W+E8kVvvdoHT5w606+v0TgvEqAZz1aqaQ+YnClPaecRr6ktZ4+TuldPYGVj7314Sc+bWWTvfHyvrwV6Fg+SCsTvIZ8675MSIS+gDQiPtBz1rs8yIW+aAqLvq0bZ7u2UUg+kCh6vo3heD22kCw+JcvUPQV8+D2+1yu+eg6zvqQmsr7+wvW97RcOPnEJBD+8/Z++1PR7viawCz5QIr++l5ebPhw6rb1z2Ac+1YsjPZ8wXD6qbNs8q9p7vY2nlb3cCou+9o1lPje6/j2nfNS+fDlkPqr8I78rSdY9io6KPEgZyL7ub249rtWcvhWbbb7w+NQ9my+fPQYUjzzOahG+AoXWvkE5rb5BMHQ+lDGvPlp5pT1EFk09gcuQvE0kAD5/7IU9wSFNPo1TTT7VO8m8whGtvrlkuru+oKQ+y3wEvx61Zr7zLPw+YOvvvifyzT4PZdM9jCPqPcxSTT1HPgc/Oy20vhOWFL4z1jy9ijGNPv6g/z2+qjs+cxtbPo+Sgz5D0Zc+ulISPjcpMz7incu+tXFjviU1Pb7WJBS+cn0gPm6DCj37quG+KVDsPXFB7D7J/Bc+XA8/vnlhkD0fTDs9oeYRPDtoe76omPc9R8M/vvR+vz5Kj2I9rGR1PiTvmb6uX5W+OmkyvqwzxD6n34K99BRrviAEqr6eW5++EJeWvdUZLz4Ekkw+U+JYvrFPJj5uMxC+ik7KPgD8QL3Ahdw95on7vBp58D7RP4a9Wvr+PcwoMb6QCSS+aQ0uPmsCWb7QbH0+IrF2vixFjz2FVR8+e58RPin0uzzaZsW+xt3sPCUjzT5WnlA9iglwPi2GR75mjTG+5SURP0nMxz7XbiE+bex6PvpxKb4FT5e9FMK9vRTW4D7elzm9hMYOvbKgCT5hxzk+KVsPvj4ajD38ZJi+ZKCNvtbbz77ANfg+/5yOvK3fHz7+gA0+RbSCvhDfD79Jvp2+Gnb4vSlt8D3LncY+DqU6vu7QaT1L6rU+Q3y9Pl62ub4JL4u+PPYCv0umzL25K9s+qho5vBR4Qr587xi9DIkqO2tFOb2g1Zq+MFSdPlBmCj8FOaw+UEhXvoNKmL3nI7a+WdwnPGW7rT2Kp3G+6LCMPceWnz6r0OS+TD3sPUCbxj6UFiA+BYy8vunBVL6FpX4+H+VFPk41fr6UpYW+JaM+Paswsj4QGKA++7OqPsGosD7WL7a9cF4XPiUMGz09vdM+Z9lYPhZlF7+/qxa9bAOWvm+7Zj6uG1k9UKirvVPdTr7HUJq90xwEP0lTHT507/O86kmIvtaIlTzxrCc+qVoiPpKoQD3qy8c9kcLLPU5a8L7QG0M/oMinvEmSt75Qw/0+qluYvtOmbr5e98m9ga8rv8U9UT7Trgu7/mSKvg9YDT1+cDy+e8LKvUaVcr0l0Mu+CiCRvZGy1T5dK4w+Kqmdvo86ir7LZHk+W1bIPPkrob6XjVI+QRSSvi2UhrzAnrE9JxeVvkE/kT47qj6+4CoBP69YZj2EL+E+Hc/vvdywF74IEGU+KjUPPvGBbr5ruUg+sVCWPh538zxm3tc+FE/svjP/LT5YUOe+Hv4rP7/2zzyWFOS+4G2UPi3ldz50BdM9vRO4viPmGT4PAJY++HqDPmYcFj46cQu+D1d7PjidyT6Q64k+tzLePWBRV77hjm0+N1wAPrGwUb6iw0Q+Pg6QPSak+LxSKYi+QEAovhzA7T2ddVy+I7FmPnSotD7VQJ+7SokyP/ZeOj7aRYm+mapvvrmglj0wfv09JYLoPixJk74Y+rg+Oy+GvZ8M3DxpVJa+LqbxvSjxLT5cQcK+Kz/HPpVhhr6SZ9E9QN36vspKQ74Lhgo+LzqOvhptVbsynZs+HLwCvaQXXT460SC+BK3avh5vT75wdno9RkVZvqa9ej4cUf28bpTWvYZi1b4nkCs+eZG4PSytoz5xjCa+aLaQPgn7ub7YGdU+zfakPuPQAr6dwi2+Qd+vvenCVT6h7pE+VtCnPNFgIL5T9I6+BCWOvSVvY77r7Sk9i9XZvl/WzbzLi/i9OshEPhxQoz355l0+bMf+vj1Hoj5G4Sc+P3OxPQEoAr8IFcw8CgE7PVE6Cb51ZZy9Kxj6Pm955DxyJto+/Q4dvlLqOz7ZAOS+N3o8vQSb2r7h4y497f5pPqipnT64JXk9HW6Bvn7dpz3tnh++FnHmvfDmxD3EJtq922i8vsQL0D1tS0k+xcT2vvw8VjwYxCe+ou5wvjYBdr1Usyi+tXzAPb/wBr4Ka/W7uJiyvu8Lgr5iGgO/Zep0Purucz6U45c+oSajPZM4BD7oV9I+1WYePtRMlT68oIC+XEzGvDB2wr5Ot/o+D4rcvtAvZL0oqmA7dAmzvsg5yTyjkBw/R76IPeOQs7sySv29Un2fvqlVHr7U9kg+uBxFvtzFP76S3XI+tOYyPgNMxT3go9Q9ShYpvjQQ/73P3Vs+oSFsPmkWCT0XK4c+k7FQvpyxeDxg3nC+8leFvutM4T0gqEe+ygAQvvB23b6UVDY8XbdZPpEnOT457dQ7B1eZPkp8BL7roVU+IJl6vk2sZr3nz+G9HYQtPnuH+LxgRxu/zGWGPlKKw74iaX++lLgovtjKaDieOZW8T8/TvkiKH7xGXFe9iMEHvj4h0z7zpLs+IJo1PsQWEL/0FaE9mf2mvkoOJT2kUNK9TaEaPpx8Gb667Oe+aQEHPsJUar0W7Mq9Fl7rPpHIZL3Y5Ku+vHsuvhP40b59iYa+GlYYvrjDFb6aEQE+DZyUPvvglj53Dui9OzGjPYx5Az13XlQ+6jOkPV1jxb4YEHe+0w6Svq9wwDzs6Sm+tkQVPqhlnr6/G0a+pwYVvfG/H71/T9O+HSfzvWP7qD7zWZ8+6SZlvu3X7TxQZZC+pg41PhV+y735+/o9P/F9PafOYr7ZNHw+IoVWvSZwIT5OAOg9XjnhvYY6ID4wR0S+JuV9vu4ivj7Hfg+9TsgKvkgcgT3HJ6w8amRavvXfxr7LHVq+9l2VvZ/fG77IzdA9MtUrPnY9Nj7IULG+nYYOPpgauz4zKF6+yWN6PjRCS77snBm+KqKPPl0TlT4GzVO+GF3avZ0eML7WaUS+AsX9PEkdzj1+tBa9hE4pvvfaQz68daE9P3PTvZfcBD480bK+pDEHPo75Pj71d60+Z6q+voXhLz5V4mE++2ymPoQYyj2ebBi/HZX2vXz6E79E5I29JeLLPqP/0z25t8q+h8UwPnQ1rL2at0k93d50vnlagb7+Pd69O9ebvWLf9DyeaTe9HoImPngzvj64lK4+M9mlPAZ18j31cy4+DusPvdnUFr/Bz0e+aW6YPklPrj6D0oC+IdPEvqKA/jzfUpI+7ISDvPMoGL5pFeK9pimoPht4KT2HyOE+W5fvPHcrgz2mH0U+kdqLvW88cz4XMIE+SA9RvmyZd75fE3Q+e7Gfvd1JPz04vFG+6HWjPd/1jz47F/U+RlZbvE4Ytj7fmlu+XyQfvmlKgD780RS/mB5bvrFWFj6kr7u7NHL3PVnp6Dt0OGo+qQw4Po4ekT7IjCk+iPikvbDrCD/u7xi+WNTKPqiqVD6Drk++nCIYPznDtz7GAw2+fVxOvsj49L70EIe+iefOvhWn0L09oqO+QoKlPSH3rL2SZe89oZyEvSMb570V+9M++9OyPo7uAT6aUHE8tGVhPmndZ74fnIu+8URnPgZAQr2gR54+dT8LvmwMFb1AFES+vmMxPi5aqD29BxO+bKtMPkgA7T5axhk+AtGqPfBr9z1Qo66+hpw2vvugk74U9+M9avmmPuFRDD2RexS+bRDUvVB7TT6Nsow92w6sPjWPWL599E69LGqtPa5Fhj6ssHg+UIl4vb2FWT5Ku449+1PBPoXDFb60bx8+eYnWvsmQdz4nozY9+xdHvvKpqL76BCo+x9tMPteQcr2TS+E94w6wPrtEFD5fvxm+nxxDPmF92z5f60k+zFPkvvj9Nr5a/qQ+IDggPp9qKr462xc+l7Smvi0s3r0ujv095JoQPiD9OD1oD6O+aMFePl+u6j2BSfq9vQPgPhFUZL7KXoA82U6SvR97kz4Dmpk+8z7TPX3n0b3ko+k9BRStPhoQkr3HtmA+exzHvcPTjD7SuHA+MKVIPmRbzb7l9qm8rQ1HvUUKwT3yVJ0+Vn1bvkx/Or7EA+E+H0Abva7ajT1fZ+K9KJvKvuxMh760JoG+d0hJvmyXx77PStc+9z9jPnOWET86kiC92tYePkPAGr5xVIq+ehxKPWCTVj6YzMi+VODevj9aHb6MuFm9yBHTPmIUdzyDAzi+Ko7dvg892L5tmAs/bO20PQ4T/z318n4+styNvs7sQD65N7A+LLjdvNx0vT6AKCK+4kfEvpk2Qb3z01m+dqDTPABmwT1JiVa9j7BkPmiJgj37B9a+5hiaPWOWUT6JLO69fQdHPIdV7D23w2w+XVcyPjlbmL41WvA8qIclu/L5Ur7XKWU+OKRvPYwMPL9fOcC+MqjUvdm4m70hYga//dVtvczIN74en5+7+E+yvin48L0jIRC/z/ybvXUfj77CWwY+cXQMPX3AHr+mzLc94R9XvbfGEb5NQYO+XLCAvVyQ5r187we/FnF8PsFWZzwPDhQ+jdOUvgP2nL6lJtg9ly88PrHIAr/dTxG/+LCFPfcWmj25TRG+PmqxvebpIb2D4Lg+aEmnvoe3ej67x6k+rZbXvrq+Gj4rmZM+KkjVPmi8b77XVcQ9Pd5gvWjKcL5UFIO9iiEBPjH/J76B1YW+4Us1vffPMb07EU8+DJWevkkMJj5P2C69wAfjPhEHsL1XjMK9GBYivBuPzb4o05g9tAfaPkgZRT/7OuM+xGwEvb45Z76xTh2/bRx0PsmdIL6Cg6y+FZSDvpH0hj2jHDI+wJzBPWZAAT7444i+mhiPPj69lj78Bo6+L997Pn/VkjuY13E+cyuVvhXJr77aK+W+FXobv3VA7j4+I4Q+eRWZPo+foz6yi48+6byXPoT9sD3iXoC8smdjPvgNk70iPN++oUMnPqfIWj3Sldy+VdxivuSaNT41ltG+iOWJPtMutz4huFu+zERpvkX93L5HnLM+dYZVPNhMID3tksw+jm79vZJ7uztXkB0+30HCPcfSTL5FKHS+7uOlvuowGr5zIlM+h2BNPadc6D7wmVi+UmL3PSoXmr1zMHG+ewc9PldWHL4heRg+OOUNPRStp7z6QII+yCAmPtGx672cUAU+URYPPl6apj62o9U+gxUPvG37vz1Jg4Y+/R0Qv2+jqL1NW1m+dWWDvZj2HrxjN5q+izwRPq84/T785/29fQEQv7M7AL9DQSS+ayy1Pn+Rg77hau++S4e5PvPdqz63MBC7422yu5QHjr7M9dy+xdLOu8X6qz6JXQ29Mj+xvoEckb7eFKO+1GAfPqqzCL5ueZk+okd+O3/SMz4fRKe99MRPvhIhA79lml4+w/ASPgOo5bxk1Ji+IwPLvvLG4D4UE1u9AkgkOxo8mb2G1969yDkuvqvVyT0ZKJc9KSf4PWx88j04Yi2/XP5UPhWdur5LX0s+G2yEPo902L2mJfW9zYnUvr9g570rUCC9vClOv/1YcL4/OcE+NQMgPKy/Wr5FoIs+DIBPvmRyXr69xay9qVijvsqaL75+tpq9m95qPpRYbb7Voqk+p4AAvdvZgL6eju29/PjOPsfFcj2YUMC9WUZpvljjjL1Nb8o9vCxEPVSXjL4IOII+rfmuvhBu+T6l1Fa+GFtQPoJsJL4kzbe+VutZvgSex70/vJM9WUcWvpkEZL2s8pY+lWCLPpnMIr2uXrc+JbX5PZlisL0r5z0+esdmPWpQlL74mAm+j/xhvfP24j34evi+666gPuPinj1KziG+87bFvuUv0DydBwU/bxwpvp/Bbr41Uzy8Qqb6PrI+zr09AZo+EscFv2BVAz8AomI+xAXOvuzubb6jUyo9GqWsPmwzAb4U2vC9xZ8Vvi9Iaj5q6cQ9KUYTvc3c3j4DqzA80YiFPuCb0j4sPDw+nbcsPlrwbb6IUWk+Fa1fPsS7tb5AGZY99uAePg4AgT3SLic+fHNPvCKCNT4LxbK+PWkxPpCnvz17MT699VjSPbrxTz7weG8+YeM8v5BvHD5/r/Q9Vk1VvVcakj7Y3bI+XuH0PskDFz6dZcc+O9wbvtKxBj6qPJM+hgsRvaUfjr5fbRK/4DZyPo5Wb77FChO+3nnHPpAM+b1aEYQ86ZX7vupeLT4FrOm+8MSCPf321r3qRak8zFPjPUVuyj3irCG+gAQWPsU3uj0wJ4098mAivyRUnj1K0Bq/gLfEvlwM3L3Fuxm9RYlLvmpxfL6p4BA+5tkJvmGwBL4442W+TXwrvrXG5D3zDr0+GPkBP3S+IL6tW8c+JTDnvUsAjT4I5go+uCRCvlbjar76gAg/pmjxPh/39D7agmQ+1FJZvvG+jT5rraM+lFDivm3guD3MapK+I1HaPlA5pr7n0B28L+9PPgvj8z52Fp8+30z+uwhqBL/thty9YR1PvqmjoD05Lgg9YTmtPTdBnL4Wda68ZW8XPR04WrwERyG87PROPueQ176cQQI/gErjOxf+V77FdVw+d+VkvtozdL4mLlc+dvwKPkse3jsrUWu9P5HZvpqozr0rnPy+XxW9PNVNATxLnBi95q5Ovr7Rtz0WH+e+4IWHuio87L7zLzi+jtPNvSI8Pz0aX3A+F5ubvmsRCD75YbM+dZC6vm8/1T0Bp0o9M45qPow9kj0ad4u+HK3IvmoJPb2Sl6y+6VQxvhZBWb5gECK+Io6UvreSK72kQeG9HKjLvi+WBj3EMpc9aKfsvhXnn7085cy9GHAavl891D0Oi4U+T0amPskjKr606Ls+Gen6Pos7/bwoOSQ9bTgtPuRsPT4F6py+GUJtvi+CyD2e1XQ9s+4Nv7ZmBD9GN4a+TMbXO03niT57Ors+HTdDvbU5JL4JuvA9CG15vhV3f74P0mk+egAMvu58CT/ccGc+CInIvsYoWz7NdR2/wWA+PxZ4eT74gQy+JGBJPqp6lj5qUJw+x9SAPmtPkj3z+MY9i37sveJVDT4N6R2/Jrv2PjULiT5ofmu+Z4xovoIDTz6y3s0+y6dTvSYt571rDJA8Xz9pvvzVZj5p0S89Qv5lPQbnYD6YFki+yfYsvaVirL4A+/K9vuIGPTXPsD6vtcC8SMLZvmA3Iz5M0Jk+i2o7PnUpeD6jf5K+UTvQvnPT2D3Vq4w+TEcmPg/oaj54e8O9ofc1vq59AD63bow+9nNuvkyjAb9G3qK+E9ZMPi3DFz0qla6+gVjDOxbPgL662bc+h+mUPiUo3L3EWy6+OBGtPA3jA77CHks+L2eCPoDhpb69ER28muc3vnXa2r6w6Qa+gV9RPtTLBr6TS5090g/SPhHnCL6+kEc+UMOGvqauRr5Fch2/vT8EPeVRH75aW409zZHbPaZ75DyOr7M+U0ZSPQN5Db/AmW6+x3mMPu/Kjz7kmpK9k9oNPqxnor56Bx2/HCezPCGRbz0E17M9vE/aPj919r6rDNU+8/aHPq1hVj5g1UC+XywvPkQICz1FThm+nfvCvkDccj1Yrjk+ideUvkKaoj6NCAC/twrFvhLXrb3t7bk+K0qbvnfHtr6EThC8dAc4vhCcqT0f3ds++XKcvucL4bzbS2w9fEeJPiDtJ77T/5u+eemnPna8vD3XDgs+PGMtPv1CoD30WMS+e0x4vQk05b5Ox1A9BVFgPobKED14KM4+3pTUvlXfBj5zcUK+XcfhPJNUWrwUMDO+Q998vqq8qT5KxBO+Ye4svo5IAj4V5ze9vgw0PrJDGL38F12+CLXqPugHEL1r7UK9el/0PhFXaz5Z32m+zDNMvfwZ7zycmnS7mEWuO/I09z3djW2+Z0yCvsrOdj5DWwA/SqsUviAwa72RkbQ+xEA9vr43Qr0sWLW9gbz5vI7Z0L3SLb8+w8KQPqGMub2aw5A8ND7ZPcDj5D5bSeW++NczPjlDHr7vj2++K8uBPTeyiT7D8La+hALpPVvVQL7OOKM90ayyvbZpHD5bfHm+REyDPfwDnr3Pdho+rjFUvVGCFL4TF3q+HRkAvp/xfb3zYMe76W+ZvFOYOD1GzJE7NmLOPshAKD4VIIQ9UoHVPUI8SD01SGu+g+9yvt0MrLxcuI2+v9PrvvhgrD4VjLi+6Rb8vfH2oj1AsCY+BPFXPnNJOjxbxri+R9S3vtLllb4oi1S9K8wPvpwqUL4IYMU8n19bvvVpGj9XWk8+qjsAvoguoz5OiIY+6b+VvawFVD7NiJg+t6OMvbxWHb7SoTG+xnz/vT/PEz4wJgi+JbnXvhKQjz51JzW7Me0DPr6EJb72NRg+8qH7vQNE/D6fNLu+CWcEPGJsIz7ImcS9DQuEPjaCpL703/c9zDk8PdYRUL27NKc+mNQVP6t3aj0VfJK923a3vXtZtr4lWvm+s+3UPcagOb1IBKy+CWuzPvQVK7wjSMA+JjmwvcAs1r2qS+++2uhvveovur5HBjq9CRWEvidmy76mVgC86nVsPpXlHz7o7j85iG7vvmVNjD4KWN8+cmWvPmnBYj60BgM+2OASPkFT5jwULpa+oWxePU6xw70L8G++RAgXPozXKz7XYXc+p4yBPrFxCTx0Aja9n2hwPipzub2hKwq+laqxPl/fBr4CMUa96AiGvG8bW7wd9gI+sCUQvvWxVj5orDi+CSj4vGCu3z6Q8ho/9Rjuvnj0NT6SUmA+xNAxPVm2GD5UkV0+PPf7vYvZjj4xycm92eHhPt5aBj2k+KK+W0sMPfPEDb6O+54+B/MHvjo/2r23UrY+vIyrvRfSbT5xvmM+BE4Sv0i7xr4UO3I82JwNvhb3cby2DA89CQ4mPmG5Ib21g+A9hdEpvTW8aL7z3Lo+isCyvhTjVj33tKc9Ey1KPqS8hT0RKbm9NV4OP5EGYj7aajE+e4CBPbTdEL8mq4M+GsvFvlk2Wj4hwhy/HUgsvut4qb3sJF2+BWx9vv/6fT3YQNk7M7nCPnUXSz6qUJi86slSPTDWXT7CGEW9VpA3vkTomL01KSC+J7QnvslPej4eBbg+cNEEvx+qcD3XgWE9zKqMPaKK5r1Iwge+Orl1vlR3IT7pF3Q7lbCkPTmxob36M4a9EUM9Pgz+fz3jA5G+RFSzvRashr5mGYu+L9SvvuNsKD7TLic+p4QLPwq8Mb4xDfA+9IuKPYbAGr6++Iw+OU4mvdG8wL1cbCI/5EphvSfhAz9FwHi+OgbnPn7jzDwu7Oy9PyDHPn3uzL66/Ha+wg1iPjhtizwCUe69AMVyPnf11zvfVba9XhaoPhEkOz3csrW+s+4IPMf75L1pJ0E+zRUoPi909L039Te+WifIPoY0Mz31MR4/AvwYPv9Rmr1cTBE+M5fdvXkLhz0eM8k+nNUZv0++qb4fhEK+WZYSPiCgpD3IGe+9WK1avdDfaT2FkXG+c1WMPkzQrb5UObs+G/h1vmFBY750dBa+pzuxPiLvXj1Wbqe9aByxvl8zmbzMJb6+ZzcTPvX73T5RWzm+Ws8sPi0G+j6G+5+90YOoPcHCYz4pvTi+7qIBPt87aD4NiwO/Ev4pvkNDvr5pGui7kNPHPoOIDj0AK+O7QEGKPswBLr5Nlem9M+M6PpRpgT24Mwk/0DaQvr1FML6JyMK9JrYsv8OkhT2qAmK+YvAKv/kQJL4hvxI/8N3WvZYQ1r5Y6PO9yut3viJK6z2L+pC+M9DRvuEQmb2FAfU+JB6JuwZLLz14Vjc+72q7vdZ5Rj6CbmO+UIjOvQZYz73jCs++uylCPcCjhz5UB8q+7GXovWJdaz5CEx09AjqJvWJvUr7d8Oq+SZsTPtPJw76jeFs8a5y4vmrmeL4uMl2+JbjYPXagYT5jVMq9lFRVPn5byz6E0Wm+oV0JvjomWj5ZU4G9T1quPv/tfD3+Lw6+QM8nPhs1Pj5cGwU+DCOCPlwgBD0aXR4+/bURPrMNhr5Mami+lKg4Pg7q4D2K1PS9uYXtva6RV75PZKK+J4MQvGpAPbxuFQK/52BCvriz777b9Q0+MoTsvh5Vb76VX+49GCyOvYT7NT60Hg4/dpSIvnxJ9Lx4G4m+NtmfPvUE2T5lV50+FJbPvpFoBr391yo+2SlIPaYlVr4n3Qe+2HGxvcX67zw2jsO9WHq5vfc83LyHjrI9AdrcPpzkl75AJBW9A7k3PgNA7D7eFus7Zp0QPkykOD/wbGc+FbKpPmeXT75Sioi+8qvSPsMy5D5Alc48jMssvpqXHz0nO7O+7S2zvSGgujyIPAs+9J1wPeU4ZL2FXZg+MeGwPBJP676+tpI+cg5kvYoG5j4GAZE+gFmEPhRG1j1SPws/fRZvPh8JujrzeCo9AqGWviPoz743f+O81ieevvqFNz2pQJ88GVSQvqHD3LuMR0m+PVuxPsT1Eb2r2v4+ksjfvVbwZb5Ongi9DYmJPqvDU76dE2s/fv+BPr9CJr2MELu9ExEEvozNKb9NTxe7OTahvrTWBbs3W2++NJykuy5QiD0pk0c+B3oNPvlDHr+Qtc6+/80RPo5FYD6+sIg+jrvGPj1NXz64BWw+p1zsPQyByb7+vAK+FUYAPryD0D5cp/u96Dl7vpHS3r0a24S+brh5vqd22z6p+bO+BMKlPs8ZP758mA0/OMUxPRM1+T3OT4k90v08POu3iz4TXUm+z1xCPXA90j0JEie+iryZvjWm5z4PXK89lTwMvl/VFj4eZNu9dywDPeJxA75BXqY9JB4avoSmUL4WD6K+fgA4vbYySj5SzwM/RbSSvtptHz6R2w0+9RqNPi0DwzzKGlI9cjTqPSmP7T3v9RY+I0i2PkQduL4hHhG/aT4HPouJOT7XF+y966MMvwjhr77CoAK/vU+3vStEgL646ia+EvxNPisv4b4GWHq9puPLvil8U74Y0em+YGMnPx/ydj3gsv28k8lAPVQ9bb3Ctwa/iTyBvlKImz5Psso+cxBaOw+hRL5+oUQ+X0lQOuHebj4pKAk+O/4Ev1lPm77YD+C9I8sRvWQGzb5PLLM+Lnq/vaKvVr7vXoK+PWkEPiOwGj2J04y+J34mPK0Gh74BxLO9tbaZvmYo8j3jcwk+fpGnPHOv3r6clUa/TMrKvmQeObzWb7W+M+IYPjnleb6XxVO7yCN4Pn8yQ720X9M+dolIvgdQBr5Op6q9sIthvlO1Qb4qYBA+XntGvjy8e73aA6u+RGoUPrnArLy6RCY+h1+2PsYLjr6navU9eTvjvgnRxr0f3Ec+ojcqv/TDSLy5Bbk+R6whvm7CjD6Cakq8dm/sva1Wh74wapi+Zi+rvrAZm77giGa9+Zs8PoVtLD8xqnE97JIjvxgJyz4DFDW+g8ibvvE4lD4WlCY+ilraPcwe5j7tc+o94AzzvViXIb4jmgM+rsZavp+DqL7z04i+HHMgvdH17zyXur+8+mjyPK4NtT4054k+hpOxPlGssT1NqoU9FA/sPq6UTr43gSU+FSYNveF2jT1hTdm9Po+GvkKc+T3gm2E9uvlGvubHUj7tCV++6ZkfvpI74bw4Nsu+DRf+u3nPubsTlsI+fsfdvoGaEr5Yffw9Nws0Ps6Qdb6ZW6U+bEOnPguRcz5D0as8wMCHvnGpMT6/3667CF5/PHoQkD256eY+nhWqPnpC/T0FXO+7LRzzPVdz0b196gK+7Kpgvrw7hzzVRM0+ljOevnSQxLza30c8/jIVPnK5lL5mhaS+Mi32PSSEXr7i9hi/r/sBvmai3j0UG8U9W34IPa5inr1P2NQ+BEbVPewHqD6FppI+yTaBvaHUIz4Dwl++1AATPyvdHr/0EDm+z7l8vTHEEr7l5qs+FC2bPkskAb6seyu/EnL2vZdhiL6XLRo+YW9sPv4t2jwRBWk+B7DePrfrzT7Ee5I9Oe2zvXsanD74IQY/KKbMPZz/Pb4yrgw+lv3HPijWgj6G+xS+faSzPSPm/b2x9rS+4cLGvWePoD5UOaQ7HZM9vsFpGT/LcQk9Z+kKv7mks71t0VE+0AMfPslqpT0QFWq7sLVNPoy/qT4j7tW952grvdvaFL/XKGE+OQK0vZ6fLr4g1n4+Sq1xva1lkDs2D6G9Q3ervtomFj6CNuU9sdWIvk3jSr3UpJy+qloFPX+luD0yk1g+YYOxPqhSlL6OwEg+49ElP9vPnT38v8W+lZlwvhwXXb1az1i+9fgHvoWVHj7JYri+FoSwvlg4jr6scWe+LfI8PskzXj7regU+Zi+GPuBfvL5p6p49jPxWvpVj870dalu+5XXCu0rowT7O2sE+QE+ovWeEc73llKm+IrDAPrqknr0z+Du9/7C0vuafXz0ieKk8XVhhvpyD6D2NVm++YU5Tvt5V6b0jd6k+afHYvifcOr4oV989AIBdPduwBb6XqMc9grINv7oTOL55ZLQ+YMFzvp4n171PDNO+yDlYvLS5Ir6lxVg9lXyJvsCw9Tzp2f+9XBdGvhSwOT5XIju+1LF5PoiWLj661B8/BpXsvHx1rr6ZNPc9RoYAPkHz5T4+FgA8VHB7PZQzbr4+0Fa+dq40vo1GCz8Iv7C+QB6ePBhisTzYqqY9mAmZPtLvwT4utdq91itiPqPUeT4Ithc+BxoEv1TmHj7EU9M+6sTHPvpaCD71Jks+OfKhviGclD20NYc+/haIPm4/zL1gFLW8qLu+PcOMRL7nzPW8sPOkPrzKO77BZSW+dOitvsXnlruZxLY9rzWbvrNhsj4DAp8+KqAOvTvG6j658Os9yMdaPk1BeL7FSyY+kLdxPkvIzj7nMBU/yDBcPlFrx74l0g6+Iw4Cv8t6Mb1dTr2+H84Xvr0Er70B/m69sMl4vmMfLT4l0+G+59mwPqk8Bz4Hw/u9oLYcPZ/bPj5itEc+zz89vnBL1r3WnAq9RUTRvbRllz6OAHk+ozzoPruLGD/d5xq/o2IVvwM0QD5R7SG+UR8ePqp3mr448iI+mF0QPwtUDD8s+ku+YuISP8SqAD4LIh+9nA1HPvqWhz1r7Pa+Bg6LvbXP3L0g190+HHr0vqmK7L4G2ew81gCavQ0LKb04UiG+fiqIPlpHYj51zla+Tj7uPhceOr4l4DY+hdmevlsdNz4Y9nU+RlAnvt/NTb5sGJu8jv4Dvq2m5b1HqtI+lfyPvqJpeb3mENM9GeZBvW34Yb1L1F2+9aiDPRQ6t77dfsy+enEsPlsbeb6Md18+8wPzvfS97r20/vU9TRyPvcX4jLwwOi8+gu/OvsCzwz5hSJ0+6wZGPnc8cT6YaH49Wvi/vZoag74nYL09DWAjPofx7zzheTi+G3i3PNVBBz9eXCI+umy1PQde+76Ar7C+yAPGvT8nj70unZE+b9rQvgH1vT5y4Uk+8mfLPb+Ktb5ajwO+W2Y8Pjjt0776M+A9IzGOPsQ0wTzHhAq+Mrq0vWR0Ib6nsnQ+kaeJPZVNTL6/B5A9UsqQvqnag75GtHw9qe5pPfzogT6Hue08gjm/vbNV4T4sPEW9YPxwvf1j+r6bXNy+R1x8PvJLwz6wCfs+lbxQPslk9r7g2i2+pHjHPKR+1bxkpdY9xvMePfotvT3TPpI+j3ISP9yDwj5iJTO+krUfvp3xyD6zcii+uAqLPv55GL+osTC9GbmdPe1Mfb4U0is+UA9hPmqpiz6wFQU+9C2+vcEE7T7Fltk80ha8PuDAZj4xnrE+81h4PoZRkTzU2wa82K0qvgtper0nGaG8+o6TPYZkMTyo/1U9eYghPl8rBr6o1B4+TEklPyYpCL5TMQ8+uavDvEkmE75HWPe+/oVRPs0LoT6vpay9PqZCPqdafD7xS/09MWDQPkC2Ab8F3k28FSFbvlQ1rr4aMye8TfIfvZo4wz2BxA+9szOSPRHTnr36knW9ds/zvnxotD4QcNo9kEJyPaP/lj24tBY+1ztkPhFa4T6aUyI9dc8Gv7uVerxgctY8In+APj5J7T5wQAE+mf70vQmneD4CCzO+nIdaPuZQyz7RTDS+izJ6PVAB572+kBA/LV94PW4K0L5Gcq699XAJvh95Ajwt+xY9g7zHvnrnkb2urcU++W3BvompzT2IUkA9Qkr2vdMqA75gxJW+hga2PSpAZT5Uw8Q+ifF7vCBlij5zjIY+hRL9vB4jPjzlIYo+4HCFvZJ9hz4H6j2+SD/NPbLLZj60uRy+c/I0uwpvwL6eOPI+2E6aPlsTqr4Ie/i9Z4+WvgWOA79bPli89G6Ivf0LI76jEDW+6OSavtA4wb7CqJ89DS8fPvb/9T000I8+OR64PsabJb4dMcE+rzQOPG1Ljb6MT7+6ThXQvRs7yD5XyZi+qU0vPpmHhL5jB/m+mxZoPU1P1D7acbs9n5tpvRmmD76zYz2+GXujPjHiYb6B4JO+8AOwvajBrz411RI9PjYWv51Mlz56CgY+eSv3vaKFxD5HaNa9WD0Fv4vLe77wigK+ufXZPixqrT6f1pa+HU1NvST6871jET29u16ovkH/Zj0iMT2+YuFDPExe8b4n0QY+sEWSPdwr173XiMU9Tf5WPrn+Vz1HPj29B82xPaf6Eb484Du+vAVWvrMS3j7TfRC+bbQVvj1ynT6987g+HL3fPuNugr6stAq+sSYKPtYLzb6m8Em+bZO4Ppxd0b2JZO8+VoG8PU1H6L00SgK+JHMPvGQu0D78x6g+5F4ePhKrEj0mJ4U+k0kJvw03e70pir69oXvWPQTzpT1GCWA+FjcTvqB+Zz5xoSE+MV4uvlyREr9qCri+e3EHPHoeBD6bRhA7Rc/SPUPPOD495uI9DpNLvgnOHT4vhbM+9D8xvbLCiD5D+rG+99yFvQwalD4y+Uy+R3KSPlqn1TyCQZq+LccdvELFV75WKqy+HW6lvs7sIr5gVD8++kFEvWBvhb6hHTS9L+70PccnDD9JcLk+IPJzvsgRMz5DI9q9MkC+vn6uXj6cKaE+PLIVvWzWTL2pYos++N9dvo89fT42Fwy/+Ng6vuQNnTxPhGU+X01nvqrKMbwdZhY+npF3Ph722j5lgtg+U4e5vQ2bkb7/aiE+DV6wPrA1uL2Sip28IaOAvp4wnL3pQGI+fxSxvaz24T6XEdM9Bq4QP19ZaD4SiBk++1lNvl6qq72loh498YVJvlLyGT4D5yi9UkVwvcHMCb5vfYY+8zjfvmsbkj5XhLG9Y3hVPPLPdT2yMcW9FsWQPkritT4r8xk/m88CPQ7E/z0zQ64+RyiSvdlXTr6qUDu+wxy/PBxRuj5KZZS9uai6vgecXL2+yC89R0GcPhfuAL91pcc+xk9UvsMHU77Rk0w9riJjvYwKDD52cts9kliTu4wsNT4J/Cm+XBmiPlPYlj7qu5I+1GQtOzI/DD51SO28Cqh0Po0tkb5ilYW+cr/CvpKrr75SXNC+WtrBvIvgZj5mRYc+e/RMvpn6X74AB4K+ILnGPkFSrz2+D8i+W8dRPgPBJz7V6o6+HXAbvo5uN77hso29fs2uPSMRE7uYCLm+pn8Uvm3FYb5nlRc8b1mBPifaLz4KTeM+nuK6Plegzj1JZao+DNnJPacCDr28Fxk/rltYvtGuLz5RwQS+WasGvgDdQD7bqbU+emTgvb2Wyz266Sy+4PpcvBkSBr5+lJs9LLpWPpdXXD1GbsM9pYyzPdGDJb51b7+9pVtTPoyl5T6SB6a97PWJPgt6nD6nRcA+MdNvPrQbxr7wmKU+pw6Fvr1uADweDA49ochivnbtDb9JP5+9vSngvlWAmD5VkKi+oiNavWw0AT+o2be+lTNQPasuRr1kKD6+LO8yu3yNEL4CPCq+tcknPIVjwj4yYLm+NhW9PVoArD7Mfk296KfcPvbVMj71nEy+OKmUvWt55L5PDsS9/YWXPivPUr7a2IE+7U1LvtH7kz40vK++Wa3rPn6sDz4T32I+L9F2vmvRhT61xq297p6wvbqXEz4kvZu8XtyJvb4cb75Onli+tI68PsguPb6cC3K+3LUOv/icdj2PjAO+gfyCPti5/bwHRYa+OGGJPXr7K71TT4i+qY+iPbY30r5FaHW+mrw4vstpMD0tPEe+CNEaP1Y0vzlR/A4+0tifPi9faDz+QQO++EvzvcGGHT4Wago9dFisvjsY+z2cSjw+N+E+Poqi7L3YCbC9cP0cPm8lYD1pseS+g4xEPmv69b3hghM+sf7tPdSbW74qVHC+f2gvPV2h/r3jN5C+MYsXvCBroD4I0yi+F8rePJqh4T01cRA/Hg/pPlmuhr2u9ZQ9QLNiPoU4Nj1UMdO+l/pQPsKCVj2078c9tvG7vhr3wT7d+/a9LUusvtjM4L7zrbA+NMHfPQD1jT7wS1C/t6KWPlBTkD6Fxca9uui5Pr+BHr4zO5A9ZBiavmLOtr41kMI+5IJjPtN+iT5NSxK+9otmviI/Bj88f1G9byyhPfAj/ry7uQM+OrwFPirojj6SCGs9Vv0Sv1/yf765sjI9k3cLv/pjabyBq588xJIHu5bGjb6jTTE+qrc5O+vgDD7XVBE+bengvjyFv72WftK918aSPTaqFL5rLVm9HC12Pj2WSr4WdL2+dis5vsuDm7y4NCW/0Imhvemzub5tz7A+oAfmvo9I7jwpE0A9h3apvi76Ab8BQki+/4FJPt8aTT0ZaJa9m21MPcrDlr5sDpg+qW2Ku6J5Cj43LiS/NF78vgYKYj6lFrU+eNdqPYxXOz5uBA0+E083vr0Hhz1nrZ89x9nIPYYJ7z7h2fW+atmIPdLX1z6f+oC+OF7dPZe0hLwsfnc+AP2mvEwFCj/7Ob++4zYdPgSuwr69SVK+j5yiPpOOmT6XDr48XGbMPWSvtD3TNc89A1N5PsF2l73Nnlu+4gfkO7nFST6MZPu+us+xPjVpIz4P7bI9WhZEvk/gvD5zBYi+jj1uvrIanz5k9e8+bUMhuzLroD203cW9Sl0LvuzFXj6aJ5K+/Z2oPbFVNj7klfM+9CNMPkOTkj4wL4g+H0iQvp/zqr6HGYg+SUMOvARqQb5OLA8+yjVUvkP4kj5w4MA+qwFku73oVL7tBBA+kq+APedZL75MASy+4643PocqsL5EE3O+LTOZvXFpSbzajJM9gchLPiC6AD6xlwE+BSJ1Pg9V0j78z3W80JexPkRxyb4UKHU+wID4PakpDT5t0TQ/u1klvtgqEj6bAbM+pEihPgBHd75zugA+/P1XvkRmVT6z8uC8MHknPt4bAT/my+c937FvPeMYST5tuQE/2L+pvixf6z1T5/+8SDAtvdMUor2odyI+oUQOvsXolz4rsRY+RjrJvv87Qz3ZBQs/1J53vSYaDr5nFeS+35QZvkuDFr6vM4o8EFEIPVGwxj20HS0+AptFvroZFL7l7qU+HDNSPp3w+r51mUM+wjMxvgHIZb5CudO8lM3KPi2F4bxlNuY+dJCpvtAnBL4TLE0+H7FdPhHAVL6y5Io+GnkoPp3JJb3gJZc+IKQbPsnl774RBUO+hqY1PasS/L78DQ++3INNPnX/GD6qOO29748WPtElJz+rbAQ/OZS5PvJMcj0edWY9on4mvo2HST78T7Q+IrmevruMDL8mVS0+vSyMPnufwb0uxXQ+1f8oPkqSYT67OQY/FwuaviFAXT7Ts9s+kUD7PuRPBb+F4+k9Wp2evdzLFL4VQTQ9sHPlvmwUEb7ea4Y+N5d1PnP6pD1f90A+FAfDviBn0LzT3vK87wnnvTaafj2HfPU9gE9jvhNnk71js6A+e4ZMP1vx1D0HJCY+I154vgVtmb4hrYY9NjH2vV+qnT5cNai+YoyKPAvAHL4f7tM+kIucPToO5bq6puU+nyJHviVywz4IUzY+O6uEvq+JcD4VJ+M9q7/2vWbWjj7Ynh0/3FOUvSA+JbxkyYY+lE+SvUfLbb4Yoik8V3BhveOzhTz1vk8+dz75vdC2mD6zTG++uBz6vkIGRjuhcuW+go09vsLMhbzoT5q9NNj0PsAh2D0LLiE9iZRSPJOQsr6ikMS9wCPxvnR40j2oe0g+ZwjAvhFIl76LDFc+N+7JvYutbD1kFoY+XWLjPmmUuj77TKQ+cJaZPoNdVL5NhQ0+RewdvBDiAj77UH++0a1LPgoSFL8rc/Y9HuIaP680fb6ahfO9dpQQPqYsmj2fDrw+dtzaPIdysb4oQWQ+TPx4vqe5Sj7voYu+qZTBPcRq877q1b8+p57CvV8tEL+0r+e875rYvbOLI77j1+i+wcd4vuXBib5nVBo+I0VavoB8TLw+8ze+TlqQPsO/DryGTLs7bHOpPddFs7vEqoa+WNcXPnpsm76UDKu+SeMFP4ramT77VJu+YWqOPeiFsD2mcrW9g9xGvnM4rT7A3bO9tJLUveCy7L0wrro+pluEvsGkub7v36O+KV/vPnkjeD7/06Y969whvvxeL7qpRYg9/CUgPYa7Az4kHGW9afUFvWtOmj2NZx++aKsbvq3fa77oCc29VmD+vdadqD2XFzi+En8oPafx871awzg+R3BdPry0hD4en7S+7gJ8PldbsL2ZEUk+dRMIv7a5bb6lB3g+euiIvorT0r7CcvW+OXL0vsAtrj77qOU+5I/0O5MGvT6I4Wc9o5PJPZQcpL4l76E+EYmbvmS1mb6blH++iTY5vm3zCT3Gara9Yw6IPg78Ar7tMZu+Aa2RPmx2Tr7vmDc++msOPn858b38L+g+6OpcPEThcD6hGwQ9p4E7PpU7ST7DUwE8uX6SvDIv375fXR0/E/MGvsJ4pb02ZeO+tq6OPtBlW71veCi99xfNvGk3KL5TAtg82lzvveAFiT6FmKs+Oz7vvb93h734sOQ+oelBvjOqFTsFr1u+VmOrvrwbqz48POm+126HPCaNtb0MAMI+64eHPgNeyz7jRo2+E7OnvhYXzbyjWvi9MhDJvVj9O74AJfs92i9KvkxqzD4q5mG+2twTvqWKbr5ysLE+f4oLv23QWr37qaG94O7ZOzNCRT6QitU9Ok92vajPsr0Ky2K+JA2JPiTyuj7gatc+jp4bvqcAoj6UGAO+ZEeBPrHmHj7SPJO9QCoVPpwXbr2oWzs+GEW0vXu8Ub3PmaU9TehCvtq6+rzurYe+T9mIPOpILD05RZa+00hsvpdmiT1FQbE+KppfPpr6yL46h4G9VB4MPgHAiz1+kou9Fr75vper3b7HPau+vXgNvkN+o75jdcc++dRaPr2jCz5qDUO9GJkjPw5wSb7th6K+Ut7YPeltXb56PRA+86bsPbaYRL7KDUk+31kWv1tbxL3ZPz8+nxrxPZ2L+73Qb5I9mZKlPqVwOz4EbmO+1q0YPvPAUL6YBMY+9oqWvYqIxL7cr86+lAeHPUzrJT+NYuw9NYobPtd5P75bJ0w+MgHdvQwzB77mPMW91jXWvlI8cL57rTW+uL2ivSPFK7106bI+lUBrvqB4aD69z1++NqKOPWVpG77Lt80+WnoKvulruDudTuU9Rp0HP2nBfz6u2aA+QA7KPsh5wLtsLgM9frc2PpKl1r5OAHa+KceYvhRlwr3RixC9vNW6Pvf6Qr4ltw++5Gnavu/BjL6U99q+l0UWPi2waT5GPdQ9ug2SPr3INL15mFa+33GUO0OMUT7H2q++IpMtPt5+ab4l4yA+g7cJvb0XG77JNVI+SJDbPk6phD1YWwW94CChvpTaPD5Icf86BJ+xvsBOQ75yXvw9NN6KvWJ2t703lB49nhMpvkrOSL7Ii5w+OYb8vTWNY72WQfK90gN3vjK6ujz1m1C+5QS+PkCkuzxcKTw9PniUPoqebr1KHZ6+eBkhvvYJB75Kc7e9/1QJO8Rffb6tEpm99QOaPP+zmbt0oo4+x2BRPbwJML5ZivA99B2sPqT6sD1+j6y+gdYBv/N2l7wm/1A+NGyqPfhkx72lj3q+2SLxPej/Zz4Z7nE9UAHJPntRPT5tki29kf4NPVqtLj4nJNW9Gj09PhZIHz7xtgk+y6ggOwIUAD9ivN0+8/0jvTOPXL6oPNg+CfHAPpvacz7xALo8zS2svjSfiD6+wyk+4kYTPrPiwL2mCAs+dDGRvulyFD5LemI+uhePvjU4oj6df+O9nkY0PeCoij4nxrG+XRVsPosmBj1Dnso9W4cEPxvlKL4WJJu9NP8IPBRnnb0q3909NLRavhMSCL6Tyf69WYfzPrxgfDzamLg++NKRPsxu5b6YUH0+CTShPopxOj1XXXc90q+Ivi4tnr5iLH++AgxQvgaRlr33lcm+xrzgvWpCmrzwxyc+MK+Svgw/G77wZYU+13q8PX7nOb7f4QU+GPL5vTCdWL4GEsY9ereVPuP88b2yfJG+H+mOPos64L7FozA+8d2zPZmNib6+DQS+LUPLPOBRjL6UfK++p0xZvgzQFr5Aaoi+7njXPcqnoT6khb0+Wn5zvR0dsL3bWko+CIC6PsV6170qAME9PP0gPsaJOT4yZK6+MxidvWB8kz51a7W+d0+SPWila77xch2+S3P7PpQcAT8nw8c+JJz6PDoLPr6urYc+XC4Hvqm7obx7yG0+Zc4jPj2xs76Kw5O+GSDYPmHtNz7bzs++dujwvtk0QD5vTX++SIFUPjG2rr0OjkY+JAynPoj0ez4REaq8sUJxPsrcs75Jo7Y+Zq0BPvoYdj5yRsK9PqtzvUADXj3zHmA+bSoCvkaGxL5sh6I9gGpJPTG4ND58vC0/jt2ZvtMXuj7PZsI+v3o1PjBbPb46C+4+YsiZPjUZfD2cxIE+B36dPjALL77XYl0+7ZnMPM9FZD7ACju+WFY7vmbwJj4ZfbG9ZfeVPrFfuj4AebU+w0WpPWwQ7jw1boC+TTEJPlPxkT5Uo3O+pwgmPq5uaz1Ar8u7ncB+vdaJqT3mO74+MEXyPR8pgD275/i9fSbQvUBOdb6aHuY77iXPveEG5TyGRA495XU/vmGPR74U9M++aeXbvv1R+D1IaBm/uTVuvhogfz0Vfjc+f9ssPrNslj47Cow9qeKSvESy470OEFU+ij6sPgUICb2zLKm+KlQbPUBcLT5VHU6+d5ukPlLVLj3Amqa8gbpKvtBIrT4157K+wHvKvr3hfTz+IzQ+O2TaPp4Gmz4zqio9m0wvvl+WX77Oa74+jpJivNngtbyQeOs9RiY/vaJsxL7aS0G+Pht1vu5V3r3mJIE9TJHLPgVjmL7JulC+kBnovj+GTj0R4E8+x8P8PZFuxj5UZ+c7/a/EvpM3aD6ufoI9Ar45PXhxhz7LD3O+q+JMvkJrpr1eOi0/+Q5DvsrXEz72fbs+2TXJPTC16z4INEI+IB28PVaOir4GxoC+YwbNvThZNj4SQ2w+SLPWPjmqH7xiuXs+19DKPsmBvzzKOhW/kna2vknivz6F4Cs+kYkdv14acr7mnFQ+LfMQvQHxZj7b7fg8/cYmPcZwez0sU8S+xLcKvm8oq75uniA/Cl8Lvj5alrtQSVQ+mJ84PlVqiL6ASLy+bh/RPbD3zbztmlu+LmLdvjP4oj7EPQ4+RLE3PreRnj7NUfC743S2vkJe9r0YGYc+QmiPPLQoJL/S4AY/VtdDvnphTz7Xb6m9YUWtPpY1VL467L++cmsaPoTeFj6+JcS8pPmKvnbs/D7Hwz+8Q6JTPPVuvL6zG20+UDgWvu6wrD7mbrG8Nuzhviptnj7w2hg+F3DGvjMGir6X8+m74zfAvjkfVb1B5lC+nXJpvnwPzL3Ct84+SmaMPdvJHT7Qy4o9A4AXPdIqvL7K8iq+WvJOPDHt9j01P/29IACxPuF5VL24Lfa9O5urPiv5+759x7M+JrJJvR9Txz00iLk+MQrkvvD8Ez+A3de+IzVrvh4COj7baN89FpKKPt5NFT/CJd2+jKalPrxbqL4LXZS9mS8qvmqAKz0VA+M+8B+vvluvij6GUbS9IwUpPmNDUD5CMeE+GeYVPt4Wzr4Zhae+w3cgP9l5c757a7y+ADATPquqIL+KRIc+btBYPpze3j6lJoI+MZKmPh+GGb44xOa+w0DuvPGrWz6Y4767itatvuZPzb3o8WI6vESWvlZT2z09n9C+Yz9Vvh6cQD6A2HG+e4vPvh2/nr69HWQ+nkZePnyWmT6KMJ0+Z2h7PoSV2r522ws+891fvYBTmz4tVhy9miBnvsT6Fj929iM/ndLPvj80S74ihoe+MxRzvlOMwL7uIfS87RdrvhxpVL7V1Io+22XIvgfNbj3B00q+SHj+vXMOqD0wfrq+dUMvvlyPmj4K6Oa8CfELvmx2lD5GSuq8kmRvPrn3Yz4JqjW+FD+IvtH9AD+CUj+9TADkPj05aT4aQLU+55OWPjxfvb4fXmq9QvipPL5w8z5ELdS+J2NQvuPwjT4w0Nq+ypPnPb36HT4T2au+9QSpvqplx730TKE+yfFLvi4RHT58F4Q+YvMBPmMiZL6+8/y7+ia4vuNdgj4zjuQ+uwoCPsbzML7ZGMo+6gnAPi86wb3Um4694wAEP6ObzT0yPt64VT/KvGT8Sr7Uj/c8VTd9Pl7tqb7mqXo9xsOWPhznyT6iY4G+nTj5Pc1PNL4wKCE+RLxePlWXBT6mbaE+zB28PhVYzb26vqc90C2pvSYql73fM6S+bnIgvrg0xT0H9Ve9eIycPWL3e71mwQ6/CSSKvnx2t75TSdA8Da+WvnLkz717PWC+BWyKvgU75T7GZbo7tOuuPGHZAz/4EQI+Ne9mPSPWojzHl5i+4RNmvhw9Gr4anta9vsXKPkpjMb7/xcg+VKbmPY+hhj7R5l0+68XDPgmuCb5LX5O+kRJ6vZVM0z5Bxgk/ByuvvoB/gz493GG+heAEPkoT5D3Skws/E5XKPfZ41T0oD9c+O/OOvZRg5Tw3ddc9fjzXPQOQED5qzY6+OdHgPl5UCr6BsiU+1tTVvf0CSD4ChFQ+i+3SPaYokD60AYq+rVLQvWXWUz35+DI+/dzwvthfdj7oH6M8upPCvU7yw711qlO9Si7XPT9Elz4OUTi+MhmGvkcomDxu7vQ8o2yivUbQo7w767a+KsmCPqz62j3YvlC9pKRnPlPRaL1wfsc9awOAvTQxC78Kca2+EfravmO04z6NIJy8mIRXPWHuNT6XB7e9UNeDPDeaJz0uE6Q+VSYePcqVrr4nQCQ+2IymviLNOruffAk9YD2EveVhXz62TCG+b9WMPfxSfz5cH52+0ReCPv9PjT4AwN89F5gdvV4bxj5mKf8+syFvPnlJur4Fce8+xxi0vfGPTT0ZSIe8R7/SPTa7TL6F+p+9DomlvtamuTv3ZpG7fAjEvrsv5D0fbgs/ZVudPMkfcL520HG+4ZaRPuEgdz5R5aC+YyEGPW9t1D0uPKW9RWOaPb1pkz4xWo49XXD8PRZ7BD9Rp5q9hDaUPjxZIz25jy8+3h8Qvj/w/r03WNC+1phZPXkeKb7k57E8uA1xvq3niL0ENhQ+lwWbvudKIT4AXSu+M7mevvoqYj460Hw+FtXJPTmVwj0gUSW9rsKyPvRshb7t3gE+d3M7PhwHzL5Qe7I+9Lk6PpX+cb5xDhc9Tr+bPuFsgjzNLIU+Ma3KvVJ6fT5+v908zcsXvqM3077iI+U+vxNxvioAgzugL/69AmkVv/+Ik72I5nc+2mKHPnmU5r5ZARA+1ujsvq3ajz0Fgj8+OsyvPbuFk77yAEg+Ess6vvSXDT8eNDY+WBmAvdJyZL6EznA80cNQPutKRb4EptE7A0JZPsS/FT0B5jI+n44TPmsptj0Mzo4+1r89Ptvozj4j6ee9ue7bPg8bwj5dqwE+WPw8Pm29Nj7A4tY+TXRuPlDRWb6y+2W9c+bYPsaHrbyFZK2+TJB3Pcs4h774kw69smtrvRjXAz7bqJ4+JF4xvyTZHz7GM6K8fCaZPgNYgb5ZsQE+gCpHvtT2Gr5Ua2K+hO7CPoYnjz2hfL2+v1yGvGQWB76ECQK+andPPsyknT2L+Je+0OK5PMB1VT3c/RW9G6+CPSo8W77f696+", "rnn.weight_hh_l0": "bxUVvhGYHr5E/da+0KVbPruv5b2DP8m95xPfvSjghT1tjDQ+Y65fvrx+mD5FWDC+3GhfvqcTkL3htRw933hHPvBMmz76rm89rxy3vPiuoj1xyEQ+3bgjvptpSj6ojIS+Lr9wPsPxZz7Oq9s9rMoVvgYm8r0cmgu+vpriPcbCy71/hBA+yO9mvk31Q75MK0Y+X5bEvatb/jxIH1O9UnqJPJEX2r0eV3q+0m6lvlIJaT6Yn6Y9cPdQvhg/QD1jmJ+8pobFPN/gV765ljA+6E6FvgNMlz0qokI+/JLYvYyo172j1M48jtOzvRtGsT2OpEG+/UECvq50RT3rWqG9tZNFPnQ7771qee87E9uUvlP/oD66vUW+Qe+evfArLD2UhRk+lmgEPkLWZ73464S+MRi9PYfSh71mjeE9NI8kPiK4ID5RcoC++HOOvsv7Fb5cEYe+8xNPvojipj79tlE+ENZsPrfmULwhGb297PaMPQUPPD1iCUq+dRw4vvtfDT6412w+pz09Pj6dw71laJ29KyYUPcoFQLsltjg+Ero9viBMlb4EVy0+94UAvmjKnj45USs+tCIdvj1Wsj6/A7G9b4BLPjk2Qr7U3IM+RFOrPaqJeb4m14e+JmSSPjoam72LJA++4pE3PiRa7jsoHwA9ibSbvotXGz51ZVM+Ly3uvU2lr7yJQ72+n4/HvqiLGj7yMI0+RlAGvtOHPz6Tsn89PZWivf8aLL4lDc8+JTSyO046Vr7fFaU9J1+sPOtZNb1BCZe9oxIavv3FLb6RG3a+ScCGvgNvvr2xlp+97y/+vTsjjT3GrmC+PFewvXA+sL3P4WE+UH1WvqpuiT1IGXc+15OAPWSGr71YURk91gdoPmgKar5bO3A+tDAePhzPT75MYTU++o3wPXPJN776fxQ9F4ItPh7Q1T28Ugw+ebd+PgrGH77a9Qa+hjpOvsE8w72YFFQ9zfCFPuGZUz6N10c+Fb35PRoyhT2s37O7iTnXvCUqF75z0A0+VaHnvAH/ND4h/Ag+89nTPl7X2T1hzdo8e40svgRz7r3+zr2+PflcvvY1qTz/YEu+AaoBPoThfzzTPD4+VBZbvlUHq74MpTY+5xudPoyW3T0l6zY+fFAoPmW3wT1THIG+ZmkMPvdrgL4RO0y+M32VvsBOND6nuVw+54EPvDxshL03XSE+/VmrPcqDrj09HKk9mk1ZPrfQu7z/BDK+KCMevnUGJ77V3G8+Ln9svk4jWj0V91g+Acv4vX5tnb54VGU9vHaJvR+6d70xVy++Q2WUPlTcbrwxlWm+UhKbPuKETbwnhME+n7N7PlhGsT0kWcI8uBmgvnE7yD3Z9Ao+tdygPLQOkr75AZK8TBaQvvIMhb6k+i8+P8wvvmgcST6+ytY9EJRdPbKF3DvFF3C91R1RPoQNLr0YN4q9EncOPffzHT3JLqi+v0K2PNT1tL4Ovta+2ccyPbPZNT4w1b09slnjPH9SaL56t7Q9O1uBvfXSFT05Aq0+0sqAPtclub0hNf695oUFvjDXDz5BNbA9dTlPvP77Pz4L+iG+s4ExvhkQkz5tBHK9FFnWvf/n3D0vKBW+1IP+vd2y3b0aTlQ+yAqZPl+BfL5ESq++2YywPff1oD4yjPQ9Vbv/PcbdiL7cI2++uQbLPSY3mjumwJe904s7vmDpEz6xA2W+kh8pvtpfX75jRDw+ftFnvuIEHr6fxCs+VyCsPTYBVTy5vyY+wDSCvhf1Dr6aNDe82sKSPtCOt70/CB49QWygvXUGsr5Lth8+SeQTPvuuj70eTty9vFcrvTs7BD2Bfga9IKW0vO5ec77dMAe+HCAAvoIAxz7JhBG+eFWXvY7wnj0bbCW9/10nvYq6Cr5OvD0+YZ5XPo+FVD6ZIYg+DmqPPgXIBL69hYU+RJzxvQZDML1tadG+wFmevVXkDT73V4k+2NW7vrD+IL1Yvii+BjuuPKnaMD6NAaS9Fq1VPtsnBj4Y/mC+4lsyPrnfBr639S2+WPf/PUZRbD4sJE++0kzSvb9cGz4HZyY+Jpc1vJPFyDvMa2q9GUpFPfhvQL7xkXs9jWFmvkURAL4C+Co+HO8Mvn6Llr30Wai+EQKXPBIMBD7DtTm+8pWrPi7aIT6dq/W8+qn5PQUR4j2QIDe+vZlAvgIkYz4LF9k9FGpoPTbhJz0Eg02+owSrvntLm7yQKVi+zkyFPcEEjL1EmDW+6ZosvZSzJb69HEa92eQVvioIDjw3Tj6+gn5CvoGZ2b3vLGg+T/MRPCOHOr3TKJA+XjJfPi/NX75OLDG+oNElPf2mFT7f8GO8+WeLvtoBGb6Mhcg+DRAQvlF2Db4/XF49r71IvlCypj2paHy+6VQLvrPWaL2wqXM7/kSkPKf8Ib7m+im+x3iSPliIib5XaiS+ND7hvQ7fQz2aECK9nckLPuDLbD2Qx8W9fy/NvaJamD5sAE4+4RV5PrDLVD7VbSe+l0OtPt/4pryQz+Q9EP/fPGU3GT6GF+E8hrpDux36mr136iq9Wai/Pkdcgj5Dc4s+25WsPfZqNb7IFJE+HbMqPvqj8r065Ba+dIuIveHNKb6ZXEM+f7iwvXWqTr5/Gk2+LSO4vCu3Qbyx/JK9GC5APuhmfz4YPyy+Mwo3vu1YhL16yN29y+hRPcYnRz2/hlI+uT+JPp5+P77OZJE8FbJPvpWfCD56saC7uRhjPjGKAb4EIwa+zvMdvSHGNL56S/u8xUozPjmMSb786zI7xqC/PX26gz755ok+KPLlvsFFEz4ZDNa969ORPsNX573YSzq+KMhYvUJ5Tr4MJLw99oEHPk6RBr6JxW0+6aETvu03sL0xXh6+Ni8gPYV4XD5Fhq296rYTPXKqyr2bO/Y8jnp2viZAGb5cNAm99DXuO6vCiL64fyi+x/GfvqKB3L0BbEm9rX7fvB6fu72C8oc9MW7OvfD5Tj4x1XE+zKxevoVTPz5iqhY+ZciMvcfjI74iT4E+DkQFPloRbj5S59m77zlFvapadD4f7bW9wA0Tvtqr9r24ejg+5yOIPqEOC76tsNS9h8kYvkkWMz5YSHU+n3pHPeyxQL52xpM9XjfMvn9a0L5acWa+9q9LvoOroj5G/hE+7hhSvsRcob5gllO9XPumPW+O0j6CIis+S2tFPs4EGz4W3Ow90R5juhB+mT6pFS09nTK5PakiLz7+SS8+UPSIvv1Jt71fBjU+RbG8PUODgT0eqRK+Y+eiPPbbVjyiwgC9SOsavkvFF749Wf69rhJKvgcYgj6gHWW9FVccvpbygL67nRU9cTcTPjnKyL0uego+4rORPiUCtb0jr7+9CcaPvfWEh72Oi628m9ttvq2/iD3ebyQ+GPmsvR9EfD4FDZm+8ktXPme3WD5DLC0+fthxPoLYH764cF497VU4vkSfMzyDrZM9JjA5vdGWer5Zey0+k65hPvyMlDsflYS9EjPoPW4BHL7WaA4+HI8hvRZ4N76zMUm+kCkwvkwcFL5KKMs8z7EYPoK3vj1JNxE/BC8UPqDrhT7iPMo+ZY1aPR+FVz4qrek9U3WpvUHDPz5EXuo9hb1fvhoKLD5c3/493fl6PSZ4dr7RVVQ+qh5lPWa5Ar6CcBY+BukjvopFQb6cLCc+VvkhvnxkDL4mHQA+xTMAPnuMgT2wLLY78iYyPp4LLT2Li9a9MpakPq+2cz6DHp6+1hzcvflQZr2E5ii+5eG1PSoS6j1BRbc9dMKPvUMz4z2XhyO+zUwaPp8nrr3u0469YRsvPUH2ZryI/tK+5TUavhMq4T31EyE+CmmBPtUcCj6x9yM+Az2bvZiZvD3orhm+dSCRPZccXb7vtBa9JwpqPbQRFj5Fmgq+6WOUPs3aGTycmTA+U0MPPXJveD4FCzO+WC0JuZS8Zj4FmE69fxkpPsR8O705Zae8JsaiPnyeTr3L0Um9f0QSPnAVFb48+kq+CXMsvuUaU766vhM+5ilsPTxBYz6ddie9knWyPavkLj4DauY9G/czvveqT70SXT++fza6OwZcH72Djcy9mXZMPG+rDj7EN9S9IANwPgyHkr1SNEw+Y4KIvujRYryetYU+GBYdvlUw3r3nL0c9BDiAvmiDmLyYu+87sL8IvpiMfD1/2yE8dgtYvVXkFL7jsYg9I+wjv73qGj6ivOA9jE1hvkXtiD1hLme8iV56vtXmEL7G4Cw96IZsPCgcj774JCC+dcBWvob6hT4+fAE+EU+pO/H7wL3ev6m+XsYbvp+2Rz4OoW8+G6ugPQTDST69b4M+SP9HPu6ZtT3A75c9VaZAvfiUT73fGWa9nvo9Pfh5iT5sCFg+U3H8vdCTYL3v+ag9h3UBvmyWTz1m55Y+Hxf7vLZUcb7mWCM+McS1PjEd0T08mYU+c0MavG+Lpb1rrYA9ysFfvg6UoT64xSq+cQnwvdZenb4Y91w+2gGHPgp4mj2LsRy/YA0DPsCWjzy4Qbu+N7BAPsU78L1214G9MaF/PUtZGT3wRHc9ptQ3vhYEx71Wbxc/E+N4vaNZYD49n6Y9QEzPPvbBx70arsU9wrhovo1wBz6qKBQ+ba9DPh/jUTyRTwQ+0s+0PVqvHzsFJWg+jXCUPqJ/375Bvf89Jma6PXVIsr763aW+hkg9PHczj74uXJE+36vrvanTgT7FJao+ADilvsRAS76uMx8+u8pfPtcghz5ur7O9yslIvhJCDr7wXL49ykmGPugo4b2n8pY9hS1Ou74x5r0deYU+RrRuPQgS1D2QSBA89812PHwoOz4zPo2+7z8RPfw2U7z4FLM82ocTPv72o70wjly+kceOvabKKz3Emg++3YTivKoSpb3i8pE9eJxxvjvNubx6f0w9K03HvoYFDb71+w69VScvPY5BTT670Nm9etxXvqvA3z3K/Pw9hACJvZOcpr3GTsE9y2aHPRJUCz3dXYE9+LuLPXMfQz4KmWy+vPyBPrTMDD6BtG0+CBzavQueTr2mn0Q+np4jvgHTLz2J8b09O7skPlLE5z3b2Rc8sX79PQoS97wP4AS+SM0mPbmbF75gjP699H8LvZEzDD7BfUU+IWl0PTe2DLwWUCQ8JtFqPsKhLj6/n6g9vVoYO/hXzj6sHlI+YlhOuzjJ+z3kIwS9CB8sPgrAQT5tekE9lUGuPTc2Q753KE08VB8ePp1Wk70Qdcw9gu+3uuLJNj6WnRc+0A5lvlgwET3Oj0Q99IBFPUBEhL7dfvW9+fkFPvWiGb6NpSq+h5OKvY55zb0tgYK9Z1mSPV8KVD5h844+P3bxvQnYtb2sAXE+hwsCvhWfab3OKU2+HFidPuwV4b11aVo+/iGJPmEg+z2Khgo+Upn1u9UYoj25lGi+T187vUllsz7yIzu9OWuEPrtZuj1aShS+rOg8PnBO3T3OW9Y6mU9zvN36gLwpPJ48vEDSvpcXKr49UC28QrPNPS4PPbrWAzw+fLLQuuNvpz6ShYs9SxsqPklPqz2VGKI+2Rd/Pon/Vr7imlK+1XikvR2WNL7fhzs9cmuVvr5OaT6MsHO9lH9dvm6FML4nQtw9cWPcPNO4lb2v0bc9DhsFPqs2TT49PPG9D1CGPpy5Ar1JF8q9EtgWvfSoxzwzJ8K+Z3vJPMTQlT7c6Ia+tngOvQFB2L44Qbk+H1MKvcG7fz6T7Rm9FkMiPjH7/72Bkq6+gsdePjABvb7F6Rg+0MYzPK5SIL43Q4I+adjcvNE7dj59ppk926jUPSg2rb1N3Eq+jcbPPQAiQ74HpX4+YoazPqs4ir2BMys+e8c3Pq+mwT0Vy1a+6Cn/PbT6HL7eUGG+XHn4vS/cTb4zDro+YSZLvaBWaT7P/zG+NFGSvcyErL1CO6Q+//zNPFYNPz2yzg8+L32IPXG+SL6Thkq+jq5nvnFijD5mGZM9cNFgPrmK6jxwbsk8DR1pvoT3pL5RHYe+VaoHvXVBqD4nDwQ+M9sDvnnE1z2IqIk8ZtZevpHaTr5jv9g9d5isvaiI8r3S4nk+/QI/Per7Xz5oB5k9ZKx7PbIxlz6GjR89t83EPVZnKb6twUO+CucpPYYTLj1A+8E9j8tnPgZVj70dOBI+m+ZgPvfmrL36Cks9Sew4Pe6vUT2bKvS9jmVqPdvqur5d8Jm+skXovWsO670GtgQ+W3NiPXGKjb7ics09s0yPPX40or5jX2A+GiJSPqn7gbwUXAG+uxglvjODij1txKG+wdChvnjrwD5WLTU9XuwpvkqZSb0wE2g9j173PdoJED5LIX69VfVTPP/vSr2wwiq96Zm6PUATET6JVb68GzqYPt9tPj2FswO+EQeCPhpG4zwHHGe+2BKDvmKh5D1hBCS+HOkYPEFkGD6t5e09bG5GvZigYb7w3jY9bTSMveu/2r2fpwI+YIqBPqKJh721bCC+XvUePVDVb75IT6A9s5CPvvRzMryO4h0+GOnnvZ0JVL4ba2M+XzU2PY6e7b1Vxoy8S3eOvl7nIT5ayPm88bPMPeShib7VJgK+/kZPvgppDz2lFZa+tz2DPFeXdL4Iitc9akZEPoodtT5GdtC9zscQvmQCN74TnYe+ZrQrPtCqAj7bZWy+h/g/PMuZhb44twc+Fn+NvGpjkj4BFA++k8aPPZtwJb5EWJm+qAbQPjlgI76YRY8++al+PqZgkb64bNm+YOKQvonSnL5yp8S953aRvRPkFz6wKEq97viTPvuljr60+MS94Y4LPpowGzzUcTW9ira5Pjx1or7wkEq+erANvqxc0r4ULLm9pnoPPHBwr73Dv1e95ts8Ph9z773nnpi+WBV0vj6bar5fWE4+Re88PgPbub3ZlfA8PHxSPmn+qDu7Kme+j1+cvT+wxL5QzG28ChWSvfJzJ77VJcy8TkkYPkFTIr43XnM+0H/jPSgiLb6Nn00+ipjjPDeoCT7wh7S9JKCBPUP+ej7DOry+6QobvmZIbj2K26A+BGSAvDQHMT4fKFy+7ZCAPgw9ij6rZpm9X/onvdVwXj7/c1Y81eP3u1F5lD4IVxu+ILlOvrVTMj07hss9R57XPu/ppr1If3c+OB88vnXPTj3L74o92pISvXHod76UoXy+C4biPOZgQL5Mqau+Nf9JPSpDkb5SwVK+0dyevDd8fj7Hvsg9ZCLwPUnbEb7CNqG98hStPdEiVj3vX0A+jX8yvqIl8T0bX4Q+C1U8Po3EjTq09EO9Y2m2PAi1Ij3NwYG9moGEvbx9VL5xEv286tt+PewV3L1f8rG9fkmOPkug5z15xj2+eoKEvvyuOj2z06M6ayOGPWJh0D0gexy+HqMdvtuYub09C8m9RdKYu1EDND25FHq9mv8gveZ13b5qiik+5DeuPr+qL77mZwg+5ZJkvrBWoD2FDH28UMsIPrfLQ73vrQk+KAmXPhmclj1ghSA+dLDkPuuqkb484HC+qgVUvkHpFL6beZ6+0dW4POXPXD3urX++iW/ePCpbmr1WV4O+HN04vqYH670DaY0+W8DfvTZtBr6PlEe+YQx7vmMv673d/ZU+etbtPTeuk760hKk9FMoWPovXqbwcoUS9/zUAPXCaIb6wGQm+VnqCvAIOnb1uUp0+FCpLPHevYz5mty2+YAIPPtCivLwOpuk9VcRPvqahOb7id3+876ATvkvTXL5duiS+4YeAvvmUi7wDnJW9UJlWPcrO1D22psO9+crJPcthZ76u4YG+IK+uPXyQG75lyU2+cr1yPkZYqT4V/SA+rEfSvbdTQT6uLvg9eNvpPkoKij1qWCW+WGFXPXsAYr39G0E+0khivR1uUb467wU+kJcpvtY3jj6x/gu+p7L0PVSCtL776zQ+VxgavpHHIz5cCoo+6+QzvXHXAT4e3Su9uLdgPWQK473cH749bTcmPcI4xL1eMj49mhzEPirZoj6jzq4+KPBrvqlJdb6M5Lc8ktMcvP46Vj7wMY89uZRSvu8TJL4xlNA+OUlyvhd+dz6L8uW9BB0Mvv36uLyd8yW+fi/Gvja0Lr7X6h2+txa5vMUBhD3fMaQ9EEG6PVu/dTw5PZ0871uevZAFe755bgY+j8wNPmd/Kr5royI+v+INvuKvgj5irhU+z5BuPpklnz3kK4w8tT6APqv7OL3HA4G8xJubvvRURb5i+Ss9c3KdPY3WZD4KnCW+cLH/Pc4UlL5bWkE+/Z39vSWnUr7tmZS9EwEJvsP6wb0lUC2+3J1hvq3hBD6hZ389eUWhPcDwjj4QVpK9K1svPeHN9D0SFUQ9FXyZPv1fUr4DM229d63BvqiAKbze3ce9jpjdPQu4Tr6fmVs+gppjPS8sPb00wT4+T6h2PHzdLz6SGiq9BZy2PNiKpj7E4I6+OQZ3Pob+hT74baC+zkPrPjcPqzx4F2U+NkwJvf3/Gr5pkg0+wm0qvnrP+T0PcvK9jVPxPbmnYb5dWbA8AQ5vPb/kRT1pYMc9UmgMviem1r0qIL++rl0hPmh5U748r6S+AF8IPloBM77tBBq+svWDvb/Hvz41Ehe9vd9YvkobB7ynY3U9yVNSPojATT4pu+i94lZjPpYi4r1Bynm+SrorPlQ/kzwFi+u+R8NCPk88kT7cgtq9wVW+PX2Ser63ddY+yioFvg2SNz1grAW+EcOnvmk8Yb68Vg8+qlnPPbXjYT6GS8m9IgyjPY3Cab65zsk91mGrPQwPhD7f3z++7AWive5hzb0H0qu+Ct4UPXVqqL3xJKU+Y8uhPqTmXT3YRjC+4QKWvlVx6L11vAq/YMSrPP2kUj5XcIy9f9L2vHcDsrpz86i9Nb6wPTyIL74x3+a93woVPpXqI77bPS6+O4IjvuoTh76yqQy+Q61kPt7cED5YVdW+zfqCPtAVvj1zFoo8k36Kvm5jfr4OgIq+WssFPj181b07Qpq++u55vvDr9ry/+6Q9FlrIPUpSKb6J5oG9xUQOvH7iLb6c9Dq+aLc+PuWLTL4OAII+5fk5Pu5aNb6WoVo+olK6PkBrjz6O4Ba+K61KPhyZRb0dYjm9eSSEvr2oa7wT4gS+VjpcvsoIwj2xCp++G319PjVkgb3xNMe84YmKPstALb5RLIW92FfhPZu7eDyoFUO9qkdzvVUPir0pHj8+tO26PrpMRL4Bhg8+Qxi+Poel4r2x/BA+KpmbvECUTr7JFm4+3ssjvf6Slr3IDJY9MxHDPunKlr26WIC+WQXSPe1GzD6YAd09iESfPdzFgb763Jq+25RIPZJP6T1tyqw+0RgvPp24Er1mZ9m+n6MLvKJyYL2hFAM+MzznOtOmhr4iYpO9Aq1AvRgSbb5Pdj6+UCm8PCMTX7zOJS+9NMDIPVxrTL16Vmu+YgEFvr2fGDySHJQ+N0AQPg9/cr6t3KG+Qci+PbRzJb5O1pW+fp2IPmd5Pj74utq9k75IPmNp9zulMGs+QrBMPc9YLz39M6M94B9PvnOmTD3YfPs8z6U+vreMEb6KwFm91Vc4PgI2iT7lVgM96bIKO8b33L43MO69xk0qvOEsP73tDOs9g1RiPWj3lr75Nmu+1/0PvuYU673Lvgy+uskYve0XMz7tk8S8KVDxvMjbsT6aeku+2ZuJPVEbszvGSW0+E7ZkPrbnLL5iSV0+I0fnPVGHij1c5/M8gSmSvnnT3z1VInG+LJMzvtMMHb7Ifbm5yXmNvYQOib2LuhO+kKqkPSa4S76V5zU+dlo8Po+WHL6NiGe9RHy4viSZmL6X2bO7vDX0O/rQcjwMVMy9nVYPviAckD0c37C+M/ZPPryKsz59sza+K0l7PfBhUD2/zHG97dHIPaOjBj1oTuO9RdkHPhV2Ij6Wkj++xNT9PQTZnj6xKmY+0VO/vfguw72JO5m+YNe9vruRCD1jY6I9xYQGPn/2CT4ROwW9xEgdvnTScL3M2eU+YAVRPgyz0741oJo9dZsivkSYKb6iKXA8MfYSvpfHxr0kQIU+y4JIvljXXT6nWV8+BYMqvnL7Er5NjYE+r8SuPU2Lq70/VaA9oKWnvc4/0L1MSdO9UGoMPkkJNT49fHe679gVvu66qztrp0++CjW/PiMlPT46y0w+baStPvV4672uRuc9nq6YvgBUDb6px9k9Gh69PrRTBL7YIwc+5PTGvh8DEr7SpyQ+oAXJvWUcLj6V8Gw+10wgPir6z71pb5W+v4UBPgcbmT7hCYS8RcyGPpSuqT0cFAS+BCbUu676E76e0Tq9+P/Uvf16PjycNgE+frswPsE7NT4+YGo+1fwCvkb1d7sAI2q+4I7AvUlexT259oO+LEOKviEcRr4U8BG+VB2uPRDixr2sGaq9PjaePj2Cqb7mbFO9tFqEPe8q0r3/xBo+Z4+GPrnWfr1f+xE+V093vgf3O76Bz/q8E04BPvxKgz417ig9L8ORvQ/qET5lsYq9fRvFvgKIBz7CH4e+yLZhvqMC873LCpe8x4gyPhUvn71CxsA+s4uKvZ9ZTjwMPma+dkC8vRgmR76KoNY9Dmosvuom5bzz9fm9gl16Pu2HhD7fP/e9zakFPWn+8T1G93U+iv8gPoUDOD64QMG+lH5TPrnzvj4UFrq8qaxGPi4aY71br6A8mNVFvgGtP76IsCu+TbCkPCgwGz42cUw+RNbbvRNO7T23rpM+BINlPiK5Mj4lAp8+csIsPkUAqzwy8J49F4QYPuS/Rj49s8o+6Uu8PQ9COrt/CxO9U032uxJCpr5Zp+u9C9LkPqYzkz5yjrq+6L0ePlNxi7xYSsy9R6VZPgW52D03lJQ+2dytPrcrlL7275m+FeGevTIAET30Ysg9q4FtvrxuAj3Zumo+HNnRvXPMZz65cHW+Bxh4PrDuOb6zFvE8bcSovt85Hz4EWja++/WvPRVQkbwUSR0+/C7cPr2qIj6LQmi+FO1sPXWxhr5QgdY+abfiPce9wjwzAZC9wyY/vZm6Vz56Y0k9JXMGvTtVuT34Tk6+NJcPvU3HDD4o4Ba+CirxvaNQFr7YPmg+C02APSG7N70OJdq7QEExvH33SL78C96+cFJkPmQ1ZL6kHHm+QRPfvdFuPbygPYy+UBwvPcYsYb1LOGE9kvvHOzjgI75WIIk99p6bvH/Aez7XMIo+qBVCviMglr7e5aM7+K/KO63kqbzBP4A+QQOiPmMuqr7mGr09dDiuPlapMj4Y11o+go00PtjMWb4hrOu9xVWLPqVAi75tho49YrwOPtnkRT5yoYo9YqHPPZpVqT6+TGs+z3P1PC2Qnz0fCoi+Y2slPoshxT1TIpW91zr5vJv3nz4a0RU+X2rBPiiOED6BTlC+eHv0O5/zNr7pNra+/2BqvUyklz0mRJG9pnNevZMLij6hsWa+ETMOPnokkz176cE9xHExPkNprr0fCIY8D3NdPvsTxr52rpm+6N9jvXDLeb4iMIC+BQHwvW6CQD50B3a+qHVPPugRXDzPKoC9HrfZvQzIg774w3A9DX7gPXt12j0QLqw9F/WSvaij0z3GlVA+kmpevoJAFbuiBo0+wio5vayzFz5d2mK+8dmpPSHDHj4lsqK+bOIxvodALT5oTB2+zSnKPhlxwT0kb1m+wFrbvQLalj3L6Sg+4PuBPl+XiT13hJW+jKIpvnEkIz7x7B0+++U7vQGHyD2bOS0+HWyIvdFNqj37hQw+4nTfPYKviL5yEi0+ATKEPqz2Sb12Osa9ObqYvpU3nb2ikJo+sxsavtCTQz2SphW+WOk8PieE/j2B4D2+VTdWPUbO+b3bUKQ9U4OVvTtHOD4d8Q0+8Vx7vsel1z3lc0i+OptvvQpakD3AiZi9edA+vj8Enr69JyC+Xyinu8nP0b1ck2q+Zg12vRRk8b75HGy8/YBRPoegcT2QhCs8sU50PmUTUz7+5bs8UTGNvb3ACL4bwC0+Y1cFvumF9z2EEiw9MO5avIflCD4fiEW+OAl4Pelr2T1v+AK9Ts+ZPW8BA73PQjI+8RyDvi/3JD5uIj+++iXSvR61ND4ijVy8jCIJvfvtmb3V3dQ+2LsbvjOMEb61V2k+FHziPEwfBz6hRlS+lpQ/PkoOiz4pm268zaI7PhQyfL7inRA94pRmvUaaK7yW+dS922iMPUY9OL71uyM+DHa5PVreej50bPY99RZZvccUKD46stg95TQ7PZQpSD1u1WU+nodEPQ2rp7zzx5M9dbwnvk6bR76R4tg9Ov4IPurJFD7Y+qC9jN/TvrqvFj4IyI89RpolvpuZBb1NZMQ9Zt6DvPDlD77kp9q9bTrpvUwGYb1WucS+Zx6SvUvlAj7DWce9ID5BvvS+mzyS++E9CO18vb6oBb3UdiQ+vLyDPo2vbj4Xwgo+T4SIPY0Sqj4eE/Y9HSa7PUQLJT62gUm+qk9cvtdQ7r2URk69BgZHvibTob1OBQq9EV+IPqVmEj2QgEk+PtkRvrW7jr5U7uu8dMsVPCL6dL5xX6y+lvC3PWzhNb6H3Ko+PdhrPdOPbL4NdzU+oSRYvUf+Tr0EPA4+55+YvUhsMbwaplg+x8K8Ph4YDD5x6ME9J9szvpTnGT7dFQ++P+TxvBZwoDx4caQ9JesLvpDsrb34oQ8+zTw7vm9cnb2Nn12+OOBxPdIi571TRZQ+bNCWuwu3mL7AdPe9828qvnZ3ar7oelK+GYmlvjUZIr7W2Mq9zeB6PkwiDz5jZV49rbeSPpRHK7xro6w9aOlDPtRwQL6ZMUu954RKPggbLzzkUCk+zprZvf7XuLybvTK+SDN3vQ2fCD7orYs9GLLGPf7q0T0Lsic96J46PdglNb7Zr8W+IDd7vUIudb2Q9AG+MZjKvtCJ0Ttj71M+7excvgdbcjofJD09vF0wPiSSgj744AA+ikOBPiJCdL48nPC8NGfCvU0W1LxZrJe7ecwRviG1Qb4zRHg+D8XdPFRmgbwtv9O9pVrLPSrTV7626CE+F3Q1vq2hfz4Y0YM9tHPoPUztzL3Qgf08BR8avbHGp7yDnkO9uJNoPIDkk75jhhe9+NFgPl90U76k6IK+2yMMPvtoTr5C11c+1IqIvrUZi773JBU+0qbcvVb5i76rIFi+vquLvNjKZr5UmM297fqFPOTYlb3uDzY+0VNrPsblhb3VuGm+IqD1PWFrCb5pLAg+PQvzvCYgyT7KPiO+wiZmvqlb3rzdpGu+pAocviosmz15CbS8KesOvurIoT6oKTE+qS4lPXGEU73pAQg+IpnIPV0yITw4xxg+xB00PloyvL0rylW+0Pk6vbj4hT5xV/w94iuAPtFcOr6yRyE+ZN9IvrY2mj33wRI9RuHuuqnxAj64wvq9IIoLvSKFgz0iZa+9pcJ5vrH1zj3cG7S+kCnIPEsV2D6Bpo89hzITPgm/xb3UESc9lZmZPh/9Wz6dYHe+VwnGvSk6XD6QJYw+0oQaPs4N371FgAy9ItXGPaVHNTwDRbo8dppUPpYerr3VicQ9AeQvvdRn772x00e+QZtlvCmoJT7OEYc89iuFvu8bfTy8Cfy9R59Avgd3UD4ivim+GF1JPkeAe76yNeS9DoEAvhut5Tz6nwS+EacvPmHMWT629L688qdavuihQbzXoVQ+/hg3vvCfhb6ORLy9n5GBPr+piD5K7mQ9hmbWu8c3HbvwLsU7PG1TPqNknz3yVmG9/oiLvf9DhD6Y3VK+N/qKvff8W74159o9v5hvPQc/+jw/wsW95fu6PogTfb4fyUa+LR/zO7Vkjb7hj3I9gNcqvkLOPr6Jtxc9HksiPgM4Dj136ME9QiR4vQUInT7tIwi90rFiPhKlxT2PlAY+FoFXPnGyuL3yTWG+7TVUPrRmoL7nkvg90bsQvQ+Zsb5ZtPk9X7kNvbonCb5QipC+B8E/vh4i+70Frhy+mGpdvgfwgr3cdIs9wihjvrX6YL7z3Yw+q5BAviapcr1CqHU9cTgDvtF/IT1dDDC+CkmvPXKxST3Hpes8LplSvZ4NxLviUdu92AqKvKDEmj7dyDy+74aoPZn0Ur28xT6+L1r/PeXJ3by2ulk9vNMjO21/ir6w9869Su0yPJN0bj6o8Gk93VZ+O4nhDr65Eim+ngsQPkC2fb0JXva9laYxvqc4073dHZu+dcu1PjeZ271HXRu+XHJavRIiwb1mFYU+Cwb1vfH40j3vah+9VhNkvb28aj2dnUI+lXM6vq2v3b2OZey9A0gJPvqfkj2WvCk9veGMvYi8TTySo5i9KiIaProwi74gtzo9ebJIPlBIHr6YpH28EA+APoumCj5Cb2M9FAWKPj5CAD2DPT2+KlFoPEJwYj6sHFy+BtFvvopJIr6p89A87G6DPmGUAr4zIaa9da4DvsdzYj7GWdi7j7/kvTn2n72TesE+DHJhvo2uaT1NPeY8P/LpPQyKi71+btq9RetMPVoqwL3mDqU8YSSEPkGYjb35mpa7XnmpvVySpT3xLCk+P+8Kvr7xRj5Wjpy9gJp3vhbzxD3UwQ8+LXyKPc9mVj4SFMY8nKrcPeiijjw2p0w9+iJxPseXIL7kssa9EPZWPt1YWb1Sh3y+NLcMPTe3G76Xo1s+Ssdhvr0gxr1eFjU+IqiFPZ/vC76ZVVk+asAJvyVkCD1nA+g91yFYvnsBVz7ZPA8+rRnRPRTFl7vsfj0+SVFzPTm0/z331Jm+tyb9PMrNKr0m75C+CtsLPpUak70tHca9EhdGPqChHD4ZmgI+q26UPqtyPDwHzJS9sPCXvaFGOb5xElo+xZb6PPoCgz2oFDW8UoQTvoYFKL4OiJU+Ww/EPOvYDz58iYU97KuIPnkRfT5O5c89CNk/vjr1gz5wp1o+JvJ7vlWYdT2pEye+Olw5PWYhBDzb+5q9iIt/vqrO172i8V0+GWzivbMVID7uyFg+IFFPviYr+z12RSe+rm9Pve6Bc77Mxjc+ZeDtPWy8k766kjI9azU9vhzttT5ilS2+AWXovaf23jukmz8+4a4PPtbeGL1Q8zs+175Lvj7ci70KUc27Pv0yPRLqOz6EVao7SS4zvo9CWD4GKim+37PpvaGfGD25/cG9Q/oDvmNgyz3Nxm0+3KBVu4zonL5Da/u9VaLavAMqnT4wf4O9XhI/Prd/Fz07qos+4xLavRq3qT0z77098fEQviqXAryr/0k+Tka5PbJEdj6bnJa9Q/ApPsd4jj15NR+862LOPdZsur3kSKU9TtFvPq/fqr6n8XE+rwYYvgxkxz0I4TA+PUZ1viwP/DyfXYQ+IN9jvXPUOz4r2qY9zzo1vh2t+D50wxm+3sWpvX6lrD54Z0Y+TT+FvYHkjr4e0K0+UlnbPDIsZb5UuFa+/wIvPjQAl740zZ+8tPW8PdxliL0IkbS9mCQ3vhNHXTzIf4I9lV4uvfNE5z7wkRK+hDw/PmdpM76Ga5w9A2E6vuyypL7LC0+8uGH/vb3clT0B4qq80pmuPfg5Db5I1xg+0ynhPR3yUD7WxFg+A/a6voEBU77J+Oa9bTS+PH3g4z1+m3q+7AIGvi48mr7sNku9KOirPZ2eSz7QnFk85H0lPnwWnb5nqu49gwu2PZ/xGr4AHnm9epBTvX7HKz15EcK7ThHkPvwdVz6UF18+GERHvpaBkDwxngu9Igx+vvPqXT5xaIA+uzaoviL0+r1z/X891US+vUujFL0gKOC7sXw6PkdokD5f+42+xHx9PQ/iXL5N0m8+JdaBviCUGz4arD2+/JqgvSPybr782Ie9wK/GPqckSj2FoNS8kzgGPees+j0JTRI9fAODvprXar3/5r29dNZVvnufJr5Onjg++Yk9vu2URbu5W5u+LbsrvfeZgL3QJ0I+i9oaPZTEGr2XAdo9qPJGPRnacL7EVgA+4HYTPbL3yb10Pbu+eYz/verMW77BC1G+TMirPgUxvr0xSoc+13cePu5oML5bj68+SKGIPeKyiD1Nu+a90SfBvfe7QD4Iy689p4xJPivCc72PZ+E86YtBvg5N7r30vjK+InkHv/lDgz3QTI487G6xPQBijj0m8oK+j3QDvlZEqz6z1UG+acapPuoznL3Xp7O+QfisPkiIgz6Qi3M+djBYvdKdX74JNly+u54KvZB1Tr7vIjc+l7xdPsWTIb5lGSI+zplPvmBHSL7zZpG+KM1SPe5yhb7d+4a8zGSYvrX2U77ZfJW+tTqYvYR9ib7he6Y7+yuOvnhlFD6Z1E09WjxjvpwNqT2M6r8+CiG6PIJjVr4gqc48MGxFvrXoHL7rHiw+wJ0uPnI+Cz4qv0Y9wrQZvlLBuT0w0wi+i753PrJ9Zz0rhbc9R2kdvq9pjb2IMCo9yrpMvmHpwr7gy6y6BwjqPcQoYT61G4A+laX0vEgtfL2nDAc+KAgDvu8mLjw8sCE+ScJePopkez2khEK+elbfvLIssT2bcJC9iNtrPnFug77l50m+WixbPivsXT7Ygoo9sSmCvofq6Tx0CDc+KyZJvgBzST6TRmu8Ns4oPjZyhT1vRwE9y1fzPHgECz7QG2Y9evdOviCnlT4k5OG6Qb1eva5AD76LD3G+uN2APii3J70tXBa+XF+LPsvSgzytbva92QQbPjmHzz0S+js+6C/ZPrTHWb7zgUU+qurwPu8lWb4maa099vs0vhxevT79Gk0+4ITRPE2YCT6g2XU+of9gvlnHqD3nMS48soQcPuXZgz27E20+/VSDvrTrU77MbfO982EEviaHeL7AnX++vJs0PELz1jt8F7K+uXghPXpX9z0WrBi+WeYbPbfwwb0be/U8/nWAvdme1D1/Hls+rEIhvmXKg75BSAS+vN0RPaWAWzy3dqw9YoE6vUzCXj6m4Dc8nB1uPign6j0Zb3e8zy4pPn5UG7z6C+I9AalavO4TVT6u8Um+LGyBPEXIXT5b7o0+v0NNvqf6lj1U5Te+5zjdPVqT3rwfnoq+RvAFvkrW173cazi9lmUKPb9YdD5uKFg9/Xmnvlk+Zr6j3Cy+ExP7vWjbPb5aoj6+7PI5PXduTr5N6YY+UG9WPRmZN74nCeO8bqwMvijsPL4V82m+ZksgPr2etb5Q3q4+2FiHvvrasrypeFs8kcEQPmCpED7RpVm+hrRLvlUjgb5LDYS+/9nEvZ96yz1c2eK8U3JHvdRkDD6zI4M9xTpYPYjEYr66wj++MWPMvYW+vDx6aIK+BrDJPhiMP74V9Ja8arqfPV8RTr38vQa90OLmvMhXlr64OHC+cLyXvTbx7bzVEHu+UthDPqyIET4Omna97WEvvhc4Jr7+fYy+16CHPovnQz52wQc+GL8+vsMIgL3Ooo49NWSCPR+3ij6W+/W94A3pPY4PN75DhDe+lW9dPlhoPL4pTY87RQCdvux2+71hNT8+v9aBvvR20T1+dPs80umivrx8LL56v16+TN4BPSDat7zwQc6+zxJ5vmTDPL49+fg90serPeCkKT7Q2ZW+aH2WPKrfHD1xvbe+FahqPUE5k773ARC+MAAvvs/S47z9Qiw+MPKbPvT9PD5V2Be++lZVPtwMBb6q6ck9krsjPhiKLz5aQzo93hezvgk8yT1r+LW7hq78PYoQnb2WD729KIsOPswmb7oP4/I9G6fTPQdWaL3b/Gc8v2eHujyryD02km0+qvpvvmYbI77OvI0+fSafPvZ9N76MfvU9S35NviEG1rxyxc0+jiqZvebFhz5UAoE9dQSpvShF9zpRrBW+vPmIPiaJlD0ZZKG9zbBCvoxVrj14R869bS6oPZS+HL68enY+AJ1+PmJq6D2eRbQ9FeYvve6pgL7Q+IA7csUjvizxRz6vJBA+XbWDPnNMr719G/W9oVOCvmedBT7N7YE+vtEAvhwEu71utsO+oZJjPiispb2ACIM8qi9qvqVgDb4nqzc6cMWFvZ8E4TuMuT++a7I+vgQ+UT1X7ws9Wu8rvvgHFT0X/5e+SnF7PlKEKD485Jk+HUb+vaIJwr0cc4g9BUOBvlosiT5jBC++p8RpPnLhEb7ZbSy8jnkyPVyQAz6NR9491D59voBRvb0m1K89WIamvUqoFj4AfaE7vN+/vbdoUj6fg0Q+rvuMPn/+PD7wPPA8V5K2vphaa72wTq89MBuNvplq9b0mmUu9uvf2vV7Gpj5dMoi++k/mPa1U5L1y/BW+sEqhPmRKFL6ZOWC+kIVKvsI0tj3VBx++8usWvrfHhT2RDQM+LNvlPQaoSb7pRm8+i0YaPoj72T3VIKI+3tOHvUxFVj1AAlq7hJi1vEQKDz4x1KW8UXM8vSmeFD56Cv49U3fivd80Fb0yTvi972+TPO6BfD2fvWU9T3Mgvbj/JT6zl52+WifyvTNYlz3ZIBY+OwuFvW9bx74PmSe9G9JPPgGWIL7OP02+OtcnvoVuhz46mTS+xAwsO5H+Ez6jxoO8uVqpPRsAX70rNc299WZDvoboZ705/xK992Y6PRXBEr6qlXI+QBSePffBSL4ov429MBilPsrPXD7cCSM8EhyNvmGSHr1I6bM9Gx7OPU7jar6fKUo8n4UoPkdNkL0UPn6+emPFuk8mk72P+DO+104uvq26RL4px5E8w44GPPfNMb22RkG+CZeqvSfxXL3GZGG+d4XAvEl+2z1tEHC+PNFkPXKiYz00M/I9tLNAPXEqfT7FuTg+2ytlvjubbz0KTx6+ydZPPuQ6Kr434Tc9bpquvviJtr5V7C+9Nm4lvthEV774DuU9aPQmPml0N76nHCk+0hkJPq+OZ7yQw8y9VrGUPlXWST6vZow8gzfCvs/vej7IHMq9KkRMvh+Wnj66JkA+80IyvOthmD7BOKK+EQ/gPWaLHj4+GoK+NF2svTVb4T3WLus9SbYOPLZeOD7aWUE+CLmBPpBogL6paq6+1GStvs5pi75Gx1g+6RG6Pa2z2D0sPZI+glacvfs6Pj5IntE+lJBbPmZ67z10BIi+0h0LvnN6+jzFMBm+0CFCvlY6TL6wIWo+wtkgPTOIJ75gtX080+gePRNY1T4UiW6+VK3uuk8wHj6wzT28gLquvkZ4yj1zYBs95PGUPTQqoz7WTBw+riRmvvuqZb0Ko6q9jksbvhW7lb281aQ+ofyjPoytEb7jmZk+VAuwOyF5/71NqRK+rlawPC1qML60Vd06U7YyPnytiT58jdi9qja9PtH2M77WHjU+Fo2QvhMHED4zD549tMfFPZTEb742/ci9671jvmn1Ej4k+4k9CcTIvVnwfr1v5hc+4+YKvltSDr6tAoK+NhjYvT8UDz7jIOQ9hADbvrIeOj6BhLE93L22Pej2ZD5VvKe+4dAzPhZzSr6ne429Q+EhvfEcQz79ixS+xlcgPtxWlj6p/1U+g8lCPsuO7b1udrc9g4c+vWcAj71I0iQ+oX2LvkWjs72Z9Bq+fx42vt0YpD3KQ7G+TmiRPVCSR778kVg+U+BJvhjG+z04Jv09dFFnvq4exT2xOIi+jmknO93uGT4Zi849bQ4Ev4u8lT7Nahu+Yij6vMD5mb5OXOU96dT4PBG1hr5uRkQ+N9JLvpZPbj4NHDu+AxGaPqxZpr3xjga+j0u2PlSEET45TZs+Enw3vkNdRj0bsb49jLxwPVFleb55XI4+4OXhvSPaBT2ArgM+7HbjPceMlT6xZUE9UpXJvlWecT2OJV2+o0ijPV6PND7yFZ298/09PrlKoL20nIY+5k1HvvKiBj5k+Dg+GZNEPpCWiT3IVe48RCqQvUhlzD1O+QI+t9z4vB4fBr5oDmI9qk2Xvt5CET6jfhO+RA23PRUihz0gtou+t9zpu5llnL3FqvG9zCxkvnhSTj5ujBQ9iUSpvkklij561OM8EnWYvZasfr41Vu08HeEoPbdnCL7r3Ss9kToUPV31ED6wpHc9/7zzPm+s/r1YMyS9HcszPpZJU77F9Gk+Pj/qPHXBrj0yUUG+6VlkPg5pKr7s3m++qfwIPXm3ATwFCrA9hbaTPsV7gT6sHBu9mVhxPEXDXT5vH1c+RCTVPbFvDj5sfb8+mjb5PWwlFL5pXM89XeKSvWeLRr64oYE+WZUxvttOTT5GMN29E1z6PZvGmT2G1y6+DuShPWpfjr75U2q+FWEzPUTjXb4u+4O9feUBPqKP6T2i5zW9XfVXPgr/yDzbp709fLmNPWvaNr4/q9I99Hg3vpfGrr1JQ4w+a16PvcGnOz57H0c+bS1DPlFjuz053WS+kSysvdohSD4IGlO+cRt2PkTVkb77jxM+HzJIPj6eNL5XwMS9E+1GvgCiB77eqo6+QFc0Poac7D2O9cI9GgikPVwBuLh7+zi+nH2CPqjurz6s6Ba+EysGvcIdTL3bx4y9nHcqvcTaPb5hhEU+Ol/fPAJYXr2FtRU+eAtQPSjzUz4Ys4c9UUzHPVgvub1BfBa9KzS/PUb8Vr54iWq+jXsAvYI+Ur7Xxa8+VOFJPpN0Zb6CnHa+BbIVvSG54z4fMq681YcjPoWnuz2tCuY+xYvHvXyMhT2wWV2+9XWMvbAKmbyiBE28NyPAPRbq7b0C2uU9qzoGPkh5Tz7zEz0+/xfpvZmxpr4yqTY+iX+1vQKAZj0eNM07PvlHvppoMr6WNfk9oCrhPDy2p7yTxxu+z7n1PYfGj749P5C+Oi0MvoY6eT6QK+m9354KPiHcc76rOI2+BlecPbo6Tj1psD+9qUIEPi7Vpj03sMw97ZLLvHoy8j3brrM9dbLTPckcDb6DeBg+kSoLvqy9or16yPQ9oHaKPcu1HbwW9qY+GOVwvZSDHrhbjvI99/GivlAeDT2bv02+ne1/PReQFj49mdG9ppX/PQKJh721Ia2+TawePha1kL0o8rm8YJFtPhykYb7/P4q9MzccvlxlZT5sM/M8CVmnvjq/Ar6MUtU9TCByPryfbj7nxpE93+DwPZv6Yz6qfKI9WyYHvtFjgD1RXwc+asf9PRwB7Tq2dhc+iMlEPqbkJj7Duz6+I2w8vQo2lj0A/ZE+pJ56vrQt5T1yyBG+E7iYPat5dz4YBEU+S7puvn7AIb1Swk8+LvsuPl+K5D0XaNq7LgvuvZAjlL1bhq6+H+QfPn9cTL6rCNU+xAWuPfvDWj2AYUm+wwcCPlCDfr5K+ze+aVWRPftJG74nKqQ+ew9+PCOV5L38v9A99GyXvpTJmb3db5C7L1MkPism0r6wCi29m4dkPfJVDL63Xa2+n+raPPEjVL5zKl4+j2TMPGLbOL5QSl6+A/noPWicjr5c+0W+nVO+PRQcOL1OgoW8XrHavD8pJT4YeaC9zN71veR6+z1D9JW9BC8fvuXU2b1c2p098FRbPuN5BD4yvea8L6w1vk3K9D308Ey+TAZDvVIoWD7shUO+i38bPs8TSLzWG4E9p3qePofpODpm3Q094MNVPkP4RT1+w7291jW0OzWIiL15TYQ9tDa5PU/V7bufXec9t4/rPGEHrT5ntYe+xmXWvTeqnr0tY/G7/H8ivhhQWT5B4yS8oph5vUznBz4nack9nQNQvrxoCj5ukhs6kDS+vXMuWD6cJhe+bjzsvYzwkD1g4Bu+eJn6PfVndj0iemk9hIQwvb7IOD493As9ZVEtvknc67hwfL89hUt3Ptw37775F4S9diDcPdyrnj1rJ6K9YevXO2lJ3DxWGZg++2YYvhzHMD7MvD69Yv6EPVhvJb6VGzW+/6y8Pc65Zz6rX2g+JjVFvuW+vL2qZiu86WY1Puaamjz4iYC+eGajvTxgZT7PiiY+ickjPvoFrr0ow0Q+H4vEPShFur5hGRK+zhZUPpuJGz4YTLa+enSXvcI+bb4vC4g+nB3wPQffYb2T3FO+mcBOPmxhS75ZkRe+ZnCLvZ93Tr0KHvO9sBjpO+yhgL7G6J2++z14ve13iL67Bo09TyXsPS6JOT0AqZe+o/SoPgQaZ7288Pc8gO9/PNKThb61IJ899qgAPK2egD0cAry9FdqmvtxAYj7pCsK8XhSrvZruGL32HC09NRNJO4FIaz58LHm+Xx7XPRDwsz7GPTS+pxIlPsX9F77eiAI+ffFPvrgw3j1N82c+CwRFPYI/Jj4PGW4+tjmLPd0bg7190lu+w1ryPepUgD6ggCW+ZJInPf8h4b20dCg+N/fWvDDqr72VfeG9/fTou+KV270lqM09/p7ovYzFS732sSe9cUpSvpSAd7s9MWq+hgkFPqHpWj0Y0JS+zm+PvLxeCr1uXEw+S654vUU+n73xEIu+f12/PQCCb73GFdi9WJ2zPUMwIT496LA9O75av2fFKz4r4eo8Jr9pPpx8Bb52f/U9KyujPdcTpL0Vj3M+pXhlvVpqET7CTyK+SCpnvhoNEj5N+n0+46alPUOSnj22PLo9zKM1PettKL4mDKQ+KsghPvdHt70DPBK9RsacPWnVlb6/jkW861AuvsGy3L2Ac2c+4W2fvSSj+zy710k+d+ncvSzvlLyztdU944ohvm4xnb7pkYU+37VHvnlWOr6aI38+hLwgPodODD46fhI+1A+hva9Ulj69bYS+acBVvtu2Kb5Qlx++ZiejPvluAT1Ml9A8dMWEPod+Ij3ZuFi9NoAMveF/QL56vk6+LiPHvVwhhD6nlmQ+7d5APYWKsD5ZIaA9aTHQPVBWBz5krSI8wLGrvRWlzzz1Xfk9KI8ZPl+2/D2/mU+9bMQ7vS2MUz1GVwm+trLqvOGagr6WQaO+2WZjvf5kDb4zARq9pUcpvqa8R77R1IU8hK5Avq7QWT15kR0+mZs1PX4cuT2qBqg7NgadvjNLMj6nDHQ+ZPHDPemA3T1k9lw+EYvvPigKuD0RjpM+aHLmPo5GGL5JZZq+ZJL3PUouSLwhSR8+7k5YvgFT2jwre46+MzEZvhy/Grwmdsq9cLAZvlSOZLymMQq+2bEXPs6uND5YpK0+y18uvl3QBL7brYO+/pMtPiFgrL7O8DI9vsaOvsUqGT6v5B283g2JvlkXtD6p/E083kMcPiFT4r030mW9b2oxu/1n9j1HyAI+hI6QvpsGAL7Jt/W9yNoCPp7NgD5eZRE+2hA5vm5kBL7HqpS+kegtPt0og73Q/14+X02XPrzZ0j1EA5u+cSokPnhktD15ZNO9+N5JPRsYwb20qLg9vAzCvQGZLr3Qu7G8FA+lPV+2I75S1cg9+4GIPkNf3L3oCwe+aHaGPRl7lj79UcM96h5ZPmoUzTwOLo2+gb0nvYs7rr7V45o+5BovPUj0E74frmi9dgiZvP6mnT0sVQK+7xsHvj1hMD1ywFU+h/h8vYH/vb7GmKc+ETI/Ptb0Rb4dKEG+Kmjkvcwm8z1ylEy+QFg0PketVL5120++HCZVPgc0Wz6cHmK++xWgPnXzRb5sK6U9GmBuPXTT6L1iMZ2+ICqrvkXHzj3LBoM80MYgPgATbjxHwcg9WZmCvlS8Ub0P13+8qKdSPTlVAr7XKsE8ufc2PqeemD0RGzC+EFckvRhENz4b1F++T6RQPreWhT3lzG4+dCqwPgDeCr6u2Us+sZg2vihCoD6+jww+e4ImvaZrHz5nb4a+jGoxvl/3sD5KPwE9CaY+vrZ/iD6ExJ88Qu1MPdUlrz5390C8Zu47PUCV8r27l4u+v5D3PRBqYT5uTpc+E5L5vXjOhj4Lcos9D1KcPiAuPj6BqfI9eNGovkRNz77N3YE+5PtIvusnr75oTN+9VPuhPow+g77m87K8pCsjPkDulb7rlYK+t4BLvjNnRz5HJFM+A/OUPr1M47zBVVs9Ym0dviNb5T2GUHM+na/sPSi9f7508zC+O7t9vnL0d76Jm4e9f/IKPhJkSL7kdii8XoHGves917yIzXM+vW8APugRVr7obSC+JKKXvYhqMD5FWJm+IF9xPT+yED4dFRM+oA1SPjq2rT4fv5O930CLvmI+Er6/H4A8M+dKPhZDRD6RRJ0+7tESvm9iT77OtrA9LpCwvZuVqb7qjSE+ZAYDvQ9szz2wicK9BX51PrLkeL4Ti6A+1lcIPhn4FT5as+q9r3pdPX20ab6EWnM7+/O6vhO4kT7UM4W9IvvTPZBlfrz/6oU8K4mZvgvr/T2Q9Ya8zLvvvcbFTTxpDEM+8USGviuwCj6vhU++7F/ovov7lz4fB2w++TufPo+qfj4to9I9wZEFvdcYCj2nCvm8M2CYPlcBdL1o9fo9IJAuPu3piD4AgB29/iVZvp6Bkz0sA5o93j2/vEedrj1LYqa9JWGJvjjUST4FDcS+HOLgPRgSir4+SVe+mbqaPJ89/L2LCQ6+WC7qPVealj6PIjM9DQUyPpzxvr0vdY+99ZCqPtc+Qj6TFVG+YVcvvq5cHD6p91g92/MCvlHpQT7pKWs+35OkvipYpj6QkLY9/w6ovDk9CT7Yo9I+23A7vUsyPr7vHSY+xQYWPiLsVD2r2yW+NdKZvCwky71Emdm9WXuAuyTTvT5oyge+Mt9MPnBrFD4Ar4W+AU6iPep13T0kynY+O4XWvorzxL3UbSM+f7YMPt1tPL46iA49yf0lvDUIhL2LIas9sUxPPIDpXjxDUzi9uSoLPF4lGL54kCU+W3TJvcYEGT7814Q+DHoWviQGhr5Ah4s9n+03PjjGTr71qRg+N+ROveoIwL2LjR++4Ll5va1ckr1NwhS9XtaBPNFnD72f8mE9TVQ6vqhnb7164A4+hs/CvYIQcD7BN00+30FdPftd5r7SRSG+TQZaPuMeK76ETI09PIDFOw3fQD5TgNq9f/EXvKoL5j299DI+DBFOvnbKh77Bu6A+XaDmvPFRqj08C329pNoOPEvuMb7lga09SL6TPlOQr7ym2D++8JgZPpJH973GwFw7oTrLPiAylz5GV1y+5U15PdzZPr1dNFM+OCbAPECxLr4Ppog8mLIBvlBuuT3LY4q+EbDOvL+Dg77FHxi+pLeUPiY9lj7VgCC+a4h0PqlKEz5PsQe+HQzDvRanWj5K+/89EJhVvjbX/buGrDi+4cSLvo+ogb5bMRS+KynrPZXxmz3+8NW991hAviju6jsF+Lu+q0hFvaV2Y7sEP5A9mXkRvyWlfT48Sys9uL87PnH/7r3f7w8+OtGMPBrJF74efY6+oHsqu3OpXT7AGEc+TVTpvX64q7zBcV0+7awPvrJbjb304mK9UWAuvZJtij1i7SI9srgMvqDzOr6cRRk+JydsPdcx9b3itfK9d9c3PkmQXr6oI9Q+eFRQvgM1GL5czQa9/vqHPtshIj4IXjO+AMRcPhF2aDzC05g+fxqSvQLtRz4XaYQ9pe7Au/FON75bQv89SMAlPjOcuj2AxPU8wB5sPskw5byaALk9smW/PYQchz7GzkM+KXgdvp32Zr6I5LE+oX0NPv7jDL6oPh4+x6V9vIgATb1pshE+SLqYvFp+0T0Sz/+93HNCvc7FMz7vKFK+0nAZPoLIQj5M7MU9UvSrvcojFb6kyEm9jvyfPbmg8L2I7pE91xLOPXIIaz2S3ao+bTsTO1CKDT6Ptzm+Xfx0Pq1HST7jQF++awZtvYT9l70HpiG+elYcPg6nFL6vCjc+TuQkviuCOT7gPW46RWyePsoiJj2YQzo+M0o8PQbTn77VNrY9P0B0PuWXej3tRwA8ML11PhBKHr68MrC+u/CGvWZhzbtUkoO9BAkJvul+JTyH7ai9VFmGPMrRsz6zC8K961OFPewT873z2JM+/OF3vDvmoD33L1a+Fx4avuCyBL0qJL89gkldPlXZnLx7K9m6BRGevtJLtDuYHa0+i4E0vosmtz57meq9jS05vvhcTb0hj1Q+8n/kPQRMQD0W+5e+G3HFPUrmLb4bqau9OoJRvTfEf77lxrA9ZeeFPipEez3qLIc+j/qrPhEa075Olpw+rFFhPpMdL76O5KO9l6nwvfwjO74uMBq6azvcvdPM6Tzdcuw9Cpsfvu3MQb50h2q+mUq3PYcP1j0Fs+U9huX9vcSLUr6Lqdq9nLkyvhIfWT51ePc9Q/nwvd3JVLyCrY2+VIMRPme5Yr658jy+rEhWvumwjj6IOgQ9vPT+vSykAb5r24K9cJhPvvCTOL6NO1++E8vHvVEVoz58LUC+3H3yvTU41L1nFAk+YYsJPiaXK771tyM+H1C4PhGEgz4uiXk8QtYPvt5bdb4/BDW+02AsPjnRozwMb+u+TZ+qPtO40j3dKBC+/9RoPWb4rj12PKm+ZNuYvekdnD5RZ0U+2xf1vbfFDb44p2o8clUAPMopYL7+f5S8N2AdPpGM+7yAfLm9RNM5PqmkFj2Wv8I9hZ7aPc0WKbyH5W++cjYxPs8r3L0UYaG+H9KmPZdYoD3Hp6M9tvC5Pd1mKT7P6Qu+xnL4PdivDD2x5X69uT0XvmlZuL2kY8y9dMMMPO2SSz17dci9ey+NPTOkwr1sqm0+/GkKPBr2YDxZPfq9onGHPlh/OL59dxs+iVo5viPHzr1IaWY+zw3QPUeRZj4EPiM9jo8gPoF8Zzyl+Nq+XONXPMh4Xz4W75C+IYEBvhy5jr701Y68KwujPYD3gz1C8as9TL6bPU/TwjxhqAu9z3qkPmBJhD0+/AC/FwsBPhR6vbyqjo6+BOdgvTaBkD7fn4U91BrAuXyApz6cOnQ+PhdnvfeH4rphMwa+swNmvpYeCr283zs+Uhw3vu+Arz0p5H486I/vPWDbeL1f4IA9o4XTvLjrkD5E30s93O/VPQPVUzxI7Gc+zbgPPvjl1D1jG4Q9hdDTO5nhyTz6zEs7L0aGvYiu1j1D3lm+cWdNvnyVir7w3i4+Kxs1PdIREz6NDiK+VfuEPr9ZVL54QY+9i8O8vaROTr6k5Lw9EL3FPg7T5T0AUCg+B40QvgoPXr2TyVE9N9MbPlv8+j0aRiY+0wQxvThkTr4ku5c93f2yvcNyvr1L1be9MxaoPdpJND6anQE+3BU7vd4HVT42CKs9UExbPhb55D1Lwte9Vvifvf68YL0FIRO+Rs1IPWOVfT2BoGy+IHqZPX7RjL6J6Cs+nJeFvTbsBr4tbj0+ahn5PLd9rz7IVjS76tpxvbvGGj6ML/I9tBtWvh7ohj3D1cE9vehRvq+1zb5zh+u9z5wgPlvvST5H7wW+uTgNPolWJj02FTa+dveLPaZadb4kyBS+9byvvYlrYr7iQKg8tFFRvu7nZD4iGiG+w7DovZc/ID6HXVc+leRFPknuvz1Z0YK+TdcGPgIQ/b10UmM9/P05PjwKPr7NDzq+e6q2PgXCoz6ZqBG+IlXtvUHliD4PMB++/JJ8vTfvXD6jG+s90DaovlDUlD1m+yM96XI1vp1xY75nPlg+gC2SvWZHOj6rRbo+XM7ovcp4gry4cpa9CB+YvWF5kr0fPDm+I26DvR/ecz4A3di9MdE/vaSFJzzgZJe9zSB4PfIryr0yPL+7D+eOvYkYvb05Bou+KVgHPh6FVz7VuYK+WV29PtvWKD5jsAy9BfPGvkwGQb7jE4q+BEKUvTKJRr4gb0k9NCO0PuTNvT3bdna+3oGPPuN4Db57zR+9TmKgvsNYIT4xMQy+UFSGvJ0psL2pwam9ZFAvvuFMur29wIM9X2O1vsATD7x+vym+ph2KPJHOZj7BD4S9vb9Lvv31NL3eDsM9m+IUPqKEcz5GnoY9ogTVvrqZcz4y/r88YBk7PhCi2j1oyla9C/1ivjFbLD4o9zg9HumzvjeVRD4HHsE91Y+hvIY0Gb6jD6094RwMvtYpDT7aR4c+c2VCvkiZjb4rCBO9TAFGvlH/oT0wjXc+/WA5PnDaJj5VTEK+sytiPm9NpT4dsFm+BkqGPUMxvzypH4s+OElWPuMCwD0Ahya+vRU4vTdQeT1B2Sg+s4UBPtdI7D0Hzae8c8t6vrh1qT2XEj4+GI3GvV/CTr50th6+kc1IPgVaIj7J0Cq9IutiPkmp9T2Twse+lPRCvqKZCT4NguC9I8ahvlJwaz5Q6lG+CoTfPQxev713EJ4+r2WavhUa1TwAMGO9yEi3vJ5iPLswBYk9IZtuvA5oeb76xgK9tx24vKKZj75TsWU9nfxiPpBqsz6hNTS8MJzbPaY1QT7ZZqM+jM62vRKjTTzB9ie+R4unvu6/nj3MTr49qFtAPYIfTr2RlNs9ZHbIu1ZPGr4C4ee9YC+Hvr6D0b3mzP+8lO9APtprDz78q1U+0eonvllVMb05OTW8FFf7PLmHO74Nboq+MOsGPpYqWj4WF4M9xiDhPEPQvL225os+ndAzPrIRwj5+jMo9YKI8Pgo5L70IiAI+GCDFPTnTDD5HF3O++R4Vvmz4+zwLBSi+jBU3PudADb5C2GA+jtzXO3n+tj08sVM7vqM8vpJ6WD561yW+IMUCPn4HSb7kmUg+UQtCPNbh070iuDO9CFntPNQ+XT2Y3Y++TftivXGmsL0bEaY+Y3KuPKYCfD5fkpA95jkdPnpMQ75uBrw9dNPwPQLFE77zpVG+/qYvvb0Gmz3Txp69tvZFvrS0ED3uHtQ+CpbYvPxQ9L1f1kW+5xBlvqmINb4QV2A+okO9vvBpgr4NOrw+d4LNPMkwKb4gLCE+Pm/VPiOhYD2+2949GuBMvqbejj0GXYA99i66Pa4Mgz7LbZu9IRNyPhwWB74kNLe95NZPvjDRJr20iVA+GIkwvfeOO74wmYe+ZV55PV+N173uBAY9pTwVPvl3ur76KxA+8ZcePqKWhL69zB++OMSyvTYbkT4x5VM9ifRfvs0C3776Sxa+ZVnRveJr772FDM8+Dc7dPg3TPLx2rn8+RKAsvj7cW7nA7wS9WwhvvZWaLT6mThe+WPggPtpYhL7K7gm+Gt8SPXleFT5W2wu+6odevVOTz74DAs28h5QSvgM2G719nFo+5LoDPoV9kr0mKh295qVqPZ7Gbrywbme8mP1xvvCSjr5JVW49HhU7PfioM7ymkAk9eO2gvgbdx759C1A+rcUUPhrc171FTrE+DfCPvubQhT5y8xQ+obWpPmJ2TLsI6Cg8LOaqPqn/Uz7v64c+W/ILvkksVr6PmNs9D00ovofEjD67pgc+6oZmPmN+HD4aNl69XaBKvniNNjwbHCa9KuMWvRU7dT4dgXC+tgdAPKTy2D2Alrc+BkE4vnfB7Lwrc5y8wic/vkh8sL0eqac9kxGTPYohUj6UhM69vCcBPY3LsL2jM9o6vDJqvsyW4j0tyAU9GA5KvsnMMr2WXpi9vlA/PrdUdL0VIno9nwycvtRMYb5Y7QG9KmzCPTeoUT3WkEY+lzpZvn54N74e8za9dwB/Pt8TcD5pG828iBmPvMC4Dz7AQUO+QMRRvd03Gj7TEYu+kiMZPcQMCL3w41u9i64IPhHhqr5HhzG+eSuevj5Nob6oLx476rczPPMYej4fXxC+rFA3vkXEuD0Hp8k9cS6SvqaYLb4hPpW+XRFBvXwF5708Cu47SJZcvf7WGT7Qzgi98b6BPcqPij4pQMw965qSPsC3nz6mEje83b/xvbKYML6Vt6I+Clu+PsI6Fz3wvBK+UUpmvjulf76J0oM+yyWNPCjHIj5I5MA+yTs2Pc/YQr0pEnC+R+jKPD3zgz4Y/o8+lvI4vDDd9D1iRBw+R8pCPJPxpbzsYq48KK9DPg+JMTxJAqC+CLXaO7vv/D32l7y94uQAPwhmCz543Nq9sCehvc3RO74s9Wy+ApeDPg+p2Lzc/Gs+kZ+2vZJlxD6+dQW+J0KKPpydPT7pImY+aF0KvqR8Er5IFjc+4WWHvjikwz0T23Y+H2uXPqUrBr46xPu9ICoDPuCUDr72iNc92HZuPQq1rru+p68+etj1vcvWij5CR06+Us8vvr6+LjnWuoy9U7rLveZANb5XTe69l1Covdd3g76t1tQ9G+pcvcfgEL5POAm+xS2zPT8XyT3WvW8+PKwlvlJ9Jj7OGwy+q4a3vrvf2L6UvaY9dhpQPv5EWTzMeSC+PTNcPea+uT7B3uE9l0WCPfJRfDwK9fw9xlMLPJvZ+L0u78U9eYNnPjYfaL4l5xs9PtIXPloIjz7U5YG6+O90vXi4ZTx76lk+CyrFvcLFGT7vRAc+Ts0RvrxoEr3f1p09IrHkPd+BgD2S7Se++ke9PCzQXD2XVjw+yFiAPffloT4/sCQ+88pJvkjsNL7fEXk9OSCivfdxM74bh+S9sj8KPbfXjj2Zo9W7dhyIvnCfy74kd5s+SSyeu/NQYD42fYk8aqVsvkDWZ76liS+78A1Ovjxrsj4VGKg9X+MfPXNDRr5OGWu+sNWyvnWUoz3oSII99CkGvmXu8TyqRLO96370PZm+wjsUZzm+AZL+u5NRur1bbhY+/dlsPTWVDj5OjKq9xRkVvgvwh736WB88MLYfvol9HT6ntGK9cOPIvrypgD1bJsM9RyRwvfftPj7RW7w+y5hnPkIFCj6vlke9VlIovUSejj1cAsO+bEWxvvk9Az4trr49eOq0vY9tJ75GD8u9S4wmvW/OHb6fdbS+r2mTvWJkh7xNO1s+Zmt7PpUSML7vxC6+vP0qvuBafr1vXSU9GgdkvpsMA71iHQU+jZJ5vix15j0TL2G90u68vWCnWbwJHk2+mu/aPexkhz5ZlFC+HzCSPo3VrL2BgXe94SavvpTnCj3R2Lk9k3zjPipCSb1l2C4+R8oSvrKxOT2RXTA+zLuPPTqcub3pGgM9LW6ZvezpoT6GrC87srl7vibE5D1JUyQ5oEAgPhUHSb26bic9UGV5u0IAQr5Bq4m+HiwKPif2SD4NhtS+qWZHvqCOwLyAd2Y+8+8pPiQ/Oz5nP5y9lEOovmqIgr7Ufq+9Oj6LPh93Zj6Rb4++saswPustGr4EEbE9lxF0vaDCQ7623J08CCpaPmYTLb7W3bo9QBSYPKP8Bz6qUwC+HI5svRJt370joRs+cfriPYiLJb6ZkI++UkhmvoFikj4lt6s+VGa0vd4eoT4e4Fw+X5qtvGfz7D1eBJa+YvqivUNMNb7oTQm+LoQ6vo9DVr7W/rU+LFo5PdY6wL7kTxS+DDsuPiv0O76iHDm+iR0bPnsrzT1/bqm9Uj1pvvomNjoGQyY+gIpCvfS5l749HnA916Trvr+tP72F3As99Rxwvas2TD53AYO9dvu4vfkPMb3zQbq8LIsiPi15h76aB1E+0JikPjTs5z3/KqG9P4K3O4843b5Xe64+Sh+evdN5lr7jvZO9+vGwvcA3LL5Tfx0+aCVoPgd4Hj+bKn4+VKVDvlFujLwPepg+7R0vvpd6BT7QrMU+hb8cvCHVPT5HZy6+iZXYvW5Zxj4s9Pe8nsJ0PC7fFT4/2SA+CbbivlASjb4o1GW+kCWFvhj8DL7vJT8+UawrvmqIyb29Kju+PpdgvXRqE76zu1Y+mgmnPY1mEL6b+bS9hl95vrXYgb49IB8+GlFtPgDxtT3WsZY+gkP0PJVQq70Fyzs+WExVvRDvaz5BeZI+HfAHvmgpPb42f7S7VAKvvYaJSjwOW3E9AY+3PXywXj5Zc0Y9+VlgPFS7BD0uuyM9W2bYPQeTmj5x9EQ+B200PryIEz5e0XS99Po5vYTRyT4BB1e9h4pIPbwiTD4GqRm++TBxPmQZ8z1ucWi9fIjHPcl5nD5tmRs+EetevW1PI74E/eQ+t/XBvV6/ND7+sxK+ZkyVvgHW4D3PFgE+mU16vfebmz0ah1o+4Z5PPVTGdz4KRg4+IkBJvkmT3b2OBAe+OdpCPg1MJj5L0pQ+FVWrvZpfozxybBs+40WLvV3+kL3DwEG++3BsvoPwxD3d77K9iLgFvk/8P77opgI8pyeCvecxUL0EPIW+vxFDPsdfpb515S+98jPsPI47b7yUTNQ8M1nevuL3UTw1RCi+UTORvnGopz6VyIu9I0KsvYMRrj5ViKs9CA5OvtJPVj7i3bA827yJvUJY0r0IRXA+/2x+veaoZL4GVmU8ryu9Plx/GjtW2iq+lb63PZHw7zwg+Fs+qhrTPqy7V75sRLu9dtjIPPgnB77wGGS9cxcbvslLJT1rSMG9WxJ5vZSNhr1U2Me+jxtGPZtKdj6l4qi8wamDPEGbdT6KbXI+qCAAPhU3s744aMi9heXHPr6riz7xLAU+Ozc6Psf1DL9wAw++gkiOvpmzXz550lO+YrSEPCcUKz55G6q9yuxfvpZOHT6eadk+0eAMPW35Q76ayBM+DkY6PjpNBj77g12+AH8yvaSWl74LRx2+L1uBPnB4Kbu8eGu+iiSXPcccQD2Vxl4+zGFrPtNeFD7Hm4091DmevUqIwL1lG2s9lCS/PnylST43QiM+I2civp4qbz2zc1E+GTNGPvRZgT5lQZk+wbw0vcIDgb2Spgk+xF9cvGpcG72TVoQ+ZUMgPcMoir0WVBC904FNPlD9gr75vsS+WQoXPbDAdD7yBaU+sJK9Pg+Ijz7L3JG9xt0ZPY2lSz7Zkmg8GJSdvgYPiT3moYo9uQspPvl4KL6CECK+/fIdPKW0Tr6Qzgk+vk6PvcyLmD2dX22+o8LKvJbYeT73ew6+IHhJvfGQNz5+UNS98gAAvrm46D0UFIE+IXfdvRKwVL0TMUc+dMc4vmk+Nb506Rm9yHzAPWenjj6Y3jM+z9DAPTArs7x0+6s9RXJLPjvbAr4qzE8+mmFlvm/wHj4xQNU+kw48vS4T3byTg8w9HGPZPeNVHD7oaw8+nU2CPpU8Xb2N0um9og+Lvt5eqT1vv4k9Mr2hPOsrEr5WesC8vvfOvf21FL5XNZk9F6Yhvt0Bur0GdKO+N5d/Pi96Wj6176e+awevukoEHr64jSC+7FPrvQRisD4+2y49Xi/LPXaL4jtKbmk+40NbvXJEYr6HQ2e+mZJ9PbKS/L2Ci8G9uEb4PToXh74VBae8D0PIPd2ytj2BW4E+BqZPPqhgLb29BHG+ao3vPb6Qeb6zANc8rIcNPr+LSD4+uKi96+sxPux2+j3ivVq9DiJGvjX3VL7oTrS9OU+cPoZL4L158sk9uEgVvht6JrxSLtm+8JeOvUTF3j2x8Zk+keeCviS7Mb6Zjle+8C8xPr4vJj67QMK86VQdPtgL97vMn149WKJqPXm4RzxuFoQ+5zozPmZPbD7A7Bg+YrYNviIvwj2BB7Y7jHLDvZlAZT4w+Yw9oFRrvg4ne76QMU4+2Kt0vas2jD7+q1Q+3a/zPQ05gL6+C6+9eLJKPtn0Ur4L8DK+ysPxPY+hVT0Poqa+SOTKvNh/Bb6qUtC9318FPpUAs765XRM+pU7Uvc1V2T5lFTE+CcCGvmiaF77x6IK99PGbPbv7Qr4tLLU9fTXbvSJjvj6/Hfq99vF8PXr8kT1tyda9G8k3Pe52+r1c1Gg9rBn6Pcc5Rz5cIIs+KzNevSm6Zb0y16O+6h05PZ8SgL3aeOI8s13KvpjWFbzE9u68a2y7vMtrab3Zzye+x66GPnawxj1NRRk92N3OPUffdr6ZIIs+79qCvmudI76ukYk+l1bGPHgChz7TCEe+dZzQPUu2Bz0E5Na9rqGRPvUTtr2n1Hs9vTfDPKtssD4zzRY+Nx45PkISpT0ePb+9o42LO6EQir6FIfK9WqacPkq5SL0JPjw+v7D7vTnZb75c/9C+DIaevok5Xr6wpRY++hZUvkpNML7DLKg+JmARPi7yC70/fca9E/S9vVnpET6WWT2+FQrpPVJyT74mnZS+GstlPmEn3zwZKO+9269MPl82Rj6GJre9ChMcPk4K8bwQ65I9xzj3vY/0ZT5hXL695VmkvZquZD4WTjQ+kBlwvkPrjT0Gwf498MElvqehhj1NGg6+Hdw/Pvjn9byv0ji9SGcSPSN1Fz7Q38Q+FJUlPZabJzwLJnE+33sYPphz7T3tRc892CRmvfEf8D23MbY9F96qvtDRMT4PJiO+SWM+vdF5VL0Dy0G9srwovj0bFLyXVUM+e2svvoWzG759oj4+Q82/PjEBhD6JdyO+rgVAPdoiV77AK/y9Dc+lvpApgz65p7Q8k6ptPq/paz6ONQs+OzMSvlqpV77lp4c+hM52vj7xJz2GFZ69SI+NPScMnT6OYI++7yi7PtlAZr5wYNQ9ECcpvWyJl76JzBa+eceIvgLlgb7MPSo+24lkvGCXt71wpm4+rPvaPT+nxz2GVeU9kgBvvJfy2zub8C0+Lb0yPfH+OD7LKQe+XD2hPQnQZT3/TrE9qBicvkp3UT5pVnK9bLgqvl1wIL4LbzC9+slFPl85ILwqGCw+oS0EvCl3m71F9nS+Uf5/vcDz1z2/E0M++yKIvEI6R751p4i+f4OXPoPN0735/l2+Vjmcvexezj3FLKQ9p64tPROd3bvy7pc+LL+/OwiQj723Ty+++uTIPQFger40ILA+ghqVvUXbgb5hV5A+bNIOPdvKIL6yqzu+UKkuvtnGtj2cdVY+cFALvmszMz5y2Wi+lFrMPQ6dUr64YNW+KrSSvVCtDb7okXs9jwAsvhsOxj0cksC6wBkXPcJdob35aXg+WK61PUsIyD0jon0+CkGzPZVxcT4S3qQ9PWAePmh/oj573Ny959UAvjLGw729GOm90smWviQRpT2EDpM+1zFKPfg3HD6cd6o+9Q9/vjJcHr6WIbe9hvAevg+RCL5YKQ4+hiSDvUjhq70YBus95ldKPt0dY70Qg+K941w8vVCJvT5tK4G+eYmPvRPPxr65Q7i93tBYPSNB5T1gdY29mLjdvcXS/z3G5we+32uOPq4j1z2Q8Uq+CZYgPcTl7L0zY0y9n1C7vcYdYj5nbpQ+7enUPYwWL75lfYo9MUD3vlcYTj6KjVk+urddvPFczDyVKEw9+7umPWKgQT7kNE0+l999vk1lQj3k0mo+WtgBvlKLAT6WFA0+1plgPZjZnDyUBJm+uGGHPf5G8T32w5u+Srl6vlsaF75zBM49o2iMPZ4xv70JYm6+pleGvuUa0T3XI4++hLOtPtKiUj5qWZg+VPAJPQuGbr3I+jI+kn8nvuadZL7Dl0++cDaBPmTK5L1K6Iu+2bSHvkSp7zxIscG+I2MPvku6ZL60kKQ92MxGPgNiXr0+bi6+8GhovtlqWj7cZrE+WPOEvWh9QD4YdFi+9LxcPRjPwz3QuAa8/3JBvsPKAr7Rg4E+N3NKvvicc757P9Q9MAgdPdK0I762Rz0+O76LPtpYZb3wl6u9ZWqTPNGUJz5893K+IFdbu649lT197VW+ZGd9vdebSr46d2C+WOp3vpgSSj6qo/k9yCdJPu/KFb6Xixo+dBucvgjYij5bAUM+kgNrPmqhpj5Vwx++O5s6PNgTMD6z//y7o6uWPnk1dL3Hxli+Z2LxvZ81zb12ZD8+tqoxPgRTZ73SYLm+cIINvtJqQz45Y4++IIyWvqgYSD2o8F2+5kSnPUVXBL6smZI+S7xvvtkEVr7okA0+t9zUvYaaY7zSP5u9aTbovSfsXLzCc1a9DDCBvAR7pj4VKaw+dfKPvr34Iz4WSHI+upYYvxrXEz6PUri9iLftPYBCo72KhuG9WURvPkroaz1TCw++Wdo9vf1Eyz1kYze+9TarPjDUTDz/tYO7ep1pvq29ub17HQu/2/zzPZzPeL590Ae+hwMhPuOSzTx5fuu9qvWSPjB5C71WIQE+Gpi0PmOfGT06wYy+HruYPte7jr4ICFW++oXbvK1/Vb7r8I89rmlgvFchyr0UjTa+cWAEvtbVXr2OtRK+3BoMPmUVEj6W1bA+55C8Pamom7xv3hy+9oOYPc3rl73Lv/09/Lr1PGdejT5uWGC90eEpvpXqNL3nGUg++Z9lvAUqb74rjxa9PPwQvY+DzT2jQ3S9AKUDvpODwr6jl+W9359+PeGtwL0LipK++nENvpFY7bywRks+ug0ZPjUwvr1EzIU+TzervBNLHz6GVjG+/44hPvvJkz6EfMy831+GPqxbHb6krA0+xljtvU0+2734vUI9KnCUPuZCxT7/sxm+ndO0Pbnce76lELW9SgApvsIESL04jQG+unV4vltQgL7IMIi8rq4Gvnokbz1MTCK94OU0u5zMlL5vqY++FimZvILYPT0OB6W9xDmFPbhsGD7xKwQ+7phrvZanAj4cP6w8VmCqvrH6Gz4ZwSU+4++APg6daTt+BsW9FuWiPZxPbr5ahXA+RUVAOxRSXr2E/se9K9E7vtkG2DyXY6U8iLosvigJhz26B+g9owpnPkywGT18+LE+l8SWPr0ZHr4PJT4+1b+4vUv0aLyvAzo+PjAFPvinlL34X5K9k5umvQ8eT7wm4C4+bzQhvWQugj0AzrC9XtQEPlB+tr46LHc+s7ouvUteC75bbAQ+mErSPDZd5bvpAbU+pmL6vf1NPr7Ui7q8EnP8PSFMs71Rtke+BQJCvvydYT0gWwU+uKMkPq7mmL1GwKo+GoitvM0LGzteqry9juUIPi14hL5G3oA+M/96vlG2GT6H/RM+AkF1PZr9/L0Fw749bQbfvVfHiL2bnxK+0lYkPbKis73FFXO+7OwAPvZdgL3JZh++5VdFPt4K6L3rSLA9BfyTPQde8z3dILO9NBpHvpsmkj5ad+g9LTLlPbCraj6e5za+Z28APgYAa74mQ/69HHvoPQ6yYD5NSR8+S7rGvYCPMT0j6oi9Nj0BPB5Iyj3Bx7A9BbYAvgQW3DxB8Im+ShDePF/VIr5iPAe+0KGRPgGD970JBQi+LZpPvWtWozvfd+28CA+MPf9Dwb0Fggy9EfDvPYY/J7wk1wi9jueWPXEgyTue3H8+l2Bpva7VpT0xbII9BhEzvtyoJD5P1oO+YEb+vS99KT7DKaw987VcvOpHVz1OFFo+oCKXvfKrRz5IuXU9OEdqPPg49L0H/lo9M61svu0iXr61Dak+FhhVvdn1fj6UkRW9CGU0vljJWz6OpIU+64N8voiC870jmJI8dGxKPuxjJ73f5n0+rI+jvsFltbxcivO8R5uUvlu4hr1lp