{"note": "base64 little-endian float32; LSTM gate row order is i,f,g,o", "shapes": {"embedding.weight": [118, 48], "lstm.weight_ih_l0": [512, 48], "lstm.weight_hh_l0": [512, 128], "lstm.bias_ih_l0": [512], "lstm.bias_hh_l0": [512], "lstm.weight_ih_l1": [512, 128], "lstm.weight_hh_l1": [512, 128], "lstm.bias_ih_l1": [512], "lstm.bias_hh_l1": [512], "fc.weight": [118, 128], "fc.bias": [118]}, "tensors": {"embedding.weight": "AAAAAAAAAAAAAAAAAAAAAAAAAAAAAAAAAAAAAAAAAAAAAAAAAAAAAAAAAAAAAAAAAAAAAAAAAAAAAAAAAAAAAAAAAAAAAAAAAAAAAAAAAAAAAAAAAAAAAAAAAAAAAAAAAAAAAAAAAAAAAAAAAAAAAAAAAAAAAAAAAAAAAAAAAAAAAAAAAAAAAAAAAAAAAAAAAAAAAAAAAAAAAAAAAAAAAAAAAAAAAAAAAAAAAAAAAAAAAAAAAAAAAAAAAAAAAAAAKxePP/jEEj8MnJy/30XWP+/YmL4vQWI/Mu4HPy3cFEBgq7A+ojLIP1+Ymr5rR2e/Zqxsv5aB2j3BP7I+5ekPv3mGub+XG9S+kiV0vQPLdb53/xy/PmiHPrAEKD97Zrw+RLEEPxZtG7/1KZq/Q4LDP1a8oz7O97678/g+vsHNrz3rODdAcZ+1v0G1GL+ttso+DjW2v5orer6u8U+/SH+yvammtD0HQ0s+OqeJP+Ykcz/JelC/GPFWvD4FGL8vEhE/q1HqPdQNeL91UNE+S4lUv/y6xj914nE/KspeP4uCXT8prrE9H4Ezv2Y6Oz+DW66+1/WjP6sKbL84D64/VsPCvp0b8T/3iAHAyxArvr/ar79+LTS//53UPmXUJT9wC1g+jK0Jv0Ivqr5eqOS/TfAivoZdZL/xK4s/jIMLP9SHR74LtMM/LiLUv9wWqD0ylZY/Y5KzPSbaar9tdnw/BwjgPlFfQD11YQy9hxncvHYmwb5BUXw+sJwSP7CyDj/7NLg+A8EvP2i/LsBwoT0/yyKbP6/5fL6u52g/6gXVPVmipr+qho48gXHVv/2/cz9nWlI/9ewqQJ6qjL9VGgDAEr5av0232D2mhZK+Ou2IP2Eqsb9m0RM/ZKvFvKpRSLzwUoy+pIZ2v7+S6L76SIU/CY8/P1L5or5i8nO/1k/FvyOu5L+zCZY/F13zPyRnw74YnZC/AyLDPiCDhj/VuDk/5d3Dv7xRxT+MFvU8UigMPhf5nb8DM4i9yQuEviiQU768lRjAPk6uP90nPD504aS+Mkxbv9bojz0xLKA+pVGnv+2smD5FiQk++222viCwqT8VPk8/t729vs7Lt7/jVvk/oowNwPcM077KsglAt+AFQASEQL/M0Hs/KSW/vGOUTL4iqyG/NPx3PoBUpD9Dk7w/xQsEvxS4KD8JsCc/6QoYvlT16j4nAlC/t0uTP5Q5xz6YRwy/KbMbP3aw6z9atz/A9F8vP10lB0AAO6m+wL2HP3zaUr+esW8+9AcWP/Qme76kniY/C1bqP7qQFD+m3fC+qW4MvumZlL9tUYi9LMjyvnHqmr6PBtE+xcKHuzI0r7+qIwS/aFQbvzAOH8Czuy+/PYOHv+f6gz8vEMu+39vLvzt8Fb/aEyE+j6kjPyA0yj1biLy/wHfivwjp7j/0Sqg/f87RvxBlmL8zCS0+uxDSv/+YCsA8iJM/HnK/vP/M0j1BK4Y+z1fsPvV9ab2OkG++xuiTPz8PJT99uDA+y/u6vip1v78ie22+5E+nPqDM7L/IkQ4/Zc7IvsE87T6DX+Y++kyDPwU01T+JAbY8R5sVPweTJ78MOh0/YdM0P1MhRb/DKLu/dqZ+v2srOj9mgUC/haN8P90exL4+dCg/RJaTPr9yNz/qI38/ToVPPUSd3D8e0LE9N26IP3cRHD86O5W/k818v1XnWT/a0kA/akZtvk3ycL7YV6C/bBr0vhb5JL6LvhQ/e81AP2oumr/jdAlACNSwP8R48L+Zyhc+B4jSP9WA6D/Mt8Y9cvzlPsafbL8oTHi/6r8dPyGKcT9zoGo/A4vNPiA54r+S7AHACfcXv19iT794QfY+UPImPz7aOr/C384/A8HovghYjb5fL/++5TRnPmOoLz8Mkbe/Tj4MwAnDtT9WfaY/T7SKvxbJ+T+u9bm+bQHrv6SDND9pnHs9eB6Jv3Nr7T52DWC/sgXQvgwwmD+XN76+3cRUP9LuW7+AMqk/dIM/vz3i4LpMXV6/rTHmv4esfD+KKtG/VP7OP2VxTT+TNBy/l28DwLGKJ74ChM0+eTXLvueC+T+vIn4/P4IJPz34MD41C2M/VgWUvxILOcD1lO0+J/chv4h4sD5YCPu+M5jiPI1yCj/F0bY/g5E8v8ChkT4AKuE/VF99PnJ5G7+MmbM+4tFiP0ZYFj/C+zu/1P33PuLBZ7/Yl8U+QCsiQC4sdT/SH70+y9cXPqXPcT3B+VM/avWPP74RlL8I3F2+9Egfv7kTRj/QlJy+3aWjP4iqrT6kH16/GwrRv2HkEb//AHq/lP4YvyRhI0AZvUu/N1nHP9TcXr5lbNM/jLDrPw+AGkA7pqa/LrR1v6StBj6yqQhAvZN5PWZiCr/Sj7y+7if7v2L5OL+I9Zw8tFNDv1rC6j8KIcS+sDZ8v/18Nz84TEm/VLpdP4UXkT9FlcQ9bNJRvzFeqD+lXkY+xPD+P9f5hz9lD9g9ilvPPVaLGsD05gk+LxwDP/8Fej8CWKe+HSVAP/KRIz8mt7e+BPqfPslN4T2ta5w/tT0fvWpToD8UXtk+iUZSv7M9Zb999f6+tl1zO/CjhTysNSi/s4BBvzF/ob+uZ5O/3n/Gv92Bjz7hfe09vqXSvWsji75NzkK/TXtkv0tTg7/M8gU/mQcvv6M9yT8h718/oEXAvYAGnT5xhI4/mgM5vzZjPT8tRr4/qM5JPkgwHUC9h9i/IiIdPwn1vb8BJSK/x0I5wA73GT/VjCs+WM3vv19JLr0y0N+/OsdAPGXoCz9uxjG/JW3+P1t3uzwQUxw/m+E7P/A3XT6iJN6+SI4DP7/lLz+ljRI/OIFRv1LoED+XvTK/gv0UwOpLuz5JBVC/3l9UPjP5Vj9WcUg/wy+sPxKJ5T/Eggk+LKffPTxvFz+pYSK/VzOgPgvBZL/UKfa9hOp0PoejVz+NCca9FYcfvmwH0r9ZlwU/CvqyPaS3TT4TABM+VyabP4Uqfz9wOhXAf3Lwv12KNb1U+ZS/Cwbnvrk0p78kLow/HP29v/9HIL3y6Xa/16b/PoOGlT+GqsU/WrCAPz9kAT+W/NW+aXTTvTzomD/m076+LjHMP9zL1D9EKJK/JD7rvsUwj76/E/i/DYEiQIsja78Btq6/QMkzviknEz4V7KQ/UOTvvSPHeb9XqYE/NIkjPnQd8zt7Ygc/ZQmfvxXkSr+W2RPAf6UsvyFWxz5OBui9QR5aP2KJ3j+jwPG+crHev1GJpD8jUei+BeK7v2YVib+tHo4/LqxoPn71Cj+q2pU+SlPlvjGauL/hUiq8YcIxviYv0b8kJsa/Lm/EvWHFEL/FQmk+f32dv70Ehj4GSUA+nAKyP6mmDMCTwdK/CZe2vfAOLj5Ge3C/HMeuP2wSJz8j7aI+ozPfPmQKAL9RnRI/aOd/vYLshj9Agn4+W2LAP2RGCD8rf6a+QQ6evyJH8z8PypW/GSZaPwtHLMA6LPw/HlVPvx2yW74i6rS9KfzlP4BzA79jW0s+w1zMvmejjT/6e78/KmoWwGbmFkB2bGM/F9uvv7oZvL+u2C8+9vxmPxcLi79fkEu/pqnTvgoHjz8PN8k+JdAWPbHIaT9MvkO//8emv+M9KT/A2dQ/TTcCwDolyb5FRLc+O5JVwCr/JD57u5I/7rPWPjk4/L8GKcK/d9sXv4niOr/iJLo/JZ5cv9GPcL/4E8u8sSUKPQ6KlD/f87u+SXUIv6+PFkBpM4i/jAw1v+qUhb+Mjd6/LhrNP2wrI7715ba+cXIVvsqYk79CGak9ETvgv1nilb4C5g/AH/u+vksdNL+VXps/qI8Gvek5pj/Wz48/iroyP9zasL8BRHm/TZFtv/4oB0CKUrW/por9P783ub73k98//DGgv4jn9L93EXu/hzldPnJ4ib97Joo/Qbm0v5OT7b7OksU+g8wav9+j4T67GHY98f7BvaZsOz+ph7I/lEpKv3pxx74lQkE+Dkrrv63UuL89kLU/X42uvz5UBMBQuyy9x2xkPvY4cj8mlAU+mfecvxLi1j5r1n09UYxiP472JD5dhLc9raQSwDpp+T5yX7M/t0UEP1W2rT6CK3Y+o2aaP9fSiz9G6F0/hqqlP/mecr6Q4ty/DOAmv5pFj74BNAbABxzfvkVD1j4/NTK+x5aKPxcWQb9RUmu+npuBvxa4lr+Zxh6+UpcGvzcMiL+izNw/s4ORP265rL/GM4q++l61v5ZN4D3UMtO///VoP12XxL7cMNk+7sW2v7F9fr863pQ/PJhDQCreqL+LoII/QD0+QIIl8r4ZRma/rqSJP4Ba2T+a2F0/BvFfPAYBZj7bWfu/WImNPtzWsb6nlw29NQGBP60GFr+vMqA/lb22vc4BQ73aDS2+U1eVP4FOvb+AaBM/6uLDPtL44j9Jvhq/FBjQPjy+9j4JSF4/kwanv8XgEz8lsBe/nh6Dv4Z/3T9xNYo/0OOXvuxt5r7NDTs/Zb7Gvlqwd78vCJk/dk+ev4P8pLzL8qy/KRA6vxjvmD4tLPc+RIhPP/gFNb+KBus/q1ENwC+ah7/rS509l+mVv9iboTxVK7I/5zbKPaHDwz6qDpS/0Y0MvoCit79NWps+AEnvPukjnL89Ix9A6jI7PiVx5zxaOaq/RcaAPyuWOb7X3eu/04CCv2CnCcBfS7+/9ymPvhvtDb+Ld4E/wgbNvzuFjj9yF6C/mBtxP/K71L7yAzY/lm30v3wgkj7jBKy+2MNZPxlQU77Jjke/4rMDwGBN0T+7ghA+0/PFP0Z7Bz7paCBAfujMvvIXOb6hAZu+CL/LP23Ml7/zt6C/Ny5Bvox42748eQs+j+4vv+eRDEBfPwy/XpizPrKdFsCnJg++pCbXP/mPgj+CyLu+vedeP2XUGL6uiYg/TxoFPyedhj/q5hg/HodMv7y6c76zsLi/2GinP9F4Nb/uqjm/DH4nwBiemz4ZHXy/Gqkev5i7QT/VJvq/g34iPkHVAj+yNZc+2O/cvgUmpb0+D8Q/qQ9bv/e31b6WZkC+5Dg3v8SS2D/oyZk+Nn5Evv+ai71Fski/bbCxP6w+Db90qlA/nZmmvwWGD0ABW5I9W9nePw2R2r+XiAe/3+h+P0lUN0DknKS+gy22Pqz7Kj8VJlg/hwBxP1uBAr/nAXc/GnlWv5Krc7s95UM+55mQP7QxMz9OZV+/aLvWPgKVSL8kZNi+moTrv1n/rr8HKgC/KJNNP7V/1L4ZAKY9uy0pwGWN0T7etrc/54vFPnhA0b9vCYS/Pa/vPwCh1b5M4Ry+urVRP64uBT/o9Qq/addNv99U/T8841I/NrDavgSH/T98f8y+Py5LvoVOS77Qu2E/+cIUPzy9Lb8mpEU+OobbPrHrSD/PEIK/5X/uPfZep7+nUDi+sTsmvw1vzr2PNTs/7U3/PpwEyb4/YQE/mlHjv7EFVj/yU7G/mJAlPmJKZ7/JMla+kcMUP3F7XD/sihA+AQ7VvV0Wt71dUH4/TzgtP6sdhT7Lh6q/6czcv3NUDT++8i8/rj2Cv7+VsD0Cizu/Oqmuv+zONb+QPnq/mMxTwOzawL8cgMu/JCKiPiyw7j4Bilw/eSA4wDUxj78bsLE91QqMPzD/JkD+l6k//FqTP25QtD6Mrmm+BN07v6hjrT7deOs/xZOavft3k772yNC9D7Y3wI08fb9DhGS/cJPyPkQdlb+uYVG/qZdZPlxiqT+w2Ks/XkHov+xniD9SxiVAN1aZP6B5ir31xJG+Wp4GwEPfC79eW09AZozpvnWIGj97s3u/b7JyP9oU2b+pyvM9KFdWv438yj93zYS9r07iPzHZWT068D0/qfIcwCxFYb5kscw+k6QlvxH9xb9AAI0/mquivz9oLj/nvzM/LNlIvxAasD/XZ/S+PuKivlYfoL86DdI++zikPjDHxD14R2i/XYgQvuigEED8ZRdAyAutPU40lj6GOS0+MYzEPmj/gj+j6ie/Kpc0P+82Yj1+roi+p0nyPl9BU75eaVM9n5hGvrDfgT/HLRO+1FLbPzhkFj6yZ5s+QMnfv/uqwz+pfMU/NzofPzdciD7JpjNADDIevyAqyz9ZaMQ+nFpavjgKTb8yGao+SLASvgIxAsB1Q9S/c9/tPlcuQz+Vloi+zF4BQPpyYb1z5pM+jgyJP9YHjb6ATNY9knAZwKdUpb34Eu6/Z0ZGP5q3xb9n/Te/r/J0v0ltpj9NhY++0MzoPorcB74RzkU/1LcCwDBZ8T/1hzA/t5K5v2ASXL2nHnc/UGogPost5D4QpM+/YCPbv7+g4j9JDtY+lFtvPxUOqr8eVm4/oOGsvrYeSz/IIWy/dDwuP95Qir7yB2Y/tmcivZrgJj+65Py/B0O4v41OT79mgKC+tWe7vuuGwD/LFhxA34AEvrf6uj9QSws/OR7Cv1Y/CD+jM5A/txiIPsisMb4KnQhA0mexv/DtI7/Rx4+/zIbFvt85Fj+bvD4+9HwSwIJTYz/oioQ+vBz3v0wJhL9duqE/cS2pPfR9/z7BOtY9cRAivgrFzD++I68/vcKbP5HDDz8Pb0s+NVS2vz3jC71Fc8O/Dv3zvvV3pL11qhu/k0BOP67JhT/g0yi76Fc1QPFRuD9OOqK+7tKTvrnfdL/TqUrAOmIlvQLFtj6Rcry+kNJxP5TugT/cYS5AkvVYv9CGhL33mRI/PiAtvvGlcz8Exn2/I48mvqf8Lb9m+Ja/+0zhv9I2kD8woFg9jnmxP9I0ND9twrk+JONoPjWpmL+nNo0/vVmeP0cDLj+viZE/WiWXvr30wj9m2x0+8FwIQGppYT/+Wks/qvg1P/haqL+TiwK/zi6mvxK+7D969Io+7hJpP23gBL9C9GG+jEyjvwYfBb2VyX0/A1uOv2P3BsAnRkK/8SE0v+FiCD/nbqU+R0kqwDorEEC6V9g/4pmHPmthwL6U6Xu/GgEWQIA4aL8WKzbASh14PXf4Qbw5gRxAokNXPgYexz1FwUlAeTMOvwXGcb8C5oe/UwydvHXOrj+h+YE/PuplvgMhw76CFhI9w/nGP4eJEz8txZ6+Q8lEwClFaL+chy+/EXClvXrp3L8fGRE/KF6Ev2Feiz4icCNAjjNHv5qdKj+ackI/YoCpv9hC2z94VBk+ofsBvzsz1b0x83I/d/uPvwu86z/h5r0+SwODv3pYVz9OVpI/kGMSPi7mlT/3cV+/hjQlwKWgtb9vIZ4/K8A5P+92GMDRFUc/x9movhUwVT919i4/hSsjPdRMX7/eaT8/e0lawNzEhj871eG+noF4v/GF2D8OG60/W8MJvz2ZzzzB69q/kSHYP41Jjj8fcVG/gBCvPgFGdD/m6KO+m8pOv6k7Nj+CAfS+b8Ecvgl3HT9+Sri/Pe69v1gFOb4slvg+u7Qov4LtT78K3SZAhn/qPVVpKj53Qqm/Q9PBPx/o2z4EN3y9hNhLvkDvsr6XSZE8k9qmv/Ap7D05kCm/Zrmev1xmub8BrJe+mJf9Pm8u0r6C776/leOtvio6DL+77UE/QmoDv5Y/pT9DUjm/hOu+v65ZE0CvVL++hbIpPbImKr/k8j2/so1Svwvyhj+96eS/c7rrvdyWaj+D+U7A3SSav1w8sj+J+f0+OzoWPpl7f78+wJw+og/sPXBaET8I58K/irJyPrKLOb/jAF2/mKKnP4IpzT+kCcg/3Bunv72Xlz+bPRg/C5QIv7YtQb+BwNa+rwhPP+zGJT+GEvo+gPxJP3bpXz95+oe/PbaRvz773z+ZHiRAa4qWP+Y/frxIJSJAW2G0P4fvcT/8lsc+iDxhvhrU/bxVMqG/dFVpP9pafL8c+D6/syi5P9Ro8L5U0yy/yXE4Plvo+T48zjk/NP1sv2Srcz8jqCQ/fIu5PnRAkT4zrma/1PEAwIPed7/7eeU+FFuLPr26Gj4u7rW/+XiIv80bCL/ZGaY/HVDwPjoZ6D/Oitq94+zJvqB3Qb9ODok/qdSjvlNL0z/yfne/cq/ev/a0Rj8hhdS+FLOov+CbYj5gXN6+CVaLv0DHur6kvXa/PJERv+Vkzr1vB9I/QCYLP3zgYL+Mj/K/y0fqPsz7hb3Nkmk/8ZDWPTCWbz5wnxC+MqwbPUSvBb/fuIG/jT8kv5mgWL+HzlK+xiOIP2fWGr96lRJADsLavlXXUz9JrDK+xalRPyroSr+rCRrAdmarP/N8tL5Maz+/ArmzviFa2z78kJ8/363ovq31G8BYwSu/9wkBv1BoQD8dxoW8I7I4P5F2hj/TT5O9+mEBP3pNMb7gVTc/m6tAPoqisj6QFY0/MBiaP+1wurzAHGo+P5/rP8Sm3L7wsaI/RoGevuo/qr460wu/r1AqvrXTCj6KLNk/OOcpP4fHbz8JoeO/QWonPeU1mT+X85O/TAf9vaIbpr6e2gvARZRPPYDnsj8A0hY/NEkOv1Dd2b+jfeg9iBwAPqIBFj+opdw9lJCUP1TQWj9xdTc/fm3yvlfvhb8gaF8+QBdYv3PyMj+5Z7M/5gf8vwCior+7JYw/yOWZP25Kgz2cYXW/wOpQv6udhz6sHKY+og2/OzuKCEBF24Y/CzdYPw1u4r5cbgy+jJtNPyP6sj4TH8u+hurjv8zTI78CCrE/mpuyPqyhlL++uBA/tLCyv/+9lz9r9Sy/Br8WP89nKL4v9qo/IRt0Pkt9Q79ybWO/zF0Tvt53z78cQ66+OulePyegP74NS4y/1pVaPjze8D+Z5a49X/5Wvu/YjL96kRi/w7HPPyukUj8ULSVAoXm2Pk+b/r6e/tw+3AU6P/HwYL8prYU/khaXP+uICUBK1gk/eOv1PXBUOr+M748/tK7eP69Cor+6K8E/Kd4qv0Dtlj9402q/xW4VQPN72b6RvnI/nQIsv9jz4j8vyqW/V6iIv12OmT7f60g/7fy1PsEtC8DrRkW+opXCPpAYij57pc2+/bqGv/c+vb97f9U9GOmQv3vKYT/dleq/UWBsPzWBu78dljK+h9hIPnwUTr+NMEC+4hbMvVHOC7/BXdi+opu9vm2Uvb/TgVE+Y4A8v10Zyr/gHUY/D5xov3fje756hik/yKTsP9/7Kr9+dBQ/PcrcP9EzBb/a4xW/A3ncPxRvYT8Lq6++eE3fPuOSJ8AB5Ru+e8tqv7uC0j4JShU+jbKzP1obar8yJmXAq9OcP4ZNID86I5g/1wRJP/+Xmb2xzQfAM3yePiiOF8Anq4G/kwGMPtnqFT+aAFw/sR8pPzjrYr8HRus+LlcMvm4rYD9zJ4c/mnXbPtaqnD7nMtW+PlIgP9FtHr6sE7c/Frz+P7vIn7/6uDo/kr2Zv6RAhj9eU82/l1mAP/Jj3L+Z0iK+hDENQL23Uz+MJns/9XzCP7DK+L4Ivwq/34WnvmavXb8weBdAtgXDv5zyGsBNBtS+JnNpwK2bNT/WRjy/RCv/P0qrm7+Zt44/K+nkvqbtjr5Wcl+/fTGiPmQsiD7ghL0/ts6RvxW83D/PEV++BPjfvknl/L82z1i+TorYv0KdmD/Sjc2/IsyxPerGKD9N9ci+pVEUwFzeHj1ATJ4/ai0XvzomiL/vu1C+B1cJwHriwb7xgHy/0RsbwCvOnj9LDjE/hZIQP7CFd73ffLg+ROEHv7l/0b0LOQA/w8jwPjGqaT8U62a+u5PqPSHaEkDHhLa+9aoQv5i7lb/7ke8/CWO8P/Niab1Qj4y/8a3HPa1+vj+XG2u+u6dvP9OCrD77MCO/jTyDveWZI79twRrA95CZv5LHtL+GjU6/0061v5jTQD8f6jw/8BN5P8kY8D6I3H0/tm5+P0RgWj8NMqy9MlIMPzHKlz5cnVi9GSRtv2Duez7nR5k9BzXsPp2mBUDiPaK+GJzRvzM9CD8rn1u+SQUEPkAHDb8YaLS/oZWrvlynCMALT5s+JKS9v+k9gT8L3Pg+4W1IvcL55b/5zIk+MgSNv1RTOL/DvNu+lvouP3h/ED/bm02/A+mwP1qXhb98z18/yFEgvm5x+r/Bb5s+T8IDP3AP2r8su3q/5wiIP6KUnr3/S9m+j+H8vXzGjT63IBc/xR7XP1e4Hz3blnm/88WMP3AaBT/75q69JNA6v9A9eb58LsI/NS68PzUHNL/A+eM/L1v6vyBZcL/74qc/rz9xPvwFF8A8jjy/uqouP17TE76SicQ/2RJTvyn2yr9aTUg/YB0Qv2UVg75IjuQ/Nq3lPxk1qj+ktG8+582tvwHZSD9QGba8B/FRPprLOr0cTyw999kcP4LZib4ziQg+ykJLPbJCnT8Gvas9Q+LHP6qrKz1OXoE/TKIbwCWb8z6aFwe9wAoevF51NL6rGHw/W/Y1Po6poD+EVpc/td5eP78LA0B2SXc+GiGyPnqp9z6HBc0/7H+nP729pj9/E9E/PXEBP0FpiD87PX6/iRIyv7vAwr4dHJU/63UYP3jIC70A65e/eX4swBPKJj9iXLW/AEB1v+D4p78ORl0+ep1kPTBsIb+mvk4/GnfAP1YgED6YxCu/JMLevxf2lL+7+w0/aMlIP7+/RsDuvCHAUyCqvlY2kz69bhFAaElKPnbpIb62/QW9EB1DP7lEBD/lmxU/QKS8vzptnL/ZSx0/EpNTvxC0tz9o83+/7feoPuUA674lv9g/DkCTvhultj9jwoa+KifUPvQNlT/i9SQ/uUaIv5sYar/t56e9fzoGPqWImb+X/Zy+YBycPoWho79N+xO/WjfrPwwnB7/3FMK/mCEnQA/bgL7SjBy/wSrcvmrl7j5mkMI+SgZ6vhHpmz8wnTc/xarGv6IV3j5DoNk/OIWxv+YUAsAaCGY/tF/SP8UByL4Si2U8GgtKP+tHAj6Fe7G/FqksPtIl5L+lmjM/8HOTvjmV7b62yMg8+KGdPxhsMz+5xIA+GXTlvU3+ub55yO2+trMzPu+PhT/6/zs/+hmHv8ylVTwij6C/PPwxP8uRN77S05I+8dvhvzJMbD86vWY9rguRPzfzz76f5tk7DsRPPw6nir8VYVe/vui4P3fKeL+/NDM+b8sxvn3IxD97F3c/GdDFPoYrAr8xtoe+eVtWP7gHmL49Dpa/a8EIv/0tjj9WBIM/afUywA0HIb86jcU/R+oUv4StMD5Fw5A/vSu3P9FV7D/ed5k/l5MCwI5aOj9Fs4a+ELeuPySjS78R5Mw/rN9AP5Z9Cr+ogl2/Xm4FvZE5lT3hqLa/5eOovpW5Kb+cIZi/dKOkPg3+DD8gHJy/Bvapv14lPz/JC/G9iohUPleTwL4kofq+WqykP8HOJ7/TXXu+XV/rP3NQXD+3o36/wdunPiNbmz7lTIE+MXyEPJJpCEC/Nec+IVC4vTUbhb9Fvz+/8TKgvxSFzz3aHAI/vv/NP4cQCECB67c/Mm85P/bv9z8BD4I/+MeKP8AJIr//AmY+BAEjvCpZ9r2EXpw+5lbXPsL2C7/qKfa/pEsQv3uVXL4JdyI+gcsPPx8uBD/O2G2/hSZpP1Eq1z9AWo++SmjJP7ojFr9AkS0/hqB3PyK6fr+evRc9DyCrP7NmOL9Jgko+Tpk5vy2yhD9QCgo+/jXqvjulV784a8U/Rkmnv3YPhr/iCZK/JC/HP6oB4z6yyBi/So5dv6nLzj/M+Tq/DudfP8l4GcCXcJY+7MWSPnXtv78MVDw/RS5CPSY60D8RfGy/qA1EPwxppz1EaJw9s6rMP5xt4D9STUm/XkRoPsdXxr9LsVU/FRy/v6ourz+SYMO/yIm1P7pm7D8fNqa/Y8r7vULKzD8WSh6/o/03PisBtr1Yewu/yPtwvc7PVT1gq1G/nfIFv65+4z884RE/d6TNvpOBXT/wIcU+Yws2vt7SgL7M1QU/32imPwzu8b+qJbc++m+Vv/fC1z60ibg/eAbiPVGWbb/KQQg/1baUv+IZGT8LFYw+EWd1P990Zr/xVMG/GDQ2P2uJgb9V8ta+FoJdPbsmg7+K5e4+j96wP1NqK79009U+LHEfv4kqDsCa1da/I/2BP8l6tz86to4+A5pwvkYGYT0mez8/97fbvSW5/D4jUTA/fWgtv9rprb5hveI/UZ+ZPSKKi785CSDA4vANPONnab2mMYc/cAwUPtEavT76ziS/nbULQPFwtD7HnFrAAhAlP8ynoz9rOkI/sXNFv4Y1aL7vbjo/sqxGP9s7i78du+A+txHcvCvW0L4iNQrAhgkeQG0tVL/QZRC/apmcPyU8hb74ISw+UQjzv21qIcBad9g+ZWlOvybTyj4ADIi/DQtrP8jmoD9eaYw/YA3QvmYzyT2BXBZA54Movsv4sT6y1xK+b9WWu/di+rzEjYQ/qMHiPsXygb+pAAE/Cph3P4dEKz+MzyBACkybvsoxSz32LiTAIMycP+HOY79ed5I+HmqOP9O8MT/Fttw/Lonhvls1Wz+I9aO/abCSv4jV778r+5M/6XIDwHUBgT7Qe4a/QFCcPsWz8T9aGiQ/aKBcPyxZlb9/NzW/cgj2vlLnAcDgxMg/+uiyP9LKEj8sc7O+vR9Qv5dwvr3qb0A+JmkwvitPGb9M8WU+C8xfPxE7uT9H9T4+1pwoP9eNBr8jEe89LsbavjPyQD797vG+3SGov8tu/b+34lM/2PYpPyaVVL8BvJa/tL9KvRdLXL87Eb0/bdR5vqDnIsB3/10/ttujv7sN3r/ZeUc/Yd0WP2wSfLxDufo/BiDWvvltwj935zs+gx6vvutB1z8htNs+8repv363ZL/vOES/SGMaP2/3D8DFRAE/+GlyPi8mm79GIBk+YVwDvWRx+b/79b2+2Qmvv7h2r7+CIEY/PDjIPasCBb+946e+P749v0XH5b7z6Q8/7J7UvSfOh7+Z8p4+OGauOswTaj67VQhANMifPl7b6r6YSYA/OFdovYTLN75x7lU/hbWFPrbqQ782nGC/8w0Jv+BoLb+JrZi/b/sjv4AJjL8IHQdAbNHSPwNEuT2C0T0/3wKGPsOoSD871lO/WR+mv6qMyj8+qLU/aWLSvZc9vT7q1sA/Y2DhPUFYrT/JlwM/HsbTP9Gvo758u4E+676IP3a83j/QqOE+klskvq4Wh78wdfU/DBVRPnK+kb6GO7m/VkdJP0LpHz89RgW/bdSJv0wSWD+kpfo9p3UAvuN9uD7GJSw/SJtKwMq4hj8yokm/bg6Nv9zyRT+1z92/VKJ3PpNh1b5KcyI+gb+JP6t7hL/CnRDAgGnhP6bgO75I81O+z9qSvin6Ub8rQJ8/s3p0vT0Rlr/cXJ8+N8KkvhPHjL/kaM+8MgPAPTQGjb67cTS/BmmnO6b1PT3o4nw/rdExvqUYpr02xADAmTf7vg0jnr8x8m4/VaAHQGFoGT9y85q+d+UxPD6mrr8z1L+/hGDWP7Cdx78qnw2/FsICPwxZwz/Gbsi/WlEQPqYES79OVvk+PQ5IP24rgD+VDtO/pi0Hv7Mkr7/QPq8+X1bQPQIZkL/nIpy+KcMXv0Zctz+ZXZw9YWE4PvSCnr/xTk8/TiqPv5TD37+0Wd0/Px5Iv32V4L9IcJK+aqARP/UcCkDc8om9kTVSvt5bmr4qJKG+kMwJPUjHi779fTk/72DEPTZZSb903VI/xmWhv9UHQjx2u4m/C00Lv0Jb3b6OHq4+cgxtPlrBNb9xXIA/Di6RP1Vk1j9HJRU+BBccP6/NWD206Le+HOvOP3Rxtj4P1KY/2Gkuv+jxOj/d3Bo/kPnCvRLnnr14W9o+0OH7vZs8WDvVF9o+ChrlPVjb1jt59og+o+ylP4plZj/4O7A/eUHoPmLjw78xQC6+mGRaP81l9T5V8dg/krUHv11CGj0vTEc/Wb0fv2hoPr5NuKO/2nTQv7xczT+blvi/5Wu6vvKqsr9tkZA/kqApPplbbD0lYrq/0mAwvyDIDsDsq5o/QuWlPTF8lr/xJwNA56RHPj6l8r6hrGVADQyKPYsMlryZ3qm/+8ctP5p+ML7CUt0/zEqSv3Z9mL6ANBa/tcdBPx7PBD/n5g69OlXMPfaj1z/WpBQ+fMPrPgcC/r6zxtk/retGP7a+7D5Vc64+pyxFv4WLmD8u0ow/jSe2PhoDHD3LWb29ddJ9P0Qbb7/Rwgo/PugXv+zHHcARQTq/BzzfPxqwYT8MlmI/qHSQPx2bmT64GCA/2ffqvrL3Zz8IRb+/2w9OPniea72AC0Y/dsAVP/dK8z5XWCQ+s4NjP6GUID8cpQy/P/Wzvvodij4Qkwg+4nX7vgDugr87wMk/Q7oWv7TRuD83RJY/AQmePfuYYj+toTo/18xuv101iL8L11u/M0xOv0bv0r+sixK/IzP+PglEVD/DYpA/WEjoP4TMKLxkYiW/1dQyP3IYTD4GSrO+LuEfP2R8DL96yQg/fJ5mP1bT4D50t+m/C9DFviZeE0DHL0W++MHmvZA3Ib/aABW/2hicP6i8OL/UoDs/7QT+PP1zGL+PskO/52tBv+dUUT7eLgK/jUWiPtfgaT9JaCe+x5yqv+CslD9ZLAfANkkDv29xJL874ao/70/svgSiFUCze2u/UMCXPlRpAz98ynE+vsohP/7Fhr+uJ2s/rGu3PsrpuD+2S2a9dw1Rv7SV8T8ymhO/KYeyPlMozT7wSYy+Pq6Hv/iQGz+G9gW/aY94P9AVib6aIOS/9nxCPpDpvr6AaiJAtO3LvrlrHz9CgYo9ApMiP/o2o7/Mw4A/m8V/v0w32z5hJ7i/Jqh0venb+j7EuAK9alb/PzAVHj+bc/c9QA38vqoBhT9efsk+9kQiPU7Hnj4PXCa89Fi6PxEOKL+pDb0/cBuDPkCBJr+jZJ4/cFnFPxIs0j8OksE/eWplP9TgGr89yjA/fWfiPlRlOb9E+mm/9W77vvGoub0x8yo+vI4aP+HQsL9EQQ1A6qYrv+G5Kz+l8aM/y/h1vwXsPz9sOjc+XtumPx7aI78pjxQ/8pKIvwLku7zAupG/Zu0uv21ii79lfbk+KSQbv23Otj67BS4/v/DlPtbn/D6A6jA/MQmdPl2Oyb8DoTI/whq7PxL+pj+Sq5+/4KOIv6jXlT/c+7s/mvxBPwKEf77OJoy+NBP8vJ8qiT8fvJ2+686YvqQQHLzBQXK/7XtBP4NBDb9y7xg/bdvVP7jWy7+i8QBAWD/JvwfHhr8b/KO+vFM/vqE/hb88mrI/wIzYP1VpUD+VMTU/+cOLP3Dbgr8+S6I/s2OQP9nBaL4Eh1a+gl9nvzMu2r4Y9XU/YAYkP3uR3b5qshw/RgpWPz2iiD9TqaU+1Lqhvrufv74Tux+/xxOavVYWOD+NRPq//PkmQD5QoL7G2Lc/qrFBv/t41T/jkkm/t6wKv03iuD82RVM/wmi2PyDTVL+uEV69MumPPsgbBr4Inxc/JpApP2io278rI3I/triEvgNlnj9kPYe+VCHOPm+kxb+WWWe+ikqhve+Irj8JSkS+p7i/P/CYxT9lnNA/zy6hP3/PTz+tFQo/SSZTPcaFHEDZpAy/wZzRvv1+9L7QMOi/7W2pvTatuD9gkjC/hrzRPmBcZ79jnhXAmJIwP0xKJj/swoq+4Q8IPhQMLb6k0pA+jOihPwfzCkCjIZ8/CKRXv3OdoT4MhyVATr6Ov/F98D3WpqU/MNzAv7kbgD6HvqO+0UfAPp8C5T9sEKY/7rAqv5UNzr1IFDu/hi3FPl0DZD+yp6G+dXe0P/b2g78JOVC/80+FvgKvJL5LuJg+JjMZP3hcbb+9p2e+W3PjvbJ6B7/PX0E9/VrBvyEvdb8TAo+/lDeFvoOVkD0BYm+/Eo9EvxOU3j53W3U/AS6EPkzKBUD0MsW+Mvi2vshRLD9Eah9ArE85P4u1+b6CfDo9vSlrPTOoA7/UG52+a7nXv/a6wj+mArI9PK6VvygYcb8AYWG/gkQFQFAHmj/GRYg+LnGWv77DXD9m4zM/Qv2hv5zWNr+q4IY+jwYlv5HaV7+ThkPAthSMPosOib8ExI69KemzvGrkpb9vPyi/JPozPiWQDb/5PLk/ICMBP8/X7z///qy/fdqdPomZMT8JMgU/R9NtPiBwr78HJ8U/9+jGP3fL8r/CVgJAzkMCvqLDjz9ihbC//AIQQCwBBD6M37y+Lt14vyJvlL8GRwQ/P9sRwFl8lr8OnQPARVKxPoJc2j4qj8S/vnqQP0jrjL+pMhlAlGgsP1sGor25USc/zuigvoa9s79OVKQ+jbs8vR1UZj8VUWo+19gjP0ZLar/1m8c9s7eKPxl/5D36z34+CztfP2Axpr+6H1I/8QX6v2ldB0BW7AO/ltAXPxQNi78Vb+e/xSgvvzR9vj/epGG/2aGHvxeNML9MaHA+y/E4P+8EgLsdrQDA/XoIPwfHKr46gMm+ofBXv3HCCEAkhT0+eM19voBmj78e0mI/zGd3PhXkHD86Dq6/JZYQPvE9v71Wxc0/j+YLv1J4D0BTBg5Av6WAv/SKBL/UHTC+YDwSPUdjED/FWSI/6XlNv2CQW78DBZa/cc9nP7Vhdj+ywN2+q4ZmP9XHVrzKyBI//sjvvLjdzj4uygY/YPqMvksVwL/72vo9H5qjPy5ldD/RN6A/xLokPpWnJT9GtUk/a+wuvhMkhj9Ku7I+HuulP5a0KD/0Qdg/HVYnP7e0Kz61Y08+oxNpv/t/ED0Itcw/kJeQPZ63/T+88N++mo8Rv7sRDcBr+PG+AnmuPkfG8b7Tuaw/B8havwimbL9rLok/o2Ocv74d3D5mXghADrgzP4Q5/b5Jj7Y/bqmPv2RePz9nd78+DJ+Tvx33qz8RMl2/5UgUQO1JcL8vnmA+FDGUv8fyjz/q33S/ZTrLPz78L7/GYji/5ajtv3Wdz74ZZRLA+zH2Pi5nar9pUfs/TdzEPklQYL+rSl+/03TfvRaEDUBP4qa//KqfPobAA0CgKrQ/z6wOv810k76L8CY/vBitP19Zz7+GKPC+3yiUP72bO7+0U+S/Oubhvyrixr/rEDo/e8k9P/y26r1OniE/9at5P5SEjr+/snm+DQ6+vwzT1D9cu22/bW2XPwFyXj5y7gK9OPXwvou5zb+mKmC+DtexP0QzRT8x1ZU+k4XzPghj9j4+iqA/txqwPxYpvb9ozAzAGHVzP7VY1T7PBw/Ai3WJvwaUkz9vJqw/lEInvhSP8r+B0I8+d7Clvww/or/AlaI/TETXvvp2qT6VyrC/2UBsP1RXCD+wBFq/BiOWP9+EEb+OEiQ9YR7JPmM4zb7h982/fgDhP9o8mT8s1Wa+RsgQP6n7t77pe9w/A1C2vhrTbb/xwag/jV3wPw/lvj/Qn4w83xWHvlATg7/vAuM/v5S8PyHv5T7Aerm+HbzGvyOJVr9X40q/oRqSPhuRpT6JABm/L/GPPm2ElT9k77m+Q+swvx8hqT8o2YU/XXkmv+ji1r3GK/i+OX3evQ6jzz4EpNC/ol+wvwzFgb+eN0w/Gy2dvmT3C8CxqfM+i7REP1RUb75RgyJAkwyLvxmSiL+rYX+/A53LPxhzjz8fgwM+CcvBPx2Lxz6P24q/ChzwvvpMtz/0MB+/KRgsPkdWgz9lJTq/FRJgP4M2Bb+J3J2/eIGgP5z7Db95Tz2/LWBWv+s3iT4RSgY/0aWHv5AFPz5m5QdAXclRP0zfHz9uwTK/WZxePz2BL8Ao0IQ+SXByv3+k/j2GNi8/zRUnv0u7pz6od4M+Nd65v606Aj/eID1AR7GcPzI4rT+QbMG/g7FNPgv8eT4yxGA+GctuP7tZl71Zkes9uemcv/LdOTt4jFi/yNMPwCrr0T/tNp6/b7hdv0X8yT7MPbi/oWcTQAIWED8Kxf++74Elv5pxYr/lyhM/sy1hvxLG4D8szR2+6HbiugoEVT/UhDK9azavP+57C0CrXaY+p3siPX6hNz3qaUM/ND/iPvxwDr8B8vs93Se0PryRLD/Yd5S/KmaePqD9Vr+9HlQ/Umwov7G+cL/TNy2/7LppvimzQT9pGCq+jofQP1tt4T5Jtb0/M1+IvSfFUD/ZwBjArk2BPxUalr9ba8S/SexRPwUQfD6nSDe/1xWNv7Bhdj+1y9g+L/87vpC/E8DSF2g/cPMnPVNLCL91xfG/6R72PuTVIUABPPq/RmCdP2aay7uE4DI/eq8oP7vWIb/qNbA/gGAJPwf6FkBOfYU/YoRLv/SxSb/PWWg/bIMPv3iTJz+CeTi//VsCvmbxDT+ksQk/jDltvSFh2D5izai/z36gPx0KeD9LLPE/XJsivhSqtr+0tiA/nenEv/kt+T5SKeu/2odVPymitD50CBc/9RZDPpJ0BkC9qiY/UY/6PVjO/j8A7Os+Lh10PittrT4SlYc/l/qUPxdXhb/VLtA+K3cyQNdzmD/Ojdq+58tfPp1eiL+uyw5AIK/pvhtNGj+Gr2s/Vp7uv6DSqD3bSDW/tYW8PwHVor99FKq/LJNKv/qDcD9N8q4+KmyXv5GMk7+nbR0/254pvgQSfb9YXCY/1hgGQJMSa7/owR4/tMM+PbjPgD/a1JS/x9ZovqQ4Dz/PcIw+Ue84vxADo776h5O/BTS9P7vaWT+wdeE/soncv4V5O0BOuNi/n66uv/uJez6pqZM+ZoWWPyH9gD/PL1w/38GFvZKHJb9h0wZAupPcvtd7jL5mr6++Kiykv0hnOsB+rC6/+diMv4QHHD8YZpG+6oYNP4fgeT918U6+Smipviv8kD8eVJG/xBbpvqFVUj9XvSe/l0m5v21JlT/IiAi/dH/dv0rhET8jQnI/reAaP+0Yv74ilai/QPahPxaPAUA0Ww+9NsWSPrdDRj61sv8+ZecbP0zlE7/ayxa/Fy4xPjPRtD0UCghA0YI9v9R3+zs3gqy/J5FHvjKEzj+Keoa//ZOmv7kIHT7+Bci/CY9Iv2pMxD98QMM+5z8nvyermr+bKIS/34VKP2Yr/j69VBu/7+xWP/iRJz9lHz2/g+riP+K6mz9GfYI+VLKLvWahSb9iwuK+4Jifv0catb/wYJM+8VsIQPvsCD8Qwac9Km4xvwPfFj72pIK/OYu5P11vgD/BGEI+fp0TPSBWob+V1BW9efW7v+xS277sCgJAO1XpvwHf+z3jp0o/KhELP5tfSj/We42+S8P5vs8C2z8l+CG+u3eHv82I1z/99ge8xp6Hv8vZjD/GQey+toaeP+dyrT0Ol748fesWP14L0T/0MY2/EEZ5vPy06j8h1Hs/QRJzP8Wfi7/YQFK/9UZ0vyIswD5B0fk/jmGZv8922T7PJLC+XjPxv5M3J7+l08A/SJQdQC8j+z9kZj4/edQUvyVXiT7IsUm+9paOvhjZmj72E2a8SBjPv1kUrT95SN0+682RPjnVGUDv+4q/VWoavsaMn76NWy+/L5TPvvGNpj6kTR4/23dsP6GRIj9fioY/g2HYPhhEbr4nOYW/+tYgvjd8hr4Lk7M/6VyfvGcgsL81+om7cuCHvocfdD9jofY+w043wIh9kr6s8wfAP+Wxv/vmj79+0J4/+SGCwJw/QT9jC4W/SKudvqD0Nr/3AwHAcvswwITWM7/VHk4+zFWJv86IEr4cT6u/YWgJwGsM+z33pwi/DjAxPcISIr9lqxI/NxjvPgAX0D7qo/q+af9yPyzn6z7yVlo/NlcuvJCx1j+7nFM/W3Yrv4tjE7+s9T1AdUWqvdTwe72ETT/AytLqv4/2z7/brWG/F+EZPojapz6XHJw+rlv0vrFejj42jiy/86i8vrPJOz/Rvwk/bj6lPSfVgj+JTw+/7FrsviM0Er5/Q+W/ZU78vtyQjb9ByYQ+S5Zivk2Hj7/yiQ5AD6tuP6//bj4VFSQ/zOHxv3n21b924Ia+mjmnv88Pgb9/Lr8/oTwYP0yrZb3ajJA/yUcdwJs1ir+N5KO/iSe/v4Vphb4iibi+1bUEPyOH2L/fQ4q/bw1QP18pfz96ARZAk2gVwIntIb5Zp7y/9BCVPueAUD/WpDe/KNnHv8n+aT/+ZcG+MWSmP7nEiL+Ev7Q+lwBrPhG/hz//KyA/awVdv9O7ib4o2Tg/D2UaP4Iusr4WZog8muaLvt/zVL9e6W+/s16JvwU9Cz8t+pm/4VLzvmoRJD91Hn4+bkrPv3eiiT9aESDA61sKvxVeBb8bWBU8EuR3P7TMoj/niZM9TPeTPokIxz/129096zPcPqEWmL+g9yk/MNokvoyGPL64XoQ/mnUhPxk/Bb96rPa+JQKSP/ZJNL81uVc/+AxQPkrvP7+kSIO/8ChBP3iRAD5sM8e/ULZnv2yIjb90fru/Gs0Yv+NKZb58Lwe/5bgKQAkUhz7Q5Li/UaFHvLCGGj+Coqa+CyXWv+xC97zPQny/RfGwPt9DuTpZpD4/Q3/hv/3ItL+p4tk+L20Dv2dZIT/S+3O//o4mwGqfRr8DWzM/dotmPihEFL8M/yU/Z/AKPvOGxj+M8eC9EqEnPyyWsL+i9eM/mZ2uvKZHIsBInKu/cp8Kv9g7Mz+ZGoQ/EKzpv3zdK79mI+s+DNnDO5ZkAkCZzya+L9jyv5RChb4IZaS/J07ePn7MSL8gQOc+VHuHvywpAz860v8/dpQ/P6NFmT8uBYS/wlUnP9BBfz8oSuc/52xAvBrZyL9dNaM+9IZ2P7nbQb9rFBPAq/yAv1VLVr/v0ae/JAxiPkLpxL7fMH6/Ky3ivnDJxD/bWUW/fi2IP1Cb5L42b4i+LVMzv/tjOr6U7gRA9Y2mP2WpWL/1cki/DyYWPz0evz/gj2U/VNyCPuAxMz7i0P69R9mQvgOvx79c6a4/9fxWvm8hfj8PySk9EbGiP9XPpL+llJ0/NXIQvwmbnL5WqEW+VZn/v+53ZD+v14+/KXamv9bE4D4rf+i/KBwtwBCYzj+U47G/7RfpPXrCr74HSyO/hXOcP0ZkyT7zB02/f37QPxi46D0D/qW9W13bv8n0C78E0g4/1iQJP1a1iT9qWTQ/Qrq1voyW5r+Z1de+D+e+vml1ur+FXz+/sWL2PRpgi78cYCI/MMmxPfaF7b23L4c+MNu0PpgPCEBcDD6/gncSv8cFB7+eGxA/Ngq6vsl/3j9eUpc/G6WEvbVwyb9R+8y+ZUAqv5Di+b+a+0u+6D2AviqP2T1GbZg/fKRjv3FTOT7YBuy+JQSIvxxyNb4TljTALwLZP4Jo4L2Y0IS9tM7gvFdakj/AfZO/jTGMPxWHkr9pp20/L2oyv9HIiz5FNeQ9v34Zv+JQJcBOkek/WyAJvQvuSb8Aqiw/JccEPlb4nj/UMXs+aqhovkwjoL42Kzs/Shh/v/QmhD4htlm/doqoPhrrPr8RkiS/k5Rjv0Ud7T8mERK/+6anPt4vqT/F3F+/gVj5PbzY078d7Do/dnNlP/aENz6FL/Y/AC3XPZEv2L7CtXo/mOUVPrXOMj9PtOC/1N+tv7D30L69m4S+ejtIP1Rzrj83KG0/cTmoP3Ajlr9pW6+/JvPxv5ZYyT+DovS+2mdFv+aerj8MJ8C+cFADP1YFGsCW38Q+jC0mPZ67OMB4tVo/4v1FP2qTcr+otOk+sGadP60J67/1yAA/35jFPvd0hj4SDOM+Zuw4v8Xtpb8tYeG7aF7xPu8cbT2ATCo+RauHP5CLpDwGkqM9qIjBPi3BA0A82mM/tY8Pv/dlYL7UWCo+43k6v5/qgz/kDcs+34zZPucziT+ry3S/S7r4P9+vC76i/3g/K7aGP0lJ8r9cllM/kp0GPyIpU782Gq0/mSDkPuWLsD/TxXA/7MBxv1UHlT9pTbu9QQdEP/6BFT6grkI/Ntw6P35yEr+5Lqe+S5G6vSZMab8gxiu/yGpZv2dQf7+1MlC/DcjFv7rTjb/efYU/1OBCvgNMmj4ekB8/+exAPm7T+D13g+g/qJ1Fv3QLsr+9TGu/UFaIv9zDmz9HmW4/gIUHQLnplj9jaEW/jyyiv1mjDsCYg/G+7yJFv4Bxvb7s0Oc+YdgYP+906b9cone/Ez0sP2oFGUAMapY/5DfTv75i4T/85Rk7IjJDP1L/+T7DxMg/GHf0vkS1HEAQl60/29xqviY1iL5yYGs/YdrNPj5j0r/NFr2/gPEtvxn3Zj/L6Ew/TrTjPgpF9b8wDce/TdOtvkL0Jr8Lf/i/1fTkP02vRT/eXBW/i7ykv6k9ir8YJqg/hF1APxToVD/l++A/rpqKP1PM7b4n7R49uV9ZPsw5Wr/9AAW/XNrXv7FuBz/IPEu/zNfNvwpKDr/JrBFAaPVjP976H75wdXI/NuC2vgJuyj+T2mS8ZBA6PwRoTL+AhXe/wNkbvv+jJb0xxoO/E1iAPqlS6D6QvoW/9mAkP14cj79WMIe+YQhLvy4h1j/PNEy811qKPlL/ar7J56A/5GoxPt4oIUCrGTfAs1ovv2TGXL8gpU3AysANQC6NNj2ihMm9J9u8P3dy8b+TyMs9L+UIvhCcgL6JUl6/X21tvaYV2D/VX7U/i1CtvwGe+z2InSo+p2+svz/npT+PivQ+P7feP5DgVb++DA/AjhGOPS4S8z9+l7O/FabQvmx/NkCk7I8/vQxVPw6YoT4RzPc+cuPgPt+n/j5lGiE/HDM6v/1vYL7ETBs/fCHjvnTe3D94EyXAy4mRvtA6RcA9bkpAhXZCPxbCJ79fGc2/ZecJv5kHmb5hplY/tgtMP6xlNr+9KPA/skPnPlPahD+B8Jm/u3Gcvs3B0z6qWuy9rdgPP6AQHkAuvAu+r+5vv9ER+j2ikTG+f4qXvmgVkr7vsWY+WG4Sv5rqI79FiSU/7PCmv4cJXD2D6Uq+VGUzPwLfdj/rr8M/zPJtv7fKDz/WVhA/236KPysecD82sji/xZYQP0ehA78ga5W8tmAov3gIGD8EyzS/PWW6v8LjzD3Xudq/EWYaQE+Hrz7xu7m/j3iHPqNZlj87zdc/JDzOPqNZE8C8Nm+/ryIsQNfzC0B6mS497CZBP1JeUz94h3I/xzYVv2cgUb/k2/q+vzSHv6dm+z9k/eK/a2FDvxt8er9YUG++LQNSP9mWcT/IBew/NfTXv+m2oD7ln+U/9RgNvuxg8D4jFKk/3oxuPrsOlT9R6Jc/TZUVPiVfpD6ve0I/Jma0Pxcm2r+9zz8/l+ADP23GyLztBEA+xzyvvvk7hr+hc0W/Dct+vR6n4j5HJb0/UM0IPS/N0D/xp2y+f5XtP3o3pT8eHza9lAzWvkNS+j8LNoa+RM/Zv52WRr+a+gZA+bfUvkx97j7A4n4/Izmevg7OYz+HlTQ/ES87v8OVBL9F+ghAxnXjv+KCYT3UXFk/bDkfP1tBYL+RfLa/gPoEPhPjgL/Zmus/YMwAP5JUmj/0E6c/Q5n7P2QzAD4GxQu+AQ69P3c3Vr8WbMA+HiLAv4aL6b7Tcw+/YlYUvTT6uD9Xndg+kVRkPm9UPT/MBwlAHUNrv/+3Ib6FibS/LnGIvQWoGMD4Jvy/kQMYPnfbBMCFfyO+Evc9v4dRlL/WMam8AaXQPgwc/z5NrKk/TQ+ov43OIUBBcoq/0jGZv7KUIj420ve/TmcQv8BGhb+HWFW+L1MKQPTKjj8LgKg+3LNiPuMUoL9hAba/I/i2v88D5j02J80+Vt5QP4apLrxCKbK/Tkp2P5hL579fOtg/FCiiP7Bk3L4ijQ6/3qU7QNeRzj8jfLW+BHKwPM6djz/CVJi/A20uv2vfnr3GtR89v552v+4wyj50/jI/bn+APzK5OD83Hto+3yOFvwcCVz/oIwBAjPQSv++Svz+l3Q6+87WsvgUGu75NUDa+97YXv54Ahr/u5aI/OIIvPwlsCj+ubE0/ReYBProicj972Sk/YHDuvkzqUT/iXDY/yabHPY/FQb9NnqK/JGHvPfueiL6Zi5w/jQUVP/46LT/mcDS+ObOOP0GHXL/hupC+hrkLuv3DF74ULEm+7Fm7P1IaO79inT2/mLbxvhGMhT7J+8g/U6zBPm3dm74A6rE/jAO4P3WviD7Tt/g/T+OAveBRzL9BIig/79yBP9nSIsA6Z2q/yqUqPnNtLb+a+xTAmJm/v19qpbxv8yC99BCNPsXNSz8GjIe/L/NXPhtzub6HEmQ9cwTFvk9dob/xJdW/oxHLPzDtiT8yNC4+WH14P/3Bhz0wfQLA45tuv1iQC8Am3A3Axj6Ou/CeUL+qEwJAQjsGQIZgWbwI6cs/8lxLvs+cSz9fF6e8ImePvwm8H7+50cS/Mx1vvztvx75OLPK+9abIvz3Xqr+D6zY9/GsQwJL4LL/OjtA+7648wBTSFL9ZrIU/74K3v8P0wT+Tf0C/5uONPo04Hr/VnjrA4H2+vq6WDT0lCMM/xN7zvhcQtT6MPBW/q52BP+c2U75sAxI/b37MvpkR1j/7cve+1oMAQGjIj7+fAWy+JCo9PyNfNzyjbAi/8iYnvtw+ir8lsYa/fzf4v408zL9WDxNAJT+Qv87U/z9mCOS+dgK/P2J4+T0xphS/DRIYwPRtVb87bzg9FTWcPwxWCj6LvBM+dAr1vMfblb/AOK0+Oea9v1umxj/kWk++KAFEuPgHgL+EDja/ugAGQGmLVT1OXNI/mvMJwMUcuL6GXKI/SXi8Pzjy5D+A8C0/sni2vjwyhb40+40/HmApv3svfr8pyKs/12/jvFcGw7/tOaC/uTMXP0t3YT1g4lg/jbyNP5xRdD+xrvI9aakEP57WGz+2p/09Ab2WvjpTDz75kYu/8d9nPjMzpT6ZL5+8pu6qvpfSR794T4i/AmOMPzH3pr/pgQZAiUsUv+r1yj3q1CfAcsEwv2w0BkA5GiE/3PuJv9iVPz/tdYQ/krzbPe9fi79v1Yy/HX1xPgLSub5CZHU/EMRXP6/YJr9LtK0/zv6OP0jumz8Ee8c+3TO3vqRNRj/aDWY/qP8+v74CPD+zpgJAQvE+PvyVGz6MM/+/AzOpv3ksMcB7EwpA72f7PX2Bnb99+NK+eHtIP5NvDUDlHDQ+JCdQvo863r9KeHg/qyfiPpnmRD/TYxU/yWOGP+0khD+CmSHA7O64vJIBor8bcZa+j14eP2EzhD8dts6/wJHWPq0YUD9qSPI+YgPPPqcwlj/wTLy+/Bvpv0ZpDD9qTg8/5ygvP2LjBUD9xdi/woQhQBWfCcAOVb6/ZbbvP4YftD7gcd0/b5TQP0HTdj+4qIk/9CshPzdzdr+GXKy+joXsP5E3YD6LZzVABeOQPo5MBr9mP+++rDKuPm9ngT8hHVu+bs2Xu0ETHz8sUYO/WmFevx5Vbj6mCxG+KvioPtKW1L0M5Cm/u4dCv67VB0DiDW6+TID7v6PeNz8+Mhy/gweHPvLJlr9/tIU/TDSgvSQnJUCmT4Q+6ZU3Pwh+6r1aewlAZMquv+UuNr2V4Vo/5drtPsfsWr08tSo/JWIPvmM3nL5tjJA/BLFRvp6TG756A5M/Cu2Ev7HZjz+xNBdAXbmIv1IGnD4D/NU+vHVhv91xSb4+5Qc/FRQTv5b4UcC+BmY+28/ev5sa4b5uotu+QeYYP2tBUj7/MZG+oDJ4v5AhZj5IDR0/qxxSv+6w4T+GICS/m+rHPzuEwr6rVfW+J20Cvwh7K0Di1q0+w09TP5IpVz4uQpq+vv2fvrh4Bz+lETe/G/GIvlbiMD9re3m//dOdPyS39L1IaO2/BUeEvy3oaT/Flvu+WtUOQEB4Vj9dE8u/DDCCvxc34L90dEu+oEgswFK0Sj5pPlW/jMasvy5T7r4Ew9w/WXTBv1dQVb96gyM/0r6lP5Z36D4uq4m/puuiv2olEb9fHbU/yeYIPljgtD9uWoA/8PzBP5eKS7+A1Eq/8hpNP+bMuD9LKj+/2zEkv3yGdL/g0tg+lOGdvwK/f72HP/G+qrsAwDEgyL+VW6c/ySkCv1A+MT8sGb++9ibuP3MzKD5Q0/M/ODPUvwef3D9xWVo+4WUKv3NBCL/+t6k/oH5QvdamKL9tU56/bhNVv+/9ib9cAwm/QMW3P/SDxD5oR1W//u7YPiwdmz+p+vK/xhWXv1fYSb8mzwnA+WYdPgXmab9lQilAjAcQv5cRDL/Sh/i/ZfSsvxOaWj7Jg0K/JSVPv07OK7694n2/JZemPrz3E7+RjXi9KzCPPwZcUb1zuLI/KpXVP3lcBz+HYHe/TBTjv/HMFz/RCqm/aBoevgt+076eDOK9+ocLvzWZVT+J18c/gTlIP4WuNr9yOK4+A9QUPWyRw755Zqa/8SCzP3SXCUC4scK/DqWXvrIatj/1gNq/3B/EPwV3ur7vc8y/i8CXvT3suz7RNY0/GRDCP4JRFL/KfkA+d5OnvzVjgbxXj4I+NDhgP+1Qt79BdrO/0YeaP8z/qL/UCBi/tSEAQH2ps75xx0C+o2sJv2RMF7+Rmxq/xju4PqdJnr9EV+Q+HB9YOylH6r90XiG9vm7zvS4Q+j+CMZW/z42Tv7ZcMT3MRvK+DAk8vwGB+b5pexw+IDrNPrUblj40v9y+QJCOP/lyyL5xhem+euoxv9FO/T/x7by/eyrFv4jBi74pCqm/dTtLPULWND9GN+8/yDr4vgGqKz+RMFO/hKJkvwzhcb82Rni/fT59v2N4rz5RI4k/wxe9PSNm+r3Vm5O/qF4Qv7DQpb75TJK/pEqevZIgXL99fT4/72mjP5QpEL/1WLs/IkI2wHPel7+KiJQ/RbOtP2wXob7FmQhAdUNDvtaBn7/tLpY/3gI2PrWPjj5HxUU/fYMWPkvbvL0asLU+hPKeP8953D++8G0+wE7LvwCPIj009w2/+sjIPijHmj+QNCE/tJEbv3fb0T6u0r4++lupP/8opD4LDoS/+CpDPz1igb7K/bY+jPp9PhtWyz+PVf2/2skTP3/dWD9kkQlAEpi9vnefXz8V1AxAIueaPwneBj8Vo5a/u1VBv/EJ2b/wjXG/LD11P3a+XD5rjTQ/GA+rP+j1u71dM1Y+vdUrvzPMAcClyq6/bTn7vsBYhT+SspO/knVYP5SYQL94yV69vkqWPzJiBT/2v7m/AwSDv2CmJ7uublE/+fEBP4qcFL9YE2q+Qr0Bvlh2A8DHtNo/PnYBP79Uv75Q9qO+0soBPi1ooT9ygju/9GipPgOXbL6+mZI/8yIqv5BKJD8AgW6/dhnQPE9lXz+cdwbAuCzFPsdUbz/dw+8/8n08vjxRWb8ih4A/3qO+P7QGiT+eIEu/Wg04PwVN2r8C2lw+6CCnPrj9TD+NYIQ/oamVvc0csz8ok9g8v3bePjafxj6U6Zw/GtHFv0meb73s6jW/HeavP1h+kb+bLtI9Y9tiPzcxtT+AcCY/YdiGPw7MlT8JnSvAL3RSv3lI0L5p0cs/G9pBv0HWw77+kM6/ZWReP/cR0z+yGbu+HtIVvwyZ3r9bDEPAxkaOv/uDPz7Su8+/RsyGv7zWoL8iFp+//e+vP+9IAD89fWM/LpN3PrYcor/LJ8A/yo+ivztUmr/tQBk/0i94vWZarb+d9/q+aXH2P0aSsT4MK3I/mgrdv4tAzD1cnnG+zoEqP6Aylz+EpR4/MSrcv/Hfu7283DNALsUrPq8y3L/5K+E9DcChv0M3AcBXKJ8+RsIXv4eMDb7eS4A9Ys09vii0IT5BI8G9eSbQv99uNr8oXO292oxOv9V6Vr8e4ay+/kOvP3nmmr876Py+zuLHvqwSUD+coFO/ywqgv/2IsL2tVVO/gMofvyPQZ7/w58C+xrgnv7AWDr+z3f++UEmLPhUmfT+Q9BG/2s2PP0vVBD++tbq/of7KPpN1ZT+eN5W+NsG4v8TDCkCLwoi/JZi+P3SIhj9pJ/U+rJwivxTqR7+0J9K+stY7P7Bh3r4zbhfA6iPKP53mBcAU00i/03eVP63do7+oN4s/mLmEv3UOJ8D605Q/G789vtB/bD4I8OU9/nIPP/iAPr8tf+0+E+yePeUmwj+XoJo/rBEXvrhvj7qBebY/lor2v5xYer/x5hA/TpQvP+dolr+ojKE+N+dgvpu0eT5kLFk/EyGXvyMKDEB2OpA/X9Y8vpzjGT9xLBI/LwCGPw+Ay77aYQ8/ix5xvzDlA75iY5u+Tf+evn9C478nVZG+k4V6PkS0UL8GOpG+dzjLPzIbOb9fHfS+QzaOPeQeDMAzvhrAo2V6PjDoRr7i9io/NNHiv5CQ5j/eoeg/yipnPr6RZL+wYSU+9MBsP8QsEcD4bfy95nX8v1Uooz8Ar3Y/MRmovXJLrr+ur0w+iJ6TPmXlXT/3ELC/opt4P1oByD9aToE/AQYev8KPCD/ljbm/aCotPpdDjz5YS6G+91JIv5NkSz+uvno/8pYPP1bA171oKya/lHrGPsHINb8LtYG/tGTUP1YTcT+hgVS/K6F1PyAuRD99sAO/tCaHv+tfrT96zglA6LuMvski67/a2hO/BHy7Py9w078DjJw//WGGPusMpT8eCXK+ywMUPsozoD/oV6Q/hhhhP72tnT7zCX0/OpQDvzGChz8yz0g+IBfqP7e6Db81Ag2+wVSBvVvulz9Z5Zs/zSAIQH2wnz89IQA+5y2yP5RkpT7i+iU/pL5Kv+tJL78LtAC+k+3pPuRoC7/jQTk/th8Lv6FAqr4wsbe/MrY8v8UqhD+Z14w9v9GmP/RJM7/DCy8/OsZBP2SwvD9/JQ5Afo+wP9TmsD8oS/E/PrYHvnFp8j8c9BE/Mk6yvj1mUL4HTGU/6Q4cv2pMsT8EeeU/zVC6v+e5+r1Itr0++oJwvqQBRT4DRW++xOUbPtAzx74lQh/A4wjcv/5+FsAxNkq/Xf2yPw+v9b/xZa2/6oojv89CObwB9vS+8AUMP4Abfr8g8F2+jjcaP0+b277IXbq+9xr+v2Tsgr/iWqW/3mjkP2EQBUBGNii/AZ/nP0pti78RKAC/gw6Gvy772D5cBII+KKisP4nH2z7gqhG+3MD2vwFMZz8Lt4m/3W8yQFcE1j9Dwgq/aCOgvpWMqD/qAbU/nAZ0Pt3vgL69Xow8EZicv+pkFj/G0+w/S6pfPXBPV78xd4Q/pmlpvsD6FT/FWN8/3//Sv15Pkj9tH0W/3ksTwLyYvL3NM/G8THPLvxP7LD4DJ6w/wTcgwNVWLz8LpJG/j7MAvziNXbzsQQM/uus4v+5qQj9TJby/KjxsP6WZz741hgQ/g1YTvmrxA7/R5yNAGVZtPxy5GT5a6T2/3oz6vQ5iJcC29Ba/cosEPUS6v78zG1u+eRORv7YDur74djG/Z6bCvvx2y760UH++e1e5PnWjQD84caO+nPuov1lzxT2OSpo/8XckPlXVMb7F2BA/5mrpv0R0Aj+ZQi0/kd2Qvjrwmj+Ly5i/80JJP3ubMj99tGO/J041P2iul7/xxuM9QtK/vhWBnz9kQQa/ceyfP8xcHD93KwRACRGzP6OorL+H4ATAcX+5vk0NaD6ZlBY/zqflPoEaLcDPYBW/f9rRPoqIlD9dq52+eS7YvxxWx74cXVXAEfILwMODVz8Xet0/pLxWv70N5j8ri6s+uqKAP2C33j8KsUo/FhP+vuWhIz/PBwBAY9QAP3dIkL9KyQHA3IIfO0ZPG76OVeC8YTpZv27LmD7SKEQ9jx6ePhF7GD+Ol+W+6jpBvtR2nT9Dqc0+PnCHP9e6VT8KObk9beImP+4hvb+PgFg+0gyAvfNIUz/QTIA/4q/AvyI6PD+l0pc/Pw+RPu+z3j62A6q/aBuyv63fi7+p/rs/PSGUP1zySr4++wk+xBjPv0I63L7/OxC+QElkvrX8lr9OyPa+g58Xv4rSpj/IcSc/7MrpvzSN37+rfhtAKWWJPyWTDj/tR1s/VKILP8ISPb2t4P++nxh3urKuAr/Y+Os/aBUNwCPQmD4NcOK+Pl1Vv7hqSr/I/qg9yn49Psst8D+uXeE+rFAyP3DBDz9A4Ui/n2ugvt/b5r9HxGI/acLVv5AumL8XWg8/lz85PjXLvT41eb0+ByqCP4P6KT9KV7U/8iJav5MiX7+EGfs/LYr3PvZdUT+SSF4+RYChP2Zbm7+wnOy+K55yvvtCcz5EzME+gn0LvyC1Lr8Ney0/p+LYPvSvDsAHU3y/P6lnP8SKlb8BGIS/s8EFvrSNVb2Ov5+/G2pcv0uFqr/SXYM/UV/GvrDoK78E7A0/aScqPgUTcz83OaA+rsuyvlIzu76c83u/MnGVPwb/DL8kN8C+d1bkv6trwr7Uovy9Er6xv10aEsCtSJE+z/7Bv8Lt7T+OxDo/PeEqv7dYXr8lUei/r44mv5kBK7/icK4/bFAMwPd0cD+ydUG+HJsRP1arzj2ERUg/Cg0cP0XBrL4Sbs2+dngavmkhNMA5jQTAFN1/vwPeh791O9m/r5eLvu2cbb9LGQlAtquGPsfNz7/ZPje/WiyWPqAPrL3ydWa/XDmBvQjHOD+9/A6/QB9wv6YFyL/rdsk/dTpQP3Q14r7xEfg+kFDMPwXrCD9u5mo+jBoxv8DdW7/q4gTA2Tm4P5BfVD2lYD/AUxMfPhimwL86ch0/", "lstm.weight_ih_l0": "S3QqPlOwiD7dFZK+89zfvS6Wij5EyGm9rzfxPUPsMr7rhoQ+76nCvV1At74+5k4+mbGoPTYFtz7AJaU90zX6PC8hkz6KiVA+cImAPazlET1uYzM9qyuSvvQlgT0wdnk+p4MmvUE8Ez7DHDE++bx/PmJ86T4hqUI+T6RhPTZSib03MI497NRKvrmU9T2DP5A9E1xQvoZGpb29FwS+OfG6vfSQar7kqdQ9lCa2PTbvNz7hdAa9HKAYvuUfTb7kkvi8w9KWvqgqZD6mQp4+AzqFvoud+T5HCII+jCj5Piw1dj25dYo+UytdPmdqAT4FoL+9iX6QPuumBD7HVB4/r4SFvln7BT4thy490uLrveqCGb7msYc+pPZfvgyL2z6Kd/E9pg62PtbYTT8J7DU8BS8fvocsFD21mfc9e+CKvXb81b3qAgC/cDikPeYqu778JMS+c34BPmuNpb4+QZe+6GGTPkRmnD7enhk+eG9KPnmNKj7HHGQ+VJCpPayQGr5gxb695PKUvftUg748BNS+Da1OvqQwVz43uKy9pmWKvty5Dj7IR40+Wcaxvc7CM7sZwdM85VPMPn92Br4Ry2S+NLZ+PskfyL6THiY+Gm2zO8A4wLnsQwA+8AXgvk3eY76RUmM+05Luvho/jD7WHKC++3QQPygiUD2vVFM+EICnvgAMUL7ZsTg95P2Ivihm8D1qPpo+TFaSPdASJT0XC5Y+ocXkvdGqXT1LljO7Ua1wPnCFbL5UJt69J/a5PiMg876VJHM+s5QJvtKXwL7LZIE9692BvQiZEz4HG5q+RsDQvdzrzr5swY0+qA4iPmoYhz4MAOE+OjhePpxKnT4Oh2E+/MFaPX0AaLyki5Y+XFixvfmL8r32Gf+9TXAqvQifYb4MuRe+Nh+jPdWCCb5xVzK+21cGvjTGtz3VSUc+7tOCvvq3o7we7oI9Fx2PPhIfVT4sZp69NtiAPjaMgT67+Oi94WCUPD9hIL7CWj0+ZmlLPL3Qmr4XJLK+47MivhiTk70a9P69pzwPvYtXqj58LHC8GGZavvm00z0V5cG++i0TPtZM8Dt6VvG8BStyPcPrZb5i2WQ9HvQiPij5Gby/+ou+SNWjven7KrzJrKY8cHrEvtFPvr1hjNs+KqdMvGmTrDwLCis+FfcVPmupBj9z2cu+4SrNPgCdwT6iaVU+v6GfvhqYIL42y4Y9RhkKvuXNWj7GfEy+MKaMPmpGPb+5bZC+XKKrvvdX7rtxG06+wi4LPjkRmD6zDoA9eVsRPS0/kr6PnbQ+t8ZSPrcFAD1t3Ko+ZOyPPVguCb2Q1is+muAFPgo2373Rxcc9K04fPhbDXj0ToKi+siuNPTCla74EtYg9IsioPuPGkr4ZJdO9SUf9vgMvjb4EZ7G+/rBlPo0gIT7am4C9gxILvrpqzjxdS2Y9u7WRve+AvT2K3P6+pu8kvYRgtjtEwjk+r/KkPdg6873iBSO+RGNwPkBHUD4jub++9lZDPM87mDw6G6q+VmQNPpf/gT5z8+S+IQWSPVUqwLzGS6a9zmCOPaxKqL06sAU9X0afvW9nGD44E0s+7jOGvSwTPj5tyCw+WJuUPWf/l770kCI+PhDDPoKcHj48VYc+9mwKvUwz873nGyU+wZs0Pk5xjL5b0JU+D1WWvYPqmj7pabW+rsiMvCfdxz2msug7j+N9PmGrAT+1/4M+PLgavpE/vL0N1Yk+Mt9Jvf5qqr3ruL0+sszBPbg+Aj2d1QI+Kv7svS3iAb5BOqI+y1prPohmEj4vvU+92PhdvuFLir7ziJK9LPgGPlmajT2riZA9qnk+PoMNV77DOHm++aLCPXSOVz28FQE+HuhSvhF0ST1iiFS+F+TXPSgAPL69u7k9XrSdvqu7Ez3JI5W+ZnSCvqSGBr97NqM8HP4cvfW46D5NbHA+zTmSPoVVfj5Gr1K+u95JvSQYT70u22i+5EZWvhTOx73Pbwq+uzCXvKv8rr0FLgk/Dnk9vh5siD6L/qm9gwkyveIbRr7aH6Y9KLTZPnEqSj5Ea5C+ea0Avq2Krb2JSeE9Uyq0vtlIjz0cGYo+FNLLPmxn7z4VmI++L4fivTJwpD7KNLE+c1xsvnQ4Ir66CWi+NgCrPW7N+D1u63y+6hkavcQ9NL76Fk27Kiz4PjCEBj5gryE9uaanvhr11btHMgA+mZu3vhZd7bzAmQ29QqbVu/RMsz5r8ZM+YYMivvgbALzfXaM8Bt4tPcZpST6JJms+ikLVPRiYR77cmIe+ZlWRvaCt1r0CZIC+TsfwPDkQ3b78O+q+0CiZPvt8gL5RlXc9v5m4vJtR67229WK91Bc7vlO9lz61G6K++esXvl3P/LyTYYy9C8qevojl5T2Algo/x3HSPWrjyT7nG0U+PRutvfrEsj6H1D8+3LlPPRL5Ez8WGSS+RZsKPicpQr6rfqK+Vq7TvkTKAb5slYW80jlNPlRCYj60/PQ+ws7YvEVt8zxmFqQ9gt1svUK50T5Oqs8+wtOQPib6Jb6yqG0+T7dDvgAqaT1Ld/U9F6G5vJFgmD5+E4A9aAuCvnnfrL4JsVI+jy4AvQMvpb1odb8+2Oiuvr8Mrz7AsOW8559pvTLGnz3n7d29ebO0vnT5LT6vMU698KwFPko2wD0uKfE96H5wPl0UbD2j3Yy+K2ntPBSTTj6quh09zal1vv/Jzj0DnVW8kjElvlzgnz7Bmjk+1My8vsNrujzV8tW9vgO0vuu5zD1xnQa+r61DPMgJHL2lLeO990rtvfQK577TCow+q0aFPC3d+T2LWNK99saxvToEgDypAOQ+DIqyvZQrA76yTwe+S172vB/MBjvfxG0+Vwaovp/npD3VwHs+we/BvVncJ74Zfx++7dcIPfNbob62BVE9XLGGvbClCrwQSlg+QCvTPnLpSb5z4QG7K5oVvvM+SD5JVP69SvOkPEM7lz1hze6+LEJ4vh1Yfz7W4Ls+O8CpPRsyoT3WZym+mxmFvav5+701Iqk9/+zLvE0n6z04YcY9WO2WPprtor73DZ69t2CQPmP6Bb56bg8+itExvf5tfj4mcHm9uUFTPaNARb0H6py+FSXOPuYRxTuWTIY+d3uivgeBAr/jXqQ+1JMhvhY+Ob7aaxE+JAVEPhDYnL0wvhW+7eKdPlJZWj5Ec9g+VcY3PurSMj42Wia8wikSPoZRIb+vxEM+q1Cyvina7T21D0Q9A00kv5cVd74Ow6k9wcvEvsfNjb6tUH+9kmSivWuuKL4uz749lr20PRosdjx25YU+2zYzvmA9WbdSuAa/eEVLvY4MmT7mr7e8Kjp6PkbtKrzKCiU+UjHjPbMFrr4KM3U+9NDbPoSGLz3ZpCk+Xm6YvFl1sj6wDVU+OI9uvZT9b76IRUM9VdGNPonVmz1ePwM+AwPbPtIKcT6J9KE9TFJyPpIjiT4OibM+8j8dvtZHB76gkYu+2n8Fv7NXuT0JuZg+X8fmvjErIL7Dfjk/8Qa3PX/a0j0qA1g+nTWmPab6Nr66/Ae/ftlGPdPTez5EPcO6k+EAvrmDDL4bdsY9AqqWPgOSkT5ZMlI+A3bEvvFhL75mZIA+TCI4vTn3zD72URu9ttZbPmEwDD6CTe6+PAshvpQ1zD6sDZa+CIfQPWrZVz6nakK+aQw4PSYdYb46oiw9GEefPubjYD2l5jQ/d+VqPmTGAD2+bJM+mzacPRstrL1GXpo9T+GbvgUWiT712es+6RqWvmzxhz76Ooc+DuCnPi0WlD5szKo+2YJmPVzcqr0x8GU+gWHCvmFv9T1+Mfu9ObKJvEFidT4kMZq9hypOvloKmz4w/EY+h7kpPpD60T4lBYu+saATPrYpjr5r7R0+m+V+vsYqub5T7ik+F/KjPqbYhD2vLOO+/5eyPiIGWjwMA/o+96m3vpemrL10aey+eRu0PgcztT3Yao87njcGv9SVvLqoW86+IQA/PsqPXz4uNG2+2BMfPguQxL6AZZG+HtFeO6D8Zb6PpIq98S+KPDKKWL6gDEK9ogcGvsRttr6fnQg+pVPxPZKGGD58Axa93WiJPuLTVL6xhPW+bhB/PbcqR758TSE9mrt7PIZcGb7HrZ29CRcBvb305D0q2oS+N2t5vEPGbj6YbRo+dUMDvXbsLD4oBme+2WClPablNL5E+1M9I7vWvvkikj7KeIe9Vv4kPTQPTD3loYU+7wSUPieonL6kBq08cokxvjrpVz6OYq49NAcsvur9oD5+A6S9Oe82PrPE9j7PZL09H54pPb24uTwKtOS8ojCsPLj8Jj4s5Ei+RgjxvCezMz0HSiE+gZWVPvB/KD4WqqO8ZM3Cvdl9pT481dY82BaZPaPdjT5BtZa9k7PCPbjfEb3YF8E+1Ba7vJQIhTsYMH48AC0FvkzOgj7YH72+ZbWCvenTGb7IETM8E3aAPgV4mr4px8g+YWSmvjVeqz275A8+HBQYPG1tMT9bIC4+yZfTPdAWLL6n9rw+8vE4PLSi9rsh86A+mhmovj9guL62RN8+lpm8PYAfczqdvAO+GDwfPYVH3bx9KJS+rFdiPR4aZj4FTkW/DyatPnQXkj2FVGc+e0mlPcZD8j5a8m++uhDeveHEIj6wotc7kv0+vh8fez7oBkc+PqZavTGOoD7sklw90CUsviFpcr6U9aM+2zaTvb36FD0QPW89wLYUPiZGgb5RqjC8xMBCvrmODT510ZC9GkA2PVGXeD6nnm29vXwoviJtMT6to2E9X1HHvQHoKr5GI1U+WCWfPZPbgz5vGuw95NlavjcAhb6z3Ak+MCyjvuNbAD/6V5S+h1/IvgVA4L5T4OA9DeCVvtVRwz70Eqk+QsHMu50ojj6C7qE9qPD5OyJQRL5dHio908lTPM9C0z506CC+ERZsPhyp+DtJv7Q+WiqtvfrMLT6OW8s+BLSnPq+qmj5AfhQ+4hhcvkTfpT0JFqI89rmOvhsLq714m1w9YmlBvYT0WL6RpMG+lt9svrET6T3wKLo9DXK1PupIRL7l9pY+5mFlPNJ/t7obxIW9HD+zvjK/Br9PlY69ULMEvULJEb5lHDw+7lSlPSqz1ztWrus9d82yvrJWMb78bo+832gxvis4mL4JVNc8RFFRPXNdkL01bGq+cj/9vWkqsL0aA5Q+oKDBPU64VD5FQCi98T1fPprSLb6fzau9xx98vgzmZz7IklM9c0DlvdlO676MCx+92bKpPWZSkr5QWfE9sfmTPoQDKj7bNxa+HCaPvpj8BD0t1aQ+Voc5PLaITrveNTM+1Tl/PSoIBz9aCDY+6CqUPTJYSj3+V6++3ZOgvutF3T1cXDO+FZ53vpg4gz1spZI+l7+SvgYDrD7i6FA+DPtVPg5yEr59w02+4htVPI5sDj6vmDc9s6bcvSi6SL7ZSLs+FhEkPlrEsT64Zjo9B0PMvih2e71qE3e+WwuyvR7ppj6qNRC/qCNEPmcbeb4iYKM+1CvqutGG0T3E+q89ccswPju/kj1KXsE9j7lRvpLjBT1cT769mRQZv40SyT7aTGO+7K7AvlztLr3eRUO+Zr+ZPR7Djr2wNIM+W+FTvvnpAb7cm3A+8VFKPZdktDx+o/49L5abPlbDVL74UZm+YEOmPnZlQL44X+u9n+noPmK8mj5y/A++168NPeE8JLxreau+bQSHPZIo3b69cWS+FX4kv6Ql/D4rjG++m6g2PrJgEb6mq9O+8gCpveRaWL5wvXo98x/dPVS/Vb6/dyk+oF3Fvjz1DD/y1ZA+sxOPvaWhhLxx3ba+XQAvPpTBm74CfN490PhAvrSL3D3lIJ48LuFvPpKPwj7rLls+Vo/mu35Iq76I1xu+eWBMPRkxYz6kn8A8W0zRPlpDSL4zgVO+kSixPgTYvr7e/FM+OFwuvtl8i76+yuc+Rwb6vVH0+76OkUG+TTMwvhtPcL7Z+FQ8APM0PaS4oT6Au7s+IJXAvsb0Mj6YrxY+zMyPPm19AT3W2fA9s4nevT4dJr7ItFC+Vul1PgUHvj1VQ8Y9oadTPTVx7rxvYvs+T5QGv1ThQr63XM2+lO+GvZIo1j4juZm9bta4vZ66oz2sgoC+PjzpPNjTgr19Tmk+Wd1NvmHN4b1LVCo+x+LQPTZBkj7fB5O+NX82PptaQj6YD8k9il5NPjNeuT0yfVu+13uGPkP4Sb6Er7m+3pvbvuX7YjzlgBs+llwDvhB4Hj7Vyca9cnQhvlAHzT7fePk99KuFvp8gwbw2FGm9dU2OPkIZFL6qFna8QQTjPeihnr3t+Yq+cYlJviZ7hj7nDaG9yuNePT23k76/+So93rnIuozICT0/t0o9u3vWPsL3Qz4EqmI+4MRgPqh1Bz7FP6A8LfpjPaOEzD0KeN+9J0OtvUubjz5yqus9IJobvR0FYz2pxNC9Q12LvuY2qj2d56e+5wQRPoT+ozwHWtc8p05HvRYpsT25z8q+/4WavtzXpT2+Iq2+v80LPluO7D1ReqI++D0iPcnQST6bdNY8CkjBPXcygz4qWgs+s6hJPRq6ED1Q8fW9qzLRPqd/oj7HwAk+li4NPsaIyj0u5yQ+Bh6WvfiYQL3tgFG+9COpPnUSsr58JVi65XcOvoXcnr6HSVg+fbTSvlzbsD7wZxe++/VevGksr75LJwO+t1OPvmwlu76P0B0+fGPTPIQV8DwhFsk+hcywPYj5zr2UyQi9AVHUvUABfb7ay/G+y61vPWb7HL5tGYm+y3xsvQJGm74X9do9Ws+DvpOGJT6L3c4+APLwPhl4hz7eILK9RdsXvgOyAD6hIzA+rIOtvVg5Bz7r7nm+JbwLPqlkwr446rM9TnmFvmKOHz4/tJo+tWr4PcrRib6V9s89Fk6mvchn+b169NM9M6zyvrzhND4BNOA+D3iCvm4/iD7HICw+iVhzvo56Iz5RB8w+9TARvhiljL3zr8I9xeGtPNo0Oz7r0ia+4tXfPeQYmT6HD3g9RyzhvtI6kLyVXie+45UhvuXuVT7sNwM/kZNXvp7+b72ymJg+8dLZPjGEkj047U6+KjcePfpUVL7wOI6+Q3eFPbbwtTw1vtM9bjoJvp8KWj6tmCQ+m07SvnvCdL5ln2k+CfTCvEfjGb70p1Q+lkMevlbJE741ct+7UxJzPG6Rd75pYHY9UP+avvPImbzlD489/aGlvjSPxb2OxCS+b45zPrDVOD5fFKu++q55PvuRGTxLXyw9vkxhvioq8L32uwa+DNqSvn+qHT7AcBy96ej7vdYIgb76UYw+/xeLPupLFj7Wsx6+8BpxvljFgj7djfw9AV4BPlAKOzx0tnm+8cszPvyzoL4c5n89tkk8vXsYqr4ReA2+Y+9VvvYApb7k8oq8RXH/vrCdIj7soY89086qPfo9oT6Lbx6+rkhBPnEgPD3Sy/q8vcN7vlDSdL6pmAy+ez+rPPYwDz5BDSs+AsTivTilOr7vpq69bqd7PqOZpb386Wk9B6prPeeRrT1KcsI82pn1uc8wE74wP4E9+guVPIsQ471a4kW9qSDRPU6kfT0DjSw+ZaOGPPxnoT5ZUIQ901JsPBAnXL0O4Lc93oLmPsdp1j61f3g+YejXvkFMvr5k/dA8nf0cv+tJBL/0oaQ+H02JPQkGiT1gfLW9e3r1PU9EGT01A9a9hKeHvvtNir2RP4g+NMytvtKbA789pLW+0WIiPpzukT4rdX2+JMcEv9i4F75uzD29Jk03vWzlNT7+XoO+gyf9vZjaW77oxUS+FNUYv2R0Bj6TL3E+Qk4KP0vJPr15sAU+UgjgvlCuaj4iYTw9sRtdPZnMS76YEQA+hfQ9vsPbPL3a/14+PsjDPHO8Qr7AODu9umXgvdTHWb2n6iw+bSWPvGPGvT0fw1Y+xurSPB+G2z1HdUk+timfvgdP1b5nnnS9iT6/vhKVXD6AxiI/NjYDvh4yyr7liFU+hOdRPRpTXb6220Y+PqwfvDBjib2/CJS9xqEAvsKZ/L7Yeoa9/EvtvgOxa71M6FU9MqGfPVwpx70by+w9g/OFvkdSqb3leaI9pANoPS6Bkz26AUu9hchYPeNRgz2IHLU9KLIuPnOyAz4V2x++jBnTvmKS+L0bt0U+7c9TPQS3CDypuAy+C9cjvhopED4xXP+9vJmNvfdmnL5Qr+49R2yaPqshFb5mZp6+1BmWPsCkTr5k1v4+hZ3Tvhr5Hz5G8D4+kAqlvotwL762xsk+AHYiPj/hhz5w4hk+oHAZPxcDQr6It6a+oi43vsRxQr8O7ou+hNm0vFADKD6I/4y+Xe5wvj0+1L2JDq8+0TCaPetMHr7A1aG9IPrevjnsrj1f8He8UgDmPaJsET7m0ps7D0oWPk24oT2+NQm+1qR/Pnguhr5U6xe8hLQLv5NcI7+2AqC9DOLUPqR91T2h5x2+nMTYPchWIj4oub2+VGWzvnEaAj4K0Tq+3FgePMLFTT0C7G89H/vZvSLhtz0eJS4+IQ/cvqzglr6rF0K+a8J2PVJTHb6UtBc+vndOPj5/kD410Rg+QPJ8vochnr7sb6W+cp40vmzoK7y+6NA82Mm5PB/bAj5tVx++MCV3vmOjzz6ylNM9K7hwPqF/Ij4TVcs7xd5wvlxYDD69oJg9FXXmvjpnpj3rpl0+YnPguvQMCDxreee9SgKuPVZe1r4qSGS8ZxlEPnI+nT7DaXq+6aPAvvgRmr0FU4Q9rs1tPh/gdb2Kf1G6ABJjPi0ktrr6kgS+XEnpvf+mRz47vJC9IiSTvEXCgz4blHE+1OwUPk6MKj6aU7q+FkQYPUksfj7CWGc+sbAQPg8dXr45Z5W+YRKcPoiqcb6jxye++y9PvsRWHD6tIxi/hDZwPkm7AL7in3E+lUgmPuUlsL5j0f8+1oNvPcgagT0hR1w8TUgIPcA+Zz5rB2q8veGqPU5Mmz31t1s+GkAlvjnIlL6yoBU/7kHjvgIpSj4y9N076fskPa/5Wr7lKgQ+5kO7vlkA5L6Ce3q8RrjYvSLbQj7RQcW+lq2RO4L7Ib0GZ7O91QTVPVrjjT2ju3y+0DXavQ9nxT2+2vy+lxE2vKnfAj2u1zG+NxQxvoCedr0oqbY9+a+FPp7qm717iqy9vGmtvXJPir4tRjI+1pGnPmhZYL5Q+A8+FdLFPMMTPT1JnJA+AOKGPJzzPj3wgro8ip5DPpsy+T1k3RA+EuA6PlGzHL2bipY8ozzhvbDaFD3sHys+SsSAPueGk76UzPq8d4KfvtGziT4j3FQ+JHpMPq3bID4veFC+lGEsPgX2Db7wep4+EcIMvxP+CD2rq7o+SK1ePSQ7nD0yG+s9Hdb1PI70zz6bu6o+JPICvSLMkz4Uhho7YSEtvkyTRzvh3OI9tj9VvuelZL0Zmo6+xPDFPRqRXj1xU6o9Vp6tvlW7FT17e7M+5PsyPatNdr62LKG+U+g8PrZ/Tz6KTxw+g3VlvERhq7yUMK2+rK5rPhcVu7w0tO29flLZPDlI8TyYXmQ+R8OJvpxTrz4pHh6+aZOQPdZqaD6iIzk+1xLuvv4k475Pmnw+qJE+vf2nBr7ggeM+7w0CvnhXWz7mh2A6y9AnvXJ5mD1OmhI+T6smvnY1x71waaW+wVz0PYYr+Dx3eZ49jQ8iv3z8gD7C2tY9zVc0PkvBQb0sppU+Y8LsPVUZXb4wRww9tIyzPSAaMr42+ca5p3oDvW2ZnT6K4d49VYQmvqIRC739PEq+xBy5PcBt4L6O2s09Sqm8PjdE37yY9Qe+z+aPPj+7UL2y8D8+Hw84vQ2/AL/xM22+/eddvv9H271Wism+6DGoPYp/2L3VtIc+767ivlGHXL4/ihI9u7nBu4VUh715Nsu957gLvkZ5AL0U7NW9wNacPriXAD3pZY+9V7OhvVpvbD4nSyI9r76Nu3Ofor6tSDm+VnMSPkvhtT1xtrS9/tABv155wL6g77u7K3uJvhShyzrCsjm+FV3wPStz9z2VuBS+9C+DPHmtXz48I4490cW2vTceDb+Gur+9ZX8wvP8UuD7ftXS+i3fNvgSxUb3vACc+ymDKvpSXVD4XRGM+DJ3YPlSibD6u/ww+pcKbvie4iz6yfxg932g5PcFcUD7sCTi+QTbmPVidvb5Op687KAYyvII1kL7sWXS90tIEPmdAFT6nQPc9D+3OvkZIaDtucd0+TwG5vXFrdD7md5s++N1ivrwAsbmDham+HDgDvo6CQ71GU/09dyJpPWb3OT6CoYM+4W0QvXosd74B2Qe/olbavt6v6D0neQk/UnbLPRx4jj0Xyuq9FplEvq5SV708L+K9DH6OPvtCBLz5gnK9mCATveYDv721SXi+WSHOvhoMHL1tHEy+FYCMPuhaLz5ojIQ+5LHHPWvQQz4DuAg94DrhvaW+QL0Evi8+nZhRPqtjFr+6iYu+aWRhPu22gT6s2nM6LCQ2PIf5FL6IVAO+N2WOPq6WLj5Taru8DKf7PUwUj75z13c9VTdPvi5qhL6YF/y+Fss3vocYUD4DBb0+JDcUPvr9jj6vgLM9VO6JvuLQ1LwcpUe6c2Upvaw+Sj6uu6M8MMTLPmrdOz4E3qS9zFhEPg51Zb5S4gM+7/lfPg77ST7nT+O8sPD9PYR6Ez3E5vk8V/8JPthbijoyynm+HxiXPArg+T1Mzps+EbqrPDInzT3fsaM943c1vtbicD5C3qW9aCe4PhmNj72Y9zM+BlVcPVwtgj2dhGS+iVeBPsODg74mtYM+GdWavvaaxjwa3LE9Ro9dvfHApD0Sjxc+YL6sPbtbED7ze5G7kQcNPmGYJT31K5O9P3cfvRkbV70eOwm+MP/IvRecnb361xs9LBJ+vbeCcb6wzeS+8H3YPH0vX770sI6+KIYlPfw0kT0D6uY9hzihvny71r0j5Wk+ItAIvSV8Ej4oclc9V2qrvO/knz4XT88+JglvPlKIM75FQWW9pk/WvkZGUT5BZe+9KkGrvsl1WD5QmZS+mmCBvUXOQz6aDa+7K2LpPYvhxr7c/QO/jsftPc8SAT9XnR8+xSjgPY90p7xWawq/HZZGvi/eiT5VKRk+uvmIvnpasj6xFXs+q78QP1PR175HciY+Bn6OPmY5Rrxvr7G++rxjPlH8cT1jUqu8+etnPoFsfL4MJ0A95tLUvQjTfT36SJm+WEDNvn2Ojb1eFC688UFjPjHRVj4WxU08GeUdvknfPz0XlhK+kk80PueUZT7EExM9DU+UPgMASj7wfk4+B6w5PgFzC77PQGK+NaqCvjNjrrvL7Z6+Q1b/vDCJiT51B/w9yEvPPBchWz14nnk+SVxmPlMJR7+2x1i+0yQOv5ZyXz0XuJC+7LcDPiKe0D5zLHq+emzJPTmO+b4sh7M9fLyivjmGLD5m3Oq93dxKPgm/7L1Uyg4+N72UPkF4FL0pmq09kf5HPUN2ID49ZEU+KgeqPhX4mL4O4tA9MY2FvpMu0b2GyLY96VOsPGYfzr5dzdo8mYWYPdejwD2uho493KTfPB+sKj7s5U0+R8BJvjKOEr7pz/k8UtOzvb47qj2jlH4+AaWgPtzpYj57o2A+3wIavs2Cb72m/iC+a4fkvV6rDD/WVXW+kBSMPhLWFD4c9he+Shp7vimlPz7pNLm9FBMUvro4LT2TmiM+tDgjvvAybL32mzA+EmCfvcLyTr0hbX8+2ULTPnV6ab7ZoVU+5JYSPt8pFD8aWhw+5BHlvSfDMr6lBii9wKWAPTdMmz4v0CW+Yi+lvu7n0z1NG9I9OLEGPtqQEz7w7oi925IRPVLv6j4ZGLM9NrqFPoaLSL7aqjG+6+cEvd1ZCz9nRtK+LtNIPgczjb5DP6q9s0sTPhYdbD5JxV6+8tNaPgC1S71/eWO92nOvPN1QGr4cRg8+9bExvkIZar7f3CS+Dpe3PpKVD79X/qw++tWGvgfTqL7YzsK9BwS7vZISW76tsnC9CP46vsc+Kb6zI5K+CeZPvvEPlL5SzeY9THJdvrz2ob4GR5++7hETPiseJT7v+cg+UTToPcbYgT4SoB2+gKRFvm/Arr7P3+C+eIVqPhEh5j2O5Do+brcMPJnDnb6UORC+HsByPDMZBj4NZsA+NfFXvhJQQL59FAq+eCQyPgtyyzzaR7S9mfvhvJykgT4OH1Q+7oQVvqUsJT4hK1M+VnbhvVVg5r5tedM8QTxFPsyOT76s0YW+QaZFvnoItr2HFE0+sxjkvIVA+T5liUg+RP3QvItzVb0XICS+EwnkvhotxD2iedU+cKEPPsDcOD6Om40+P5nqvfol6jyogO08ie+svm7wOz6uK6S+vmWVvUXk9D18o7i+WH+nPp3k0L3HRN29q+rcOy1ZqL6oG6++rBO9PkG/NT6GP6O+HuiYvmfnHz1yX+K+BMtkvTDfsL7wuzu7tb1RvpuAjL7KmWM+uQuLvNZQb77pnQE90mynvgSjvT0XvQG+jgiAvI5Evz5kW6s+L7F4vNKINL4aQpY+wdUXPoKoFLxceqS9wyHEvja9vL2g4Q+94ZyDvqMITz6++nY+FmkIv+8Pe76YOI++k6t+PtthUL3Rigm+BvHJvhhmt7xL//u9c410PkDTxT0fuRA+3qdMPpwppz4gBze+Hi2VPQKPET8UVsq9fyxqPswrSz05bNi987KNvQ15Lr4P4BQ+h+apvp/3Nb5IdLE+lhravXHwqD7Ve7Q+YbtHPfUY2b1ZZV++Ga0OPqQrJ7nqRPw9ZvEvPgn+UT5TXz69xrQlPjWllL1bIwQ/FuQ3PUOA+rxKDUs9wzIePlbhdL58CW4+K6oJvo4s+72D5hS/YRLcPv/z+z3ChVW94oXZPiIRpr6T9JE8WpxUPSxcCj3nA1Y8xnAaPgo9Oz4nQK8+p7jSvmpGEz++fQI+6zXVPa/nJz7mie++lZxyvn9FoT5Iik86WCbpPcW+mj5a7v2+SpdsvRpWYzwz9de9AmU8Pi8emL4o3hq7Pn8TvsXTRT016wI+KqOXPa6ikT73knQ+WanFPfxzsT5uQwU/KgAOv4X8kjvuzks+NzQ7PShiWT4o+No9TuPDPSWhZj594HW+nkbYvNOerr6WMYi+pEClvQCLPr51JIu+JzL5PNAcLj7hA/I8GKiDvijESb48uj6+XoHxvfAv0j3uXw6+d9IJP9SNhj53cg29W8ghPh+uxb3CuzO9RTebvLNO+z2yP+68HhS3PGMNJj4AMAI4kiCMvTD3hD1/t6E+SzsRPtXLkT4aQEO8AW2OPK8brT7Q39A94jYtP7IWGL76uJ0+4X+zvqbZv77v94090wvDvgjqq725Ls8+qeEsPsWO+L1FVBM/B3gIPnqZsr6ybbC9RcnMvsezTz4n3RM+z3rLvRDrHz6+5hA8tf3zvR8rYD6pzfk9idZHvobkkT3U27U+b7x1vf0Ci707iBq+MKGDPvRppb7GYtG+J28OvqvuHr5QWn6+t15jPSKDDLzy6JE+eiogPsgot75/8/M9jiEAPvJe/z1gRos+Ju2svTT/rL4Hxc49k0frPurzrT6sj5c+Mr+ZvphLJrvJVc49XhDSvgxh0L6R7wW+l0QZP3n9az4wCKI9ic2cvsIrjb5185s7j8mTvkEvsD4pmk29scBbvCiaRL4toLY+y9uNvrMMn767ZVS+d6wkPmEzR7326P46tfp+vkS/or5pRLk9YT3dPS8VCr1jfUe+N6i8Plq4Eb7ImwI+WU3MvdcOmLtgPG09bbKPvnnTIz5Gu5Q9p+bqPruHDj/KgoU+F9CFvbWlej7l80m90GtcvgJjl72+zUu+vsF4vddCrT6VqZc9bhKdvlcifr6PGYO6sNPgPSzf2j11VWA+60fPPr2aDD5mnxs+WZzaPdfvub28G6K98Ngavhc3bb6oNjS+GhisPN17sT7gqhM/cwNbPe8Nnj0sAe0+hucYvgvf776Tq5q9UydEPpG2JL4iiDy+m/aevu3Lqz6gvPS88JXuvoXdqr35J1m+f3BlPGHLg71TlME+Z2eXvjgLub2HyRk8WtrfvUQZO7475LI9O5tiO4yEkT5soC8+PvnRPQHsTb4+g7k9dYt9vqIx1r2qK0C+vzF6Pj/P2j1TyTG+CIjDva/5Cz999LA+YASzu/0Lor6grg6+E47APWkzIL9dBqy9rc53vQprIrxtovY9o77tPvoQjj2els69NGT2vVFSgT7i9wg+B0QSPq53Dj+eVnu9+u0Lvb+nQj4SUge/COemvZjA7TkwxYG+6xacPoGGDb+xLSS+Vv2kPoxXBT8ilPG6XLgcPjvuaT4tbXA+lV1BvrZJtj08UBw8VnqIvvhylT4vKZU+B2VEvTJ9oD7mvNU9LAkdPkH0K75dWT8+WbXAPg2kLj5FurE+5D6Qvj8Dpb4Nvwq9EEOGvtBJmb79M4y+KD9evp9GJL6BVAk+qs7gvFg9BD7zCUI8PBv7PVTVAD5ox8a+p81yvlvOIb6VIJ+90hhfvszCCz9o+Gy+8hnOPjjisD7Hy+4+8fY0PSKSJj6EKlA+0fkhPYNh1jx4HIE+L684PYkmcr04Gcu9yWzgPbEGjL7WC449SJkSviGBkT6rYq++u/cDPrizyz1ZipA7IIPYPZakND504vQ9fTrtPSorajol2HW+40wsPX7mfr7tW7q8RdPAPpOWjb2VGXk+p9i9Pt5EHL5auGG+EqIfPtN5jb41WsC+/w0JPcyIcT3cd7w+Fh+uPbVdaD4UsAc/8/RIPsXgqT7CQ0q9T/AqPv9Oib4aF708fGXWPj9XUD5B0va9ce8bPFibpT7tqZw9N4w5O6GdHD4dxEg9DSThvj6xnD7/MBS+ci3YunHJIL7S7B0+UaO8PVTOpD7ICKS9pPLGPbEdXbwnomY++zKOvMJCSr4M8DY/t77svolRuL3Lnsk8xTFDPF+0rb6tzJK++0FxPhJoNzzi2Cm9UDlMvdAmArwoC+q9cOmavhCVFL6iIvC8QDKZvblTUr4CwUc+btiBPcHdmr5zJ3091dGMvk1Hjr7ajiw+8Os3vzL4jbwVatA9LMHXPkVFrL6s/Bw9B1K6vkghm75DMMQ+FRpQvvuRQz4Pf5W9/0RUviDiO757dZo9XH91PlO3Br1d+1M+DCMRvi/tuT6efwo9/tq4vZ/9P7xzZym+E9hHPUUu6b1c4C4+EaTLvrBTwbnyh3M+JwvLPuWUgb68UFG+iNAKPVm1kzty58i9legLPr0KJz50jjg96YzJPqGd7D3J0BM9vOyyvTUHxr0Eeay+zWebPSBQLT6XWBM+Lk4ZvVQB1L1NSOk99hSgPmNSKD7D58+9+hQ/PuSAlT4JpgA+Ik0wvudCQz2oQc08l72VPrIVB738j7Q+klc1vpwjdbwFKow+iKBmPlVsrjy+na4++xmWPZDIjD4wOaA9+iWnvbEDAr4uLx2+iL4PPQORmj1/Ub8+xozzPUMho70zThM+0SbpvqEZgz4kWgE7I2sJvshYdj4G+G4+RRHQvmUKZT7m47A++khEPF33vj1jsSS9wDsTvkbfsj1uiM+9TDVkvhAHOb2X5jO+qmLRPQhwhb6lIYI+NmlcvQGm2T4It1g9jyozPq5j5b0uDo+9WfRGvua0lD38GNi7ZOdkPYr0sD3Q1DW9F4c0vuS5Dz2Sq1a8f/uuPTIxhT5vs6a+0T2jOyLKDb9AQKK+Vk+9O5nIjL32b/Q9KQ6lPS6dtDza+ny7nhe3vSVfvb6EITg+Fg6LvsC+F77a/ke9gN9SPoPU5j0ToAQ+bMvxviR9mb524OS+WWgyPqSpoL1xjty9vuY4PlLfyr5KL7g8MQ17vSLZeL5qdBi+U4BBvkPW9T2nQ1++yoYPv3Ogq77V0Du+ms4EP/8P4b2oEmO9+vPlPs2Ejj0srSU+73B6PlLVGD4ZkCQ+lIgyvt+urj5axSq9s8KdPSTp/j0VUKO9XruoPehcRDyjr20+Y0ShvleJyLzudai+zz+aPAQsqz30HXq+PW9KPRwlAz4IvD4++4B6PV4fgT098ZG7joHCPfG8H75Xogo+z/xPvaUVfD0Dgui9IHZIvZXV+r4odRi+XQesPvDOeD6C/0S9sx0yPpHWKj7zUKG97dofvXUIGb6s6mK9HZbZvQ0AYj7St5S+wIwmvX6sQb7Xp8M+yGrqvPKel70wb1s6mx80vQlPoj7aR/6+xTHyPAfLPb9ZqW0+VIS+PSSCT7wAU+4+TgMKPGtHAb5L9xU7pxoPvm4Ioj1okq49xkKRPbKBQD7KQH++Y3X1uwpKEz521cM9ro7wvN62Fj1dazK+xS87voDHyz1fCOI8zPUZvhRUpT4mivg9EPsnvU2se7wQqIs+H3QCvNcM6L206/4885t+vUxylD02AkO+KGEMPjMcjT6s6JU94KCNvteZszyTdz2+T7JGvqwmmD30H8W9wWvtPX3ejD2B1oC+dgHMPkJtAL43fta+5Zj7PaFOG76PavO9HDTHvYXpFr76MQy/t2a1vsyNOL5ObkO9tMg7vqfeZj5eXmA+9DQAvp3+lD6XxOo+vlstPii+Vb6wmiw+zPUTPldgBDz7sGw8uCRdvjK0mj7YYYu+3qDYPlEfIj0VsDG9NPcHP+5nbD5V2oa+lOT9vrtQ6z0YzNO9qILBvtTRID6mOog+F2HLvQ4hOD7Fp849TSGfPRqtSz41EHQ+3S/tvWTRnz6WfLe+YKpGPmMUBDzFxXA+KfdNvpo1g75gNcg9l+dyvQyULL8ZZr++xVtLPgFzHj7GFze+8g4EPtdhBD7POq4948ZEPT1ofr5n9BQ+CJePvVVkwr4qggq9pTcIPjTTGz5EzBQ/cbNVvY3vAD6COqU+jNlAPv1mSj7wfJw+IPIEvvjL3j3c2XU8vgocPm0+Jz5dJIo9ziSRPRy8RL47VjK+dStWvoymbD7E3ii8Aa6EPtemjz0N/gO+ai0+voYDfr6Bics854oovqEyGb7B5jy+uyY1PkNZTD7qNKG+VM4OvrfyEz7Qwha+8CtfvZi8Uz4sEHc+7LmVvJtXaL5bfiO+cylsvjUT3T5XJ5I9m0QGPkQ2kD0+Wy8+yxsPvJtOJj5pUjA8btcWPgOk372j/Jg9UFpdPnLsiz7giY8+voRbPqUMzj5+5po9918MvmCcEb5aLGg9FtyQvpa4vz4d+l89MrXPvjV+lryz94c99jEvva+uJj4DUrc+y08wPhZO+DwbsCY+e5pTvfNeRL7PSaS+8ItHPv2dPz029wS/PkKDvjCR673y3pE9tS+jPcqWNj6x5m6+oiOrvux/oL6o1469+O6evbsn6T2AQ/A8XM+4PRR+Fz4loBC+wIsEvhXBCr5ldZm+woTsPUkfEL1N7aO+a3F4vTuKfD4OsoS+EleePc96kj4bfIU+p2FevfZxLz49jwC87wrmvQEXLT1qrec+KjEtPqQWuD6mWTa8zVgHvvEIaT3H7QY9QWxSPiSaJj6axBs9xaL4Pf1YLD5di+E9buaoPV/bt75qpw4+mIeDPb2F1T40sV69EfObPhOm3Dyuyv++kBJ5PfqJwL08X6M+q9QvPlIt+j1MXvE9kP1XPb46BT9UkXM+KI05vlg6Tb6kWZq9J08UPTNGw760y0W+pgC1vYmaIb7BLAG+4SsHPoomtD1+UW+7lxz6vbRbEj5bgvK63njlPSsxFj1M95S6vnfEvWCRxj2wM389OTeHPgrWPD62vL29K3q/vAXa4D27QvO+OLGbPjuRnDwABeQ+M+CLvr9EAL5LVro+XxRGPcl4ZT7RL6c+jSF5vnnTRTw5WbS9TeskP+3Jib57SPa+0MqLvhCXwD4i92W+Hmb+Phyomr1mHnA+rQgGvoLkGz5BONq9MWcCvZTsq77XkMK8ODxcPla2MD2NHm08tT/LPasetzwFMAI/fu76PQJp5b0zBi0+VrlZvhCa4z7Tw3I+WSKoPQcTert2K4A+upOAPuhQRD7ZKcY+X0EGvtKklju8Upq+bVkwPjhVqbt/6hU+DGsWvnaH270uIdC+X0+KPvvakT2AfOI8bdKiPqdrlrx9UlQ+Egr7PJk5hz6a/oi+cigxPjgiKj4H+I08+K2Kvpm2CD44cwi+HQJ6vp+CJr4auwQ/v70dPhfxXj2lwYC+OnjoPWLqMrvaINA9UGsRvWpeYT3YcYa+TW2AvlQ5jr4nWIq+ne8mPVjJyz1RiSa+4a89v/61fj4WVi48SS8pvngkIDp2BRQ9tOw9vg+kN77Pga+9SLovPsb6ML0IaYi+VZM7vi//iT2PzaW+KCgCv77V6T0kd8s9Ly4mviEGjT56XSC+1C6+PqCE5b52TF086Q6IPmqvGT5VTKI+5LKxvkQIOr7Xgag8vdM0vpOAHT7Oc1M89LLuvkxzfr6Izz+8/EM3PCe8ob5Rx0A+cfmOvINrHT4v5CO/BBqOvTZyUT58NeI91Qhfvkq9h74WUZa+48axvTOglzxwhjY+cVwCPxS/XL3W0B+9zeemvfV8VT70eYQ9/GbcPuDxYz4a0Ru+FomLvDMI0L2YOwi/kb5TvX5mX77L1Re8I29Mvg8sZj4lxbq90W9CvlA18LwalLO91mo7Psyy6L5ZmIm9Q20Bvqp2Ej546b6+0YloveyZvj1fOe8+Ml9Xvjorhb5WAMU+4utOvm66FL4Yrvs9yxE/viSUTr44a6G+wAOmvBtYgj2WgS4/nuIEP/vNo74tVEG9wWD2PXJcAb1m3Nm+rosHP0Lqgb5KNmm+OZOwvqeOKL5erHA91gqIvjj2jD1dLQM/0wdXvmUCrD2VQrI+J+8KvrdeDz2gcOw8BpksPk6D7L7Ulao96KpiPnDZgzzOZcU+3AaRPTlxiz40RA0/zHJZvvA/1b0oGAi/9xtYPkaimb1n+c49EKCJvnn+oj72mRy+TsJZvfY1gb7iTYK9bpAMPvkz7bwLtwK/zPJGvurWEj6TN5A+hBejvcBcfDrZcsu92C6kPneU5j4BDN4+AZaWPPDCij1u9hy+fNisvmzaNz4btT69m0q7PlI/qr43OK2+fgk1vumrLz0Tqlk+l8ydPTRvFb6cMUG9em3HPDrRX75vaZm9k0SlvZ0GRD52WKG8dUWivYWmlr5VPJi9cumGu9V5hr65H/O9d+ZXvVd6gD4Nid+9vdMdvopW5r4qxKk+d5GgPpdsmL6+mSI/rs8GPrTEvT2e1SW8t9yIPcHIuD60tgK+fYipPSrY+rxwOMU+53yHvJBDAL2icO++gn0EPyv4NT55/S29zpadPKDHv7qgJSm9lruvPQX3LT6hwK2+7U/+vXbTzj7U+rK+7c6VvRqwEz7SFx++GagjvNLWbz0qrzA+YZsqPvmIXL6LHIo+C///u9/f5r74XTo+kEjmO9isaz4Mdku+jn66PV1raL7nxHq+smipvi4Alr78uIc+97rpvcIIGb4wC6y8EiduvmcYSb6Mw5I9fDy+vhcX2b3kU52+Ip2wvFx99r3mN4G+x6mxvs1ZD7645Ya9jjSuPiPYwjxY56S8xDVPPhxeIT197G6+Auw3PuJFJD77Wb8+E/2JvlN35L7XChS+LoUgPBdQuz7abEW+IJRsvpPpl757a4w+T2KqPRNElT5uqDY9zG2LvpJqUL7Wbq08kgOPvloiNL48sjw+BQ+3Pmk1Az7NG4A+lW6LPjnOcb5eEKI+wkudvD/XfL4qtTm+MDgkvngElT1wqYQ9xpiQPh0P2b04qo09II1Yvu9blb4qusa9ZKaGO7Q8Br6+XXA9+D4Xvgslcr2FsMw+WjGUPeoWi76Npe08pF8BPW2nN70japI+okBEPVLEZT4U1gA/O9RwvbSEBT+7hOC7XCVJPTrkZjw06ea9vJxcPrmG8r1KErE9HMjMPraxmr41UYM+98TMvj6Thz64z7K+iha9vlVnAb4IBE48i93pvIGxGz7UDd4+05jdPiAHsT2dwr4+N8wlvQMGCD+WGdc+3ucqPuETVL6KQNE+oBDbvh15vr1TjoE+qhPKvq2lejytTbk9mKqKvquqUz4LPJ4+8uQSvXghpj1RGrK++1EFvu4Bv71iswY9icCWPvW9Ub1ldTO+gpAmPtz7jT5pWr89YaeHPbUGUb7G+YE89tgoPWNDc757+EE+rjUsvhgtm772Fbe9T/gSvvpvOT8yi+29rgFJu4+Biz2gwRQ+Sv9svpIfSz7051g9HyNtvZ+apz663iQ+SwPnvO/IJT6kNRO9f6D+PjklLb4b+Su9NNq0PdKRbz7jT0g+hhqKvgt6mD6IXAW+8RpDPn26Fb7zf8U9kN/ZPsevUr5Np6q+dbWPvs0d4j7W9eA+OyCKPt7aGz489bY+Pz5ZvmngCT72SAU7OzoBPRO03zw3YjQ+IOM0PbIHz72WBNA+OEUdviYjCjym+Jc+XaVIPDLyHD5MA5K+xbqEvvRNcj4PlBs/LboKvuBB/j4OPoq9VCFNOpoxmL7fSk8+dAQXviBGd72p2R6+dHYovTvGHL3u8Fg9SamTvujlyj59ReE+FzG9vUdbL74vQF+8lSz5Pm9LID6mGao8Kf9svsuyCL48Ar27QbbzPm1nHr6wdLO+sbYGvoApzT32hsG+8SkfPRF/Vr7IOim+yTrhPXz6U77J0nm+O1IKPnkhCr7OnwQ/2S9uvU02UDwr9lc+dAzwu02M9j28uLE6W8AWPoIA7L7d/Uk+aAKkPLZYhD43CK2+niJHvqYfJT2QbgW/xrTWPal60704Jp05uL8Dvz8VL750ZpS8Ys7EvkJUor5/ooE+9JZAPpsZmD4gS46+wksVvy6pxr6M0uE+BrlvvGbO5L3cEB8+Sxz+PVSGqbwbcfo9V9bovbwXB75d1pY9nPDQPbRjr74Nd3E+wwKKPhFnFT65awG+fLdpPYBx1D3aPt2+gS1bPn0Rmb6Thza+QRftvtMeCD5hWZK7dHtHPVQNSD1bBCO+mAz6PfG9ZD5ucRk9WtOxvujQ1D51/0o+qS6wPuPzPj67eEQ9BV2IPT5y4L4/jxQ+tyonvlhhYD3Eu887o8J2vjibA7+b0eq+Ss2xPdU2770Zk4O+V04EPxNWkz7fS52+hRMLvtOsDLuSToa+5ieVvnIejL4MNS8+cmyYvoqenT1NWKA+luCtvqOmAD1eTPw9pG2QPqg9j70zDFk7lKofvtNh+7yuuJA+2h4LPTYdNL4128u8ANErPgaTrT1tfcQ+jkmSvmAUHz8E8zq+ULAKvvRf/jwRMV2+s9gCPn2uuz0Yq6m+scInOwF9Jj3ufAE//AnNveeA2L6+0BA+MZ/JvoBj7j5OaGQ9NRJZPj+hDb56biC9F9hGvhonOz6U+Q6+wzrtvThe5L6mu3m+4tkSvUJizb3x9Aq+r6Szvlmdgj4eG969R6tqvHSkuj7iasg73udJPlwvob1caS49zwuGvj3Tzb77bgA+tIs/vtY9OL01jVG+q4BjPqqeUr7d8FS8nvQGPlJnPj5biBq+86oMP42E1D6SrLa9Bj9yvcqzJT/tms0+OeBNPTUmt721Drq9OUtcvZcIOb5JDgG+LDYLv49Vob52srq+PYgNPRhmqLyNakU/E9hivuvHZr4JFpm+gyqXvo+7qD5rr1a9aIUQPh/Al74eCTg+Fn+5vQLsKr5nssG9wezcvXqSb77ZxAa9WQePPvbE0L5AbdG+TI0uvvO9QL3YAc89sXKFvu33MT4Gb/O+6LCoPvN0Rr1h+kA9QOaQvt+K+L1Z1u48qRsBPlfhPr7DNnc+3XeUvtxgHb56Ryu9G9LwvHUJSL1qWzG92YqRPpuOgz0btkG+ExIuPowOEj79YeC+xZBdPt56iT4ORui9kPJePrwZIb4tU/Y8cQJAPvKMVL47H9E8KaebPnAEOb79Dag9W21UPRuazj3WHKI9K5IBvffitj2+WaM7SzZ0u4OND7xVzCM9fMILPg1NqD6VaRm9HcNhPcskkb6h1NK9zF8ePn+nXD5rtQi+VpE5vhCKlTyAwyC8NyCsPpvudT7Yq4+9abtYPurluT45Zk4+QhV6vvqE4z5AKxo+vU7ovnJ0ozyizei6q0WNvvpoJj11ybM98xSnPu6s9j0WeN89Jag4vdVIID7yK/W7eeruvo0cu77b8A2/WsKfPW2DRD4jyDy+G+SIPWv7xT4yk0K+GRarvnSpEj5+vAE+5e1pPF5SNz6Aa0++gIzwvcN2KT3426g6IUk7PiSaPj4JyJo+6PQyPALTbD1tPhO+iW5OPsZ9H74IZT0+DfvtOvi8pL2bRrg8Gw3rPgFQIz6zTZy+umVBvnX51T0p8jS+pamVPV72CL47jqO8AMyMvvjYJj7bLJW9Gg/KPsKGbj41Jiw92Iq0PPz3EL6Al40+e3fCvqCpY733Wuc9ggH2PcyFsz1wAqO5jj6evIt94b5n2au+1zgDvYgf8T16rEu+E1Uvvqj0pb5SZ3e+Lc6APmrZZT4H1BO+iGQ1PR+sDT3FCo09HN5CPtmgkD5G3dm+oysGveI68L1uGgy+kPqDPkVnkbyWOXg+N/FqPso3bb4qMuU9gGLoPgRjYb7bMp49vnfdPZ8uWz7xu/K9kH+SPuTZOL5pAye+TmlQvnhzCz4IAKu+fIxlPtg2ST7ZoRa+DitXvmFkeb54yBm+BPm2vQWmQb7R4iA+r9CoPRAoz76uNRA+r3rRvrUu1z0rIx89KZ8BvrfvKL2nXWq+DggiPgek2b2Zadc+QD9+vZ7Dv70GN7U9whSCPuAvA77z23q/YfChvU7jrr5bqF++rWvsPWa5pL4edJQ9VbjMPruj2r587jK+8NORvu/eAz+1db4921JyPhw2377GjDO+ZgEVu1vVl70eZ/M+nIxTPhjlnDmONAm/purFvjsClT4HyCO+tIYCvXfHH75twy0+MHrRvgg3hb6cz+o+vTSsvdE/+r7v/iu/r7nevusQhL3y1mI9pg7mPMD3UL33Nqu+nnexPXBrJj9WsgE+1bjfvV4q7T3RKX895AZ3vJ7/Bj0xZqg7CpCRPmS9j77chR++eDmDvSOzSb5Gz8W9KOz/PXW2nD64Qpe9bdSMPY0DxDtW0HA+P6u6vhSag7soGs29yrIEPrf1jT5IExy+899SPr7x7btQRiQ+rYm2vRpruz0/j5Q+ztuaPkdbR76xv969/rN3vtULNr7HW4G+hOJDvmJfjb6J9m4+oD8BPhGitLyLE0O+1A1ZvtsVer6s5YC+uZeTPdCOZj0r8CQ+rL6Cvp6xSr3bEQq+SgwfPtIHkT3vdZI+bvMDPsk0hj2PuS2+nL5lPtdls726Y0Q9l1Svvd5fSz5gI9s72I/ZO3GpZb2/M6A9sOZ5PWkuH75a1f89BDJcPR7XULtq4NK9j9hsPfoE0r3lRqM9eR0nPkYLLz6OlZc+VL6evcVJpz23Obi9peU3Pcqklj0Iv3i+7b8+PCau3T4/2Cs++tzcvQp47L3iTEW+9MJLPea6170wUgk+udT6vQYNl73HQcm+LeYfviKM+j7Vfiy+Iec4vmZ8FL5FloS+XHVhPjEu0rzyPvg95r9LPIRHST5DJ8a+UIHXPv44sD7TqzA+XIX+vb+ciz1orka+hVgpvdl7Fb2U2SU/UdgdvkNClL3B0JW+AgCpPpfdKT6/GVU+M9M6vih7JL2SwXu9v/KyvhxLYr3oIC6+VJyAPn4GUz5QFoI+irDqvfcwVL6R6s+9TiXsPs3/ET59gCq+/WvFvpiMAL8OU7w+miXIPlwhRD5/fIU+85bXPf/aKD905ji92QMIv/O2q76A+Aa+93BmPqy1nb1IJJo+rePDPOGr5D4KHfY86n7+PnLD8DzpkCU8qporvlJwqj1BcIM+1BAVvZXRwT61AL2+GzhjviFCOj7gKAK9Q1oLvr6QBL42H/g8T8mTPvyQlb3v2fQ9Tp6ZvdXtTb4KTVA+1CtXvZZui771JAo/810xvtv6cj6fgrC8/xiMviWPEb6Ky9q9mYqvveaZ973dKWE+eSB6PnV4mD2wUw8+Q7F3vhmWWT1w8Rm+5vHmviQBqL7I3d0+qtHUvXjHFz6ZLUu9ckMsPmd7kbxG19g90owovohTpD0kRYM+zlfgPHMg9z3Y3Gk+o9VvvuvWpT23Cl8+gPv0vbOlA799Cb29Pol5PZ7UCr3K22o+MvOZvTrIgb4RDqY9fs0kvq6boj3lbrs+gHTZvj6NVb6iBa28waIQP//rEL4jQIc+SSFIPlwlpL6hwyU+P1yHvVkuB76eYdi9ZtWYPvIElr6UtT8+BeUFvyA4/zyCAWY+EFmsPhkPGD3IJO++wiUGvZJA3D0Iqv0+sL2zvcWwlL7rZoo+muDTPhsLgr7zz2e+DGiwvsCF2j65a4e9gMk/vgua1r7/ja87/rrcvtSV3r3pgRs+jj5ZPjNGWj69NuO+NrkPvURjhj1ktLE+NvtDPjMGET5gxHc+9/RuvvL3pL4o0J2+bpi4uxf9GDphHKm9J4Zmvkji+rsqZHw+dzZnvQbxl7733ia+RkUkvYZnAD9IUyc9vUwHvaE8/rydD1M+gHglvRyJLL6mMfK+FfHMPBPiBT4KEkA9kWUfPrAKL749eeW9khbsvKzjBz4Dkt49C+VqvPE0lz4idPk9j+KBvlk+Uj3k+Ru/rijbvbnkBD7DAqE90VD9vimjU77ZVMY97PZsPuI2uD1wSZo+I5vjPpnufr77oPW9Lq2nPd4SsT12JRO+vFvaPNaKf72JNto86wuYvB0BWL1c9GE83b8LPiu6Yr6jKZS+NHwVvC2pYz7MfT8+rQUxvr8baL7KcGU9RY/KPrXnxL2cd2M+7WoJv21Ztb7xiqM7tlK1Pe3mcjw2oAA+eXCVPvh3t7742B6+aGeoPXqZez6RgBo/C/bbvXdXgj4ysQe/4KAoPtT5VD6wfcY8e4zGPj4BbD6yAay+le4YPc+bo77VWAm+ILO7PcsB5r6kUSK9EOAmPmsn5buHJ4Q+O6NQPnln6Lzt0I69cgO6vsoIy700vBS93JDPPGdgDL6/1RS/aZQ7PW8I9b26xYW+7EUTPh91Eb7uk/+9eWzbPdOMhb4Osaw+/VeDPgh/wT4HHqU+2S+vPYloID9Sr98+YiO2PDIygj5Ps6A+k+Fyvh35Aj7GICi+Ztt/vQ+AxL0iWWU9hq7TvsiOaD6Iy6U9NwQXPiCZhr5bYnM9TVITPbLjOb5aDYQ+hVCTvrM3sj1596m925WSvsSIGz69bw2+C8kCvsu1XT71ocG9sB2/vQm5FrzIvFw+fL5iPshsmTwca8I+TqKZO0N+pD1jtKg9AoHcvjrAez7HB5a+wng0Pnq0MT2aeUu+ng0avrIOvT6XnZS9rWKhvGig9r3JA+c7Zk9JvkFxzz3oygE+yleNPp5BW76Fx6K+OmF9vdEZYz2CAYm9LGWKPTqvPT42CZk+rqULvhwRXD6doya8QRhOPjcZyr2tyfo8nZCsPsCXXD0S5N+9PduXPnkicL039L49emp5vFqQmz2cOTa+swORvX63vzzaIhs+0S4sPpwCk75y+3W+cc4dvgGRwb1ywm87tcG+vSnrpr5mL6M+5Bv3u/R7Bz71CVE+5RixvnqFDr+QjZk+CW1uvojSG72Fu0c+IQLBvhwNa73eCdW+j/r/vWyKpr7pq2O+ezkNvVWnkj1EKUm//ERzvotflT7jlro9NVNevnpiSb4bczO+MuggvksDOr7VgNq+oAGBO4ZwEr/3NRs+Vz+gvfcHhT3Rqqk92BIov4ifbL4cTjA+GKiJvnPNxz6+tU0+4i8DPUUZVD67Cl+++OLkvlhpkD0U6EO9Kue+vi1dbz4XS8K9VWJWPGeZPz4UmoM+pP+PO75Yt75GCR2+zlHCPYqXzT2AU/K9/1QuPmnnUj3uWwQ+PiaMPSd237xR33Q+yYmjvggvxTzK4xw+nCevvksEWD0tm5a95/qZvqbqOj5MgUI9trugvLfMh77/3+46mDS0PiBPoD4D5Oq84et0Pp4WSr1+oge9ksfXvdYKob37bxs+POosvfGSCD++mzm+t8SuPmn7R763EY++DsE1vk0A4z5FKkc9nKj0PQN7xz6JLG89p/8WvpR4d72zke6+pkiJPgkfhrzuYpq9o0ilPak8CD5mUEW+kSsmPiKEKr2lKW+9b8YIPlNS4T0uVm++hQ0KvkvokL734sS+u14ivSaIy7yLIKa+owz6vFpPKz4zpYq+lJ87PdZvB71pdlY+2if/u0J6QTwZ78G9/e5DPrXGFr4uEMu+QU+aPQzO+j3smxw+cse7PZuz4z2v3mU+vC1kvg7Xg74iwai+2qQHPuo7LjzZVfK+Ahqhvg58gLqqv6u+u/kDPhJFrb7q/kq9gzRzPPQOBj7sqqo+lkrsu56hGz6nUh6+YCD8PcGgWr6KW7a9sRS/vQjdzb35PrA9i+IKPyE/sr5wKYm+FUnJPUB7mr3y854+BewNPr1UPb73r4c+h3rLPo7h3D5OaYk+QAbevcgyHT68tMG6s5lrvlvcBT4sRuI++uaVvp8Iej63KnW9zoaWvcxu4z1F+pK+Vyv1PoBmxT7o0QU9pjOiPma6cj5oGWe9ZMFevcibZb2ppZE+jQmZPE/qoDxFs/C+An2ZvggahL5qBV4+NNQYvpbAMz6EtRY+qcOFPnmRhr0kIK89gdTVvvXWPbwUSNo+4ADNPQTEk75ma5C+tQsVvQ38DT4wz1I+ic8OP6aVjT5ylTw+SjqLvmfGpT5Ys5E9hIrEviLBNj7TgcI+xp1iPjhbfb61eSc+gxeyvSR3MT5nDsY+SL5OvTj+mL7d/0U9vx7/vZz/Tr79jD++NRzbvfaHgT6RBa89LzCLPqjsAb9zIPO9+7SSviVHpzui+BE+KL2svgMwNr6Znty9YC5LPjZl4zsN9Bk+U4/3vadhsj4NKgk+yqjzvYALDj6Hmwi+A4ykvaprF76dVnm+qDw6vWWL8z3MD2w+VGSgPsumwrseKy2+JMzOvg2/AT7ULdE9/2DVPuwfMb0v7Wk9xAluPFMat77foAK/8++JPUB8g70eojY+40AnPo9Mlb40gg29mrMrvZppL72KdHO8WWlMPrZgdL6aWxk+RP1JvkYVlb1cQYA+h+lCvW+8oD6WJMK9hkaePT4qvr7yp+O9dRTKvnZSc74um4o95JEGvu/xgT02Nz++hReGPWdEQT7CU0U+Qtg4vj+LVb0tvoK85xRuvkS8M776RyA+se0AP1qtnr5xXR++3ipXPbvNn76DNxC+0ZvyPYcaRL5wDyY+NJ+IvuHoq71Al+i9RrS3vSF6XD7nXYy+0xSRvHC9zrksZoU+zfDdPnfl2j5G77o9yDjXvjFPtb5TiJk9OfhbvnDlA77QhGY96/IUvb2q4D56LGQ+D04Av0NbWb2ABcG94xQ+vqys2L04jGY+NGhqvmochb3WXCu/1RTiPolMKL7RzoE99A1APdknCr5616e8fmw0vm/nEj7c5Lu+xXYivm//Tb4R/iW+9yXaPb+KlT0jFhC+1wYCPYUqtb5uooy+138APiTrgz7AUJk+5gmjvqXhzb6odgy+rzGPvkhJpT3s7wE/ugtjvu4A8z336gc9wk7fPglRdj6TVY29XZKdvtZArb2Yxro+ShysPma4Pj743Ii+5PaQPhElr76V65Y9xwKSPe9Zs71dqn2+GCWNPiVHjT6QGLm+otRsvta+LT5HO1U8N11EvoLOCL5C7ga8ZwIQvv8trj09w90+OxBxPlGhnj67Fiw+x08vv0Hx7b0X0ps9/G6qvXzfib6H3OU+CBU9vpZpx70rZhM/VPRLvT9RwL0Ck4u+ap5cvCiqAD/3qKu+ORqcvp7wO76PQrS+wegBPfMTnj0OvsM+FVmJvvy7Mb7I2Bc+b4TAvaoGCD4pflE9Nm3EvrU2NT7mmBA8kDg2Pvt+dz3HYAE/xtf0PiGj6b2RiX++EjCFPBNG6D30KU6+imbjPWPiKz73kik9S/iAPdjvhb57+rO9jDSHvUr1pj4zQNu+eJXQPIvZ0T6KmpW+edv3PSByib2B2EK8TvX+vcg+i70G5yO+JnEPPpcHHj5BMws/G6Hyvl4VNz5uvIA+MMeUvkpHFT3DA5A9T4doPejaHr4Spt+9tZC3O4TrmL6SVBS/hayiPu1LT70A9hg/tYudPReGgL58LDA+KL7pvU+DID7WKie+idTEvlViG743D7o+lDozPssLrL7VSUw9dNd8veD0XD5zZSO+jzS+PqsTRT7v1Rg+Rrn2Ptu4Iz0nI2C9p8yBvvYHDrzGZPk7SkM5vdZqET/4Zh4/NI0Ruk5jK773cog8KIlGvgbzEr2zJv+9pPfoPS9kBD5CTZK8f6xfPo+IPr1pqmC+XwISvZlcHz4bPG8+UcIPvmu24r0Htay+v4t5PlGBdT610C4+KN4cvoGHNb6kZdS9BgKFvs4Dnr7sVUQ+e4SNPmdRGD4Qohy+aopgvt4Wxb25Aqi9VKkdvl2LtL1p2Xw9yBROPZ1oKL3HXlW8sI+LPnWHfb1ceiK7sC45vQfcVz7O1Jq9c6livVJSeT7l7Ti+FG5sPdM/HD6LSwu+lGCWPvsPfT5cKX6+EoxGvsV3GD0q9Zm+vD3bPThvNDxdmj+8c7boPrH2hz57Rfy97HX/PoLhnL7mb5S+lcaDvtztpD3rbk0+dVUyPl1Jmr3ABp0+9YWVPtppBj8TrO48xQ1GPXaiwT6PsLM8iViTvDJiGD5kOQe+1CusvnvvAD678I8+/UcdviRpzL5OnFM+mcrOPgH15r3lIS8+n3ZqvbNfnL5ilbI+lNaYvt9tnL6E+tq+EyUKvyqiuT798Gw+19U5vfuB174+efM+gP6RvjQxCj47eii+VC5xvj9nD73bOae+tLyMPb4cwz1QY2c9f4Wdvl6Eiz1UqiY9JMhEPSCLS77yf3++/IP2vkJ2j76oI5C+9QksPiLBSL4Sn4u9cstSPBQ9iz63GrG+O+A8vnY3tj0/qV8+heYDPpU2Ub57tQK+aLt/vgpApz2Uo7I965rkPUADj75f5FW+W1/lvaRDCr7M72g+WHWaPrI4BT6Zd7Y+NXkavuaAsD1K5ga/0vqVvs1kAL+G1Hy+yPKdvXYYy7xT7Rc+tQkzPrn0hr4LQT6+4WWBvolmtzz5iM49JRMjvzS5iT6WnQq+TZeDPtibFT0AS7699/SYvfLyBz7ejE2+JBfDPQPROz4yNKw9f933PdgQvjz3MgM+d2NJvbCsyL7mcnQ9oGutvuDD1j3BT4w8zJyIvD/YeD6045G+YcUKv7qKxbwaYZK9fB1AvJwDa74En46+vcJ0vW/Ggb44Dou+apTfPnuUlr7yRrI+n/KMPoLINL7o8Eo9BRSoPkHRWL7tgWA+ypbovBOPbb6BW/a9UoHBPQVcdz4M/sE8zxhlvWWmAz83o5E+98ZAvgOV5T0Ldy6++d2zPuooY75y1Qg+Ao4BvZr1lzz+3Si+gEZMPgtnOz6AdqQ+7sJ/vZ0Bqz65hYs+CYHdvuF0MD195QI+Lbk1vlCOwz4H8OS9nEr8Pg7KPT55gui90xOzvns3170QW/c+OVmVvlaYh70x5To9z5z0PmsK/bx12e+92aMBvq3H+73Pu7a8Q30cPnELET9oboa+24hgvkYGpb5MdjW+lbogvQHUA7+yZLu+Rx9dPsDxszwJ7jE+SMCIvTLnBL6mYn+8gc/Zvb2gCz0x/I++AdeZPvwD1Dw/89U+ycefPk4qIz7Rh+w+pMUnvc8hPb4OXK++IryrvnqadjzYRqm+gt4XPtipe73WXns9FX+lvuKqOD521gA+BSyTvlqMPj5XPb6+3rW+vbzEAr39QQc+X6WOPjoqKj7HGtE6xHZnPGo5lDtjHK8+lsMcPheviDvD7zK+atsbvbivrr2QM6m91NjBPtAQnT12M8W89ViYvKH/Lz4fjG28jp2VPdQfW722YzY+dlhiPkFkmD3Ja+G9+40HPmXH0r6B1Q8+fZtnvp5R2j7+ysQ+NOYePgpQr72fgRK+WO77vScbGb4/ZEM81jQ8vk9yGb0ji5U8BYJiPMUBIL4kYGE9bro/Pl/8E75drUy+JkmqPuOsjr7wvr09wJD6PMZjzT2KGqy+dDdevjS3Zj7YDEg+/GAIvYru6D1KCQS/2ZTfPtYkwz1R2gW+mvxOvuR85j2XkhU/PqSqvNV/2D0+DYE+NtLBvUwLVb7Wmw2+3PsZPYz+OLzRL3e+3eT3Pt8xa74m6ik8JLYJPqRzCz69EZU+tzYJvf2Luj3F6PO9wUVbvsA6U76zaMa89lEYPoBgJz7TF3Y9inSqvkutRD5PeHM9LQ4jPvbe1j4rbho9BCTVPgS0Ib9ZiHo9moFhPNxOMz6fjYW+7JG4PgZbcr6HrOM96ZEXPgXxdL1a2Zy7dF40vQzRPD56g5C+mKptvXSqtz7bn9Q9zlPqviAhtD4V76c+vikxPTMpwj2Upqa9X97TPink7z1tK+q8L8zWvWI8H74Z8Gy+8eoQPSs7qr6ZZky+zIWJvdmyIj4h/TM+plCCvp3OkL4VZhM++S2hvVoAgb6qndQ+QHMKvjg6hT3Dwk49jFAIPtaZOD6Lurc++gA0PllGVz3jfRm+ONjqvWzsk72xAkK+99yfvUrpyL55Tpy9c/6mPnucjj5IrMM9asToPQrXFb5sPRA7dPU8u6dX8j1UBq4+qzLgvtadS708dgA85k5aPi8/fz5cmhu9W24DPaYezD25E8a817d2PgnG5DwVZg89udS6vgh0Tz46sqq9BQLGPr4lqb3yen++q5PIvlGSGT4pWdI+UO2kPFN5db1RuNm+Q2Vkvs5xAz4E5E++PzU9PbxbaT6/h5c+LgNevpi+9L7R/iO/IXaQPjGJGzuh+Kq9P03sPr0bYr6vHJm+rYnwPWOVhD2SgjC99HOGPGc/1b1+wLc9sFK/PJOrPj6K9Kg8HHolvgm9Xr5DtcS9d1gyvRFTTT0oi0C+H9onPSLdVj6IBD8+4KEXPpzz0j1V+o2+a0GIPt6ugT62pnK+QdHqvVN0P76aYeM8H2LMviCWlr5V0hy+LE/TvjZ3GL55Su8+01cSvh6yLD6CJK0+TPNnvdz5Lj5Xbli8c5HGPu7Yur75yKi+TTgOPl60N72F2Jq+ZToTvhEGTTxwEfY+MN5GvhTFZL2m/NI+eawYvuQ64L5vFD6+JfzPPurwJb4OVEw+nTyju0Cwjb0B1mq+GDq+PiytKL0CkdA+m1tbPanRLj05UJg9llxDvXtHKj2jMVo+25C5PmsNwj3AeLE86A1OvvNci75Ke6+9wejSvQglNz5w+UM+rr8tvks2rb5iQyg9wScjvfMFAz51rB6+T9EJPtBwnz4BgKC+nMYwvVsyRr7KKY28h+CCPoCV27wOpKI+JwQsPtSliT7Uyn4+8XebvuWJ2j0CmLs9QqIovBGbJTwOQaM+WNW9uQaiXb3gkqo+mcFrva84nz5uODs9+LCQPj+0L76+WY6+/vOYvmfcyz4t7i6+2Ec7vIBB2D2vgqM+G65xvItmAb06k469dOmPvZr5V7wGiTe+kas3PSDS6TrDcQQ+G2jjvadQ3T3WPo8+ASnzvuUErTwNJgq+z9oyvhaMLz5F6L+9heGKvj8uiL48JjE6C+pOvV6LaL6mBaS9gBWnPq2fQj0rNJW9P4eeviAV/j3pWdo7wWsQvsdEhL48fcO9Kge/vlRNVj6erq+9RO4BPn7orz50X0M+xsAvvvMYHr65CIu7ogkEPWcGs72WEy49RUQCPwtFCD76x2Q+TbTOPT6bSL2QCUg+CXQUvlCSbT43+vq9mZMLvupTxr3xhUQ+jtylvR+1aT6P5088K7BKvlzy9D5VVUU+6QRLPsooUj6xaoy+h4MuPqsEOb63YuO8PkkvPjxkyj0Tyoq+hVdCvm+SHz1ZMpM9pjwfvuGBKL77So2+hag2veKJJT3W+ue9mo+qPVOgPb45kGI+VM6dPdK7tz3OyA++iNNdPoAP4j72O7g+5kHVPgrKlj3y9di9yooJvtWjSz7tst0+WEVnPiLGNT4GLQy/5wqCvsJAg75p8dK7ojGuvXBtsb42Fuk+DiqkPobRCr4vUx6+/U3BPiC+WD6K2tk9rNxdvuokSj4uALk976E0vcRDtr7BJFO+dJCKvYtrMD4qqT4+KoolPhGNob4IcZU+WKW/Pq0oCD+i9oS9XWtJvkVUAr8+LzY+iHk3vs6rvD0YnlO+vHvOvZMaIT71U2i+YDu1Pcwjhj5o9aI9Ea8oPhUha756aNK+YqcoPuvsPD2Tzkk+Ig+KPUxd5T1pN/s9erShPlNhBb6ylnO+h94DPsNBtL72NQ0/FgNxvSD6Yr4NVJq+YNZRvimeFb3R4LA94s6Xveqowz415Fi+ydWUvgqBjb6oGgW/GvlxvfhND77Rb6K91Y/AvMHBtb3/dPS7H0ZFvj+ypT58evK9l9phPrD7Gb3yLb29W8X8PTQvJL2RSvw9PUC/vOt0AD+cDR29Pv+0PvR1lz7mYwE/igdqPn34ub6Rohq+og5UPvQZsz2YPJE+LD+nPR/z5bw4fZ4+9UywPk5BpD7xfVg+aPwQPmCHADiq8Iu+hqIyPkkV1T6mfb29J8QVPuw8dz7JgME7xZvmvvDxBj3wURC+R/Y4vopouz1s43++e6wEPqmDqj1fqRc/qhr+vYopGL6/UgC/vlphvkfzjb1W7rk+pBsYPrC6Ij6Mfue9pbYXPtJQqb4UjOE82Ud1vqQCAzzsy8C9ncrUPRC4TL2FpLw9uo50vqfR7T3phEY+IYbTPbhhKr7+d7A+rP13vXiZ2zyhIAO99BQNvpaFE7+ncC2+A/MyvTQhDD7diYu+P4UOvr4hZj5S6v09tpdRPts3lz5HVYi9NB02PhpDLL4waMi+v534ui4dY77Ii7S+vwpsPkkpTj5yH5G+hNLPOfEuZT6KeCU9no/KvE8Jlz7kh5i8giBBPj5eYr7ojsM+a6DbPYfYdz0+MRi8mMVjvXBtTr1j31C+E4EDvi1L7D0KCgs9Ch9uPsxtfbySoPw9/IQAvpex6T2BO+K9aX1rPhxGhz6Po989XqvJPsQxtL3+l44+XyIZv6CAyT4lcK8+MYdAPoFB0L3YDIo8ZfskP4nf2T7zZpY+NTiqvVpqhr7c36y+MtIIPyg3tz2zpBu/TbJnPHZnTT7LlzU+KxYrPqJMkb7gWBI6aUORPrwddr747cY+GwwqPiEwhz5i3We+7EryPozgir52yUW96BgIvkWDjjzbqeU+HpocPtxR3r6jSJw+mKtVPnYIxj21X6a+qCs9PC0j0z47pXw9gm0XvujYAb9JnBq+XOpQPYDll70VE+G+IeGVPl5WNr5xa7q9eUx1PsLAS74p1JE95uiIvn/IqjzWhsU8p+SZPg9UUT54TaY8oGrIvR5iiL4/KoG+UCZgPhcKPr9VZ6Q+qyVBP9Fzh74hBZo9MFQNv+CItr7IsDs+CNULPv5FAj5LPNC+wEgkvoHGeL1KNom9CqHdPpHlRD0td1Y+87QePTA/fL5+OdC9ogIHPv3Rzjz8mzi9EJ+mvotPeT6/Fmk8OWjKvtA3Xr1hR0w+DYSuvUpJqT4Q/Dm9JMkWvgqM1D6Nmg4/XNmbvjdHubzg68a+JNUSPN4arz0BSoM9FGIrvsdTvb4WZ5i+/GKmvKFTYz0O+7m+3INmvuo4ML6MrEA+GdZ3PnlBRD7wMwM+j8+Du8xiHj6xIdU+IKRtvj6xkj1agI2+OvdkvWpKWL369JM9LgN8PVIo8Ty5aEM+V62dPScBWL5FJMC9+MKdPvLGxTs0Hig+4ZyJPm9xUD7KcaC+sGI6vfkpOb1OwZU+cTnEvY/y2jvE3VI+l6wzvdTqIr6MOle+ltuaPiBhbj1DSSM+t9J9PuRekDwHkwO+4UdNPR6wQr1UgiW9WHt0PeEbZb4zqB6+0j74PVjN4bxEP2w+AKLHPbF1Uz7m9vW945tBvuK+Kb+EUVC+hwstPvWuM76gtow8mF6tPEuxHL+3EgA+w1+/vs2e6L2FWpU+Rz1BPaVnsT6Twq8+3KuNPvmvjz6w6+89vtmqvANccL4XI9Y8YBqhPeD9571FSwi/WN2BviKZcL59XEI9LtyqPeNUrrviGQS/jAy4vSWQgL7IG2g+qEQ6vhfauT3ZA2q+eG6dPknX8T0O7rm+byjqPoBOHr4VShE+RqfnvX+HUz7kxaw+OCSbvKjKzLpEIPo8Rd3OvrjHQzt2iS+9RqplPa7inL6THFw+0qsMPhkJQT3E9kG+uPZOPafbDb0JnUc94EtXPMUmtr3C02e+Iuq8PraOcz6X5jw+26kkPd0mMD44yDY+Hg4mPkisMj4fnnQ+cUpBPUkP8j2WyGq+GiSTPUqhAL0gZLA+uMmCPrOzDz5sQEu8Yj9uvQC2zj0F3Zq+6DCUvgvMcL3SSE++QecoPjlIXD5Dd/e9PdvpPZgjBj5hLa2+zHWSvXNm3TzgJXy+lW9FvRFhejvwJjM+ojccvrwx/TyQWdQ+rePPPXz+nj3p+T++mdOaPm7c0T14agw9nAsgPFZBG75ycza+fyFMPRiW5b2WV3E+/KqiPSVcOD45D8C9Ie3AvnIYKj6aaXY+CbwzPporzT3vLqW+a61bvPiehz5+Nje+NjAtvVpwqz02myu9RmccPeSxm720Rge+6WGmvnpR/j2t94S8XbOpPVPr9r4In9w7aVShPaOH1D2unJY+sw6SPPYwvD0RhZa+uPymPkfAxr7zWma9Lxkhvpn/ez6pFWy+2kpOPtqdML4S9hO+siNWPbsRM74uXP09Emh1PTKU6b2jnJ++el0TvHoaqT3FWxk+WltMvsnYFT7wmJC8fQwnvtJfir1hoG6+zeP7vX0j2T6aQ4a+m10DPkqzOT5s3Yy+sPUEvk9ib77mm2682H/6Pbw5Hr4uf/W+AeVIPJI1Sz4EF7W943ZHvbhrDT10v9s88MRjPoRPlL0BS4E9h0umvIYnK75fEHG+rgw7PmCOjr71lrk+dQyRvq+iD74dbPk8p2zqPXMGvT7ovpk+4t/gPei4nb4Xquu9l16NviRRmT6G3Z086UATPgll1LuESL0+M1TAPt1Cx72uA1g9CwhcPlNzoD2VPBc8qikxPlNFDD7k/b0+ZRPFPSU+6j1HkyU+47cmviyZXD1S09O9A8PFPh1Xmj6lhAq/7UsOv9p0kb5O/6G8fWVDPuzRibsXCQE+Aep1PcZ7q70H70I+F2irPk7TLb5h4aQ+vbSZOzZH67xkvOU9POkEvrOeNb7b2Jo8lxmVPNZOhbyMdfY90YWuvcNFAb34xb8+DEsnuw2IOz4z7D4+JrLvPeszFj3mgpi+oPThviHuLj7gQmo+Y26cPZiq8L7mrwC/htN1PgpvaT4SZns6Fnj8PqC8qz3iQfE7Hlz+Po4xlL7Cgh++Sd+Bvuard70/Xra+lLdyPsowNz7zTm6+oJ0zPrkAT71qmz497rwWvozKCL8yw+I7QAILvSLOu74cIKC8SY2yvn/d2j0z9fY9UCRevXHOrD2J6fG92w0kvLQHgr5MBlE93jGXPBx2nr2Gb6I9Jehyvsf4pb3w+GG9rsrUPJCRfj4BFXk9jHoHvsChKL08sDk6ZKdovohgzzwKtte7T4MxPniv5b2UNkk+sLT6Oy+ukj4B4ka+n4JJPbJHGL1pyPQ7T1IePuSdvb2aRww91LVivanNxL2qV+y9NhKwPltrNj5hphE+CGzNvRQFF70Fum0+beWuPduJYr7Gn/y9F7p9Pobbgr6Gyxc+j37VPQ5T9D3D4WU+qVkgPtuCfL77DOM9aUg0vkX1Cb8rmiE/RjEHP5Mjmj5xvgM+8dliPvtIYj6YbJm8H6xfPjQgAj5TZ7g+XtyuPU/mi704iaO+mvntPjHe8L5G+7A9YO6UPh4lSD5TsM+9OuEtP3ehxT30iAe+zlh9vYmEwrzAVt09OLMEvyjZBr5W62o9V4oIvqg+Xr2OmxI+yvGOPnay470nNJc8njAgvuntdz0W6/Q+SXBQPioprTuWukE9aQPzvlPfUr6O5i6+J9o5vkBQLj4zd9c8gWcfPkVPDr2E2gm/SGYwPnXxYD7xGAy+nHiaPuW2UD207Dg947QsvhrgD7/+d8G+MSWxPo7XlL1dkCu+qG8CPkF4Az/lpfS++vWgPqlWz713KHI8lab8PcBburyeZp6+3ZelPvGYfr4ifFi+cXAXPfI2TD7A1Es9zMatPhp1OT7VpUC9OuCFvQv0kL5SEGC+hb/fPYVsFL84ALm9uSSgvmmiIT6B4aS72YPjPnmCJD5QCYG+SLCPvDQxJj6gtvO8Jt1ZPkTchr7HExU+Nw0JvbK3gL1K8wK/1WK+PiJlpj5mvG0+0EPBvlLvnr0q06a9DE0su28Z+T1jtYu+NfqWvbMYtbyLNQO8egNlPgxskb2NBI++DzncPZZUUr4b/4a+uR1pPt7rgb0WasG+KktrvsEtID6ZOWW+lLutPj0qPr7AlxY9GmqBvvpt4TwN8dy9H+kPvbyWir7a1Gu9Tg/YvTnQGr78gtM+cSGWvt9bYj6cHrA9YS8gPwW09r6EJeK8/5CSPhKtVb7SKJS+mb0wvbhLB75+Ah0+WaaxvT4Dzz40Biy94I/1vmiTCryiWJW8vgfivkB4zjwY0JE6xdZovnOKMD2luI+9kuGZvtHUVD76fOU9U6HXvCKe0zzTRGk9QdynvVQt47xe2Ga+lJjPvXLI7r0yYdS+crNevfytoD0PrY48Ax1zPmcZOD5LmgG+rMdXvNOAxL2dJOi9BvA/PrdFmb7uT+4+J4y6vHvcYz418OU+AM/mPBsuVL7TpnS+38x9vfn+BT0QeiY94dRXvGsizb40xj0+pQOXvWTYLT57AQO9pMCUvu+5Gj7sWBQ9ceeVvrCVHjsRzC++yyc9vaeiKT5JZpy9VyylvkyHaT7ZMjO+AsGOPhnuvT0Qsgq+WW2nvkd+g74pgx8+MfWgvZiBrL5V+pm+7FX8PQUPsDxjV3Q9dqSDPYrPfDsfUu8+1THSPT7L9L2W+4y+oj09PTi//b0gq5w+0Ti6PU8qVz48MRs+H5PVPlQ39z10ehI+FpQKvf8nU74r9Dy+L2akvfH2yL6HBC4+bPUTvo6eeD73KEW+AoZaPktCor2R1Im9ncmPvjgAiD4dYKq8ZCS4PF2gNb7WrVg815OTPpbC1D7VtJm+kbS9PXZhzD2Xtwe9FbDZvjm/1r0EI5q9PWWpPlf0rb0a9Ds+AMRVN3JGGT0/wmI9JihGPtj54T2Z+i4+u+LbO1OeKT2dV5M+Ei1hvBgFRL69GJK+2yYwvhUCGr4lHGg+9d+qvux2cz5UcQg/31xUPi+NDb0Dtms+qfoyv/3Alz1WjQ48A2L1PMz41z5T1Kk9cwswO6/bEb3etYu+c7TPO0m7Bz6iQ5+9Fon/vPAjz7159gG/Y+16vmdn4D7RYQM+brDtvSiLlz2xb3k+WJrrvgFLWL6zpRa+yROdPUdX2T6tyYg8vn3VPj6/jr3jVDe+HLCevuSJ4D6QAoU5bbcbv8x2Jj6esHc9KxxtPMtUN74ZKwS9DTOmvQF/jb1gv9W+5PcuvWXPvbtDzxQ+KCVcPtm7Xj62ej++2RAZPvA7Or4zl0++jQESP+vtxz5sO9g9js+Wvm2bkr5NZ18+fp+AvoDUiT5dOJM9H0jGvTdEcT1uqLW8dmpFPd7ceb2gAqY+Nj0EPnmKtj7XKYO+rlATPWp7Xz4eZxi+klC0vvv9gb4irsQ9PX0bvsQVdD7miYg9ncPPvSGxGD3IPZi+xIuOPSnxb72bI9A9nZYDPrB8sb6akJq+yJrdvu/j7r4MFvw+jD3CPiDWDzzzCb2+mMIHvvKkrL3CW3u9anTTPbFtYL36D2i9VbGwPceYcTzpZg6+9B69vhG/Qb7gC0y+YJkgvG3TSL6J5K++amwaPQEgH772J809N+/tPtblKD4/Cbu6uR28Pt24ur1rPXc+qiDqvDZF5L0Y4+a+qe51PZWJ970Tpge+ly2yvInSKj4U5z89P82fPMmxKj4xPZU+MWSXvuVFrzwvhk29///SO4B7Ab7Y6tU8oWIsvCl5Yj7slB8+KFYSvsq+SL7TU7E+aEcAv5ZXvb7KEmI+bwXZvjahvD1sndi9OjxPPqB4Pj7Kj289JBDBPRXVWL7i7Do7HmWfPWwSi74sz5G+dkgTPnlWJL8at5g9lmHOPaDiT73csvm9jVenPbfg1r4kXZq9a2Tjvi5Kpz7mYau+UWxlPjBqpT5oMhy+RBSdPtsXLL5w1/q9ZB4GPrMnH77kYxO+hYeMPWq7BT/wJzi+dLaaPpJsjb2lN/+9BEQhvOxVnL72G9g+SPOGPmAnGL78t04+TcqKvUPXW75h/iA+/e96PgJkKr4ZFpK9H4b1vFJcxb14DZc+OW0iPYofAT/dxXa9RkLbvVarxj1M4KE+b+VvvrNrFD3KLEy7i3iivpA+Mb5GUxm90qGGvqM6oj0evL++5KJIvsuCK74XhNs+zC9AvGOPNT5g2A4+pjCWOzqZU70swCQ9QEvgvkGAxL6jcs49u9YqvfJ/nT73bFa9TvGMPbNmI7+kesQ+jxeivP6SIr7t3Ze+JY93PprSh76ULTS9WzW/Pumc+bpaka29ahSwvnAIJ76Gip89y5A8PtRcGj8nJd4+DluBvSg/rzstvhc+UMgePdZP1bwH6ru96W/qvpMvfz7THAK+CpZPvtfLnD1dhye+hMJ9PazKoj1QA50+XgmlvEgMYb5vCC6+kaQrvpQ+9z3fQCg9L6WGvUCo1L3jE1C+ACAtvkbaDD33sJw9RnXAO4K0gD3UcTC+8z+ePQNibDyCAEA+a1IbPcvaiLq3H7c+K9uWPZYwxLzVKYE8se3dvcnWY75M2ou9n7m/vQxTH78iL9q+x8vMvc1n4jzhD6s9Z07BvXFLFD5oT9i9XxMBvrni9L1WraG9nK6AvJMitL0E0sq9EsptPGTD6D0SE9u+QPNpPoazAT1TFaU9cxkxPj6mab3fp1u9kKE4vjpoLT6Ysma+n7rDPuEfEL5WDCK9JsgVPuvOo77ANow8iuCovqlmrb1Ttlm+vPT2PXiDjb6vLMI+MduWvo4fSz7Wu0w+7c08vqMSgDxVYKq9Yv4uvnYmg71VK4q+0ee4vXjKGj7Cu4S+pnkuvh8P/714jrG9XeSSvhdKE77HdAq/W1q7vlVi970UT+E95enBvA7ok73MNqw+h8FpP0a3Br4nBqc+a978vLeo8T72U0I8RH21vULgRr6tvDO+vKsSvkbmGz/GZFo90W9iPRBsIL2xpbe+kpSVPs5PVz0W6gA+YKcCvtwXHD+SW5a+Km6fvqxN7L0ENA6+z9YHPyTiwD6dqAg/WmYzPY9mDT4Afzy8Q6RrPl8kVr4Jbwu+BKcEvhA3rb63zB6+z5JXveFFeD4Tzka9XtV+PoKIHr6Ycvy9Br4bvuyapLxZ9H8+0WDAvhJ4gb7CkA6+OPSSPv/NMT6BSwK+kOMBPodsoj7rTjg+r7/QvRRQ7D3afpo+YiWmvqOzqD6vQZI9eMmDvJC7yTwtw04+4uDVvbodqb5OpuK9g6m1PaGcoL1NtNk8U1xjPVL46L4pdTy+aYUEvqQynLxcyBQ+E/chvg7S7z1CC6w+9cfbPl0Ahz0ByWo+FnBZvpddk701Ira+xPKFPTjmJL4kMJY+uo+bvqCHjL4BJai+hIu8PliW3L6mULU7QO8fvxSEnz4Nbw2+xV1EPotYhL1luu28QG4dPmhVobxnP449e+28vhaTPzyRMxe9dhJTPs5RqT5P/PA+dSqZPsaurT5armg+aRU5veZDFL+8FNm9+2KuPXa8rr6Iw8y+zD6uvRzBGD4aX12+ylsUPdtAcb6IosQ8c3yLPtLzsL2UEmW+Q46CPnM+hb4sszM+VO3lvhHurrwNd9++xf9uPsHraj4gSPc9vi2avnk9Cz4mJbQ9KjW3PhoDlz5cET2+IHR2vpTCdL43RJ09yHghvsiafjzbMnq9TRYzvvr2ZT6ZwxY+eAI2vXATZr7XwDM88SQivoyAaT4chJc98xL4voSMQL7VIIW+luldPni4vD4yvru9fO9aPv6S0T3fF68+SsuXvavkUr4RJAw+PDq7vp3vzb5vm+g+sk3IvUS+5j0MROm9/3JYPeMMeb08G+q9w5JQvhj0KT5E5vy9RL4Yvn99Jr0kBo09IGlpvWAlt747Noi9RsCVvbSL0zwLiYu9WU7APthJnj4MmA4+yQIEvurVkD40mNg+Fnl4PndXbD6/LAm+5HLZvJhk5rpAAdC8XNzXPL5PAb592DE9AeJJveHVzD5IC/c+hgqOvGIwpj3XyZI9gsYruwwTIL2sxx68vDVdPnoBL76YxGQ9W+mJvby4HDyZ+Au7BOouviA8Eb7gmSK+BppKvi0VH74QqZy+ilq/PSGlkD6uHdW9pjcAv5qdE768Vy2+AhuRPbWLrDywK4C9gnI4PSjmXb42ctq9jYERPoMmm76I4oe+SKDfPsupgD4j3CM+XUKPPkQ66r7jxXk+FwIGvgTBMT4IR8O99jYaPjiGMT4hIOO+16ztPJ4vuT49MKQ9ddLHvZrIgb63uYS+CI/IPSFtnj7ZrJC+Nmy9vpFwR70ZRD0+5Kq9PpU0Ib4aLrU+tZx3PhY8eL7KHJA+l8YovqcVxb75L4u+kiM0PiwTfL5chBA9ktroPAoYBz9Om3k+z+1+vltk7D3CLfi95Zkrv1+IK768gTs9OLkGvXT5uz6VwBO+OtTBPfKyjb4VzkQ9yknyPurge75cDIG+eJWTvsbJQL50YuW+xyRUvnmKFT4gX30+1guZvZwAjj6oHoM9wjahPvtt5b7f80a+vxDOPhPgKD5yWGq+smoaPhcjMjxLygA/Cn7dvnAyO75GDN89MarYvu5PiL3aL2m+BbEcPoUTNr4Lequ+a1aWvfpeV7w40/g989XkvFi/fD52shq+OUwRvWdT3rtyK0a+DRmGvNBDpL0wAom+N5QSvu7M0jpSggY/eSikPhYmIL42eeS+Bu0pPyrpWj5g2jy+/XeJPXzc/LwXzc47FM/GvSsM2j1rjdI9oNF8PRCHTTxBGpm+CKKaPuO0Jz6+vQC9TAdXveviEj4OTYY+5Ky3Plb8zb37feO9L9ZyPoAkDj3KQAE/9Z8dPscetz6Q3sQ+pj7hviRMEz0Bh3Q++iArPbeCl77K0+G8uUODPmFuCD6u7vy+OxkrvtX+Pb79EQY+lutEPo17Qr5X2QK+erKPPRfBPT4ij0q+x5MOPdgavL2zg74+NTzBPu0YY77LzE2+HYDIvipTK78WRyE+TXHEPskvKz45Uo6+/5MCPhz7+7zujg0/AKDMPd8ihr4w0Ci95yePPsCwNj7ATao+BXdsvtN+GT7kbSq85kFPPp/elr3WZ2A+SI/JPh3NYb1ajKo+Ss9yPOkCAr9Jm9E9KzaEPizWFL5Y8Sw+o5xAvkBFbT429Bw+PVbgvgpHW77z+CS+HDBTvqd0SDyzfYa9lKIRvoaYpzxx7OG+D7pgPtD6hr7gdy2+APgWvQYPs76uRiE+WquuuvVjEL7XWMQ9d3bqPRyoNT0j5HQ9Y4xAPcL/qz5k+nQ95mKjPHb/r7xuX4W7cqvTPsL9bD60Rfk9riy0vb4fJz66qm8+g2dKvsVtir4gwYy9TFSEvprmYL3WEcI+eD4Ov4A1Hj6Gl+a9UBwUPvCt17yIBCm+EWYRvqvTzT7emhO+peUiPl3QXTzcn6o9Cim6Pqdcp76I6IC+/7xOPiT4Lr2uvui99DZAPm/Jlr7tmzq+diX6umzK4ruHSDS9I3qYvtPDEz5AtKY8zBtNPaqiLD/LRNW9sOAWvpjopb7aDUy+jcEoPmcFO7wv73U+u1WgvfaG/z4/g/69G7o6vUJqd7yDx+8859jdPMVLeL49w+4+P8A0vq5fMr6IUM8+Xvb/vvVF7T1bAL+94cNQPnLGUD6nTLI81NNJvoQp6L3VjpO+Rf2WvKmKer6bYWO7IEJKPtTHZj6+/fi+tD6FPpFStj2VKQm9u8GgPp6ypbvy2Na+HrH3PJJSWLyn20a9AP2WPD5TP76PI0I+BbQFP2Q5oj4hrdK9eTykvsfqFb5cw5e9L9U6PgkYv73KxyA+qqZQPdTziD5fBfc9RsC5vi6YAz6A7Q8+1W76PTebyz18FDQ+f0WPPrLECz4x2JI9llNovULZAz9gwK4+qTspvpow3L2/7Ye+CuCLPrPqZT7w6QO+6IaCvs7AHD5XF7Y9zaaEPiHWxrxa/es9m/s9PqeOtT55tXy+3njIPnDsqT7DU6g+ltRlPsHqAb1Xngc+LoxOvWWdzr7osFq9afMAP+zEt72ENyu+BkiEPkgjiDypQlM9ed2LPmNvVb3+XRm+ECWwPTR5r71HkU68AS64vk1dhD3zEj4+RP2PvY4Usb5eLd4+kgsQPcSUsb5rvWu+b1WwvWydoL7veVo9RXp5vp+W1zzrWYE+69gMvf++rD4JRPk8FXqVPolDqr1RIJK+X5IGvnjdaD64+TE9rMWVPsGbhz1f5kW+chArPhUL+T1l55o9/HdZPvDFKb78bMa9YqX+PvncFL7Xqky9lcJ8Pu9Mfr1rS0a+vM6NPqmPsz6Efli9KGhwvu1K2D4y1TQ+b35IvuWOWL5r+fa9LL9Gvhv7yr7c4P8+eGtGPktn8z3YUbk9mbvRPbU34D3liUG+sdFKPfOqHr4nXak9tX2WvhdYvj16YbC+fFJavcb3rL2lGgI+8QXVvYH4b77ea1u+ogBpvrm2kT4ocnw8uX3zPSSIcj5Eq3m+YHqlPRlg+T4mmlK+jOc/PEacpr57HjO97qDsPmuIOj20r6e+tT+8vOHIUr5CyQM+s8nyPdFcaj5ilJw+T5HLviiQ0byAebS+Puw2PoMoMr5S+Bs+xn2kO9zaYb4ROMA9RxNbviDk+T0kc92+B5WRPtdQqL1tqbm9FHvhvZalxL5c5CI+E31zvlS5lr6GJVK+UhILPp/rxD53gjM82gu9vhfpBj5UGTi+QVELvkqkgr5AZK28q+EMvmQVQL5tIXG+6AC0vUkezbyb38i8gSAIvmxeIL6eNnQ9BcsXv3HAzr4gID++H4VzPcbkDT6FsgQ/BxjXO1N1rz4N//S9IxbrvT1kGb6F2j0+6LmDPtyZaj6T89g7HlU9PlCvnr7zXvg7lPSIvX5PxDqmXnY+HZtZPuC8mD1N0mk+JC0TPj6bdD13rG29M1uEvo57tL6Y7z+9cruoPVMmob2dwiI+T9i5vt9Onz16ylG9YiXevn/Tsz6bHKI+pAgDvhaKSj2gie08PbSCPg6pTT4fxC6+FaDTPIMvMD59QEA8c0KhPE+OQr068yu9QmtJvUlFTL4rrVE+BJCsOypIgT6NsVm+xcOcPt5XV72UYeS9wh+fvYe32T2ZRRe+Z/06PrYm+70Dr8w+lwMgvLqVzb0FZUE9uLO9PusrVrwGhFS+omf9vTZKzL5TkV++U149vY44N76yaHq+edA+vQJNsz4OKtk9lVAfvaMOtz2WbB48L1fXvQvTWT7PFQU+xDzpPMLJGL7DCPi+bfFTvrhkwD6QRKC96qKbvDRxar40Sda8XdfKvKdHUT2Y24i+vXbRvcfG/DyKCFW+cb4pPqAmsLxTP3Y9iRjNPPAPwbz2Cqm9mE54voz/rL6A8es9IyZ/vb2Nj72SBgQ+uU2avQ9RM7znIZE+lfJcvngzDj7CX5Q9jLW7PjxIU76TQ5i+2CNVPogEKb5RwEO8Z8OivlLpmDwbtJS+17nkPA/mVT8ZJ7u+xrHTPTP6UL7SJnE8RzOTvST68r2JSJk+38jYvmZBzzssppO9Cm6kPthKS76B+hy+kLmBvurB5bzdNmo+30B8vm4v7D6mV0w96gsUv+BC9b5mhPi+YvglPzMRpj5bhKI+4BH6PikeCb63pTW9n4gVPwV4dz6R4TA+hvYEPgRTZj6YwLc+eBETPkt/Kz7pzt49TVFcvvkNyr75fOc8xIqlvrybLb600Mk9CXJ9PqwgMb4Qd/g+1XfKvqI8JT1PVTc82hCCPbtXNT55J8s+AxwmvQQ8/bxb1yC+6Co/PlIL9j3uM0E9PrmmPnUnpj7xUk2+MeSZPe2TCr9BA0s8ZrlNvlYKLj0pkOI9e7otPkWqLr42CuC+TnlIvp3Hor4T73m8BBi2PtIVtr5yXSs+9zqLPCPxrr0XUbY9ey1APog3CD+XNPA8OaaJPq8aBj60Wtk8ZoCBPnbntL7r+3c+NEubvqVFkr4d0gY9Is35PMVIQD4NBro9TSWMPLoYLT5rNfS9KBc2vgymDb5tYGI+Yu3BvFq5ibvUksK8BW0mPuou271z0vY98xCIPmBmVb4k3k0+DJw+PpgCAT4foCE+I/Y4vizlwDwGvgq+ZJxTPvkmFD1L/nW+J5iFvh3y9D3EqVS+3d+NvsYjDj7+Vps+QxNJvp4cSr7GFrU9HyNpvrpmwr0QceM9LjBnPl8kczz3qJ89WWPBPZtNEz64EYu+FoQBvjJPYr47Hzi8ppRrPng+lj6IaiY+mYDqu2MC/z3Jpx++WZlrvirfvD6LHh0+CDyPPR7dKT5Cof09ZnT3vXb3pz5Uq5a9Xj2BvWYyxb0xja28iaVIvut5t76Mtsm8+zg8PnIRlL7P+SO+BAYcPuijkL78eRg9j2BKPpwnB73zMwi+05eUPkSa573wCNo90piAPUy9ib7CAXU+7x+DPb9vu75AUrk+hhFZvf0p8j3sNGA7C9W3vaSfib4E0cI+FGcmvrY5Xz2kpAc9ZWi3PUlyLbyKOC2+VbFovYOqmDtC3ZW+ZlyVvSegV75zg4S+X22bvVsepD2bkti9zNahveKzSz7twSC938uaPmYFGTyBUwQ7zD30vbQ15b6tA7I86oWMPkEDzj31zE++ISZ8PRrlOD7SgG6+g0pbvqz/PbxjH5k+Q0eyvSgJcT3u3yM+hxV+vO44sb6Y0ri9Hq3xPUGUmT7ukWE7g0qvvkebA72exUY99awJv3Wa8T1GjaE+Bt4BP6n5qz47Iis9MZUuPgtesz2cLLY+S2divvp0B78sMMI9EAztPpQG8L6OnBe/olkNPt3xG74GvNi+0ZMTPkifsb78CCy/+qvTPWxCyL0JYMk+uxv6va4Acb5cepU9JkMuPg+ne71DoHa+BoYVPgbYg74bYhc+EV1fPliST73EMLk+du+KvnTu4j1E4sA8DWP7vg7IAr7Se7w+NE2TvsNLmL5MTiI+zz53vsDgCD9y8UG+FJ+bvukjMb5VwaK+WurDPlnf8z6IVFY+dKooO/btvb4mMPa+4mTnPQp3Ar7CSx+/868YPswSur6zBAG/8cpnPlSib74Ne5k+rwE2Pja3hj5CDpS+mB66PooCNj3XDXW+nfravtEWFr7tt9q7wTblPb6KjrwvHjg9KMA2PGVt4j4SL589EmQFP2REyr0UbOM+Oy+4veI/ML4nxzu+UcjxPf63+LtWrGq9BbDCPnu8rb2vM+s+G1+ivZlRvT7/t8u+81erPk5nsb7Gutm+/ac4PQl6Gb8L2Pm+Rjr5vkZiJr6Vi5W+KGIIv9HH1TyKIYa+57CSvqRUZb3g1Uq9NA/4u4jTkL75Omg9BWaEPoUK3Lzx3JM8UwkMP3oZqD4izKK+zOREv2Od7D08Tj6+110tvlpcmj5vPbY+aETAvZ4jJj6WFwQ/PxyKPQ6tPL5+K4O+VxMmP1wuCL/UQaY+UPMBPx38eL6+tR48qGFrvkw4xr7z+zs+3VnFPRWlhT0Qvpy9NtusO3z6zL4fXAy+nH8YvbExb74/DzG/19qjPUHvNrt4mV8+MdQ2vrL2bL4yDC6+tiD3vRlvez3AATG949uAvjw6FLrmySY+APGYPhOWoj7G+3y+jHUcPkmqFD7mWXI953eIPt6eBr7k6mC9bhm5vmlF9Dz1pQY+w12jvaOxqj1C4EE+6LIDvtHHq70TJjW9DGsevqFCvj6GWU8+ajILPtpSeb4U+D+8AZWWPcz6mj3ui3i771MFPjQgO75/WBG9hfCOPq7iC718b0w+o003vg4awr53Bji+qlDiPkOHtrx2upe8ub6xvWD3CTxlcwe+hICwvIEX5T3jdl29E0RbvhfhWL4Fyhq9UFfpvfgNwzwC1/I8nC3uPghyiDsz3vi9ooV6PZXMB71qsSC9EKIVvnQ+8j1+FZm+G/ZBPn1dwL0S9f289dylPdP/Cr2mikY9COklPuURmb7jJew8ZwfvPZ686L38bZ4+EAFkPf3p1j6vt5w8Ll8TPyJ7nL235aq+9D0RPg5zuT0Z5d++1frsPeJNpb6ARfO8wns6O+o2rT6/vaG7Y84Sv/fu6j4tywc+PhbPPRNTjL3nuRe+swyRvvBMQrxiC4Q+L7+hPqDs073TswY+DPyQvTxN770m3Qu9A5eVPp8Pr70naXk+wohevraV1z3T1Pa8eHo4vkKfBz+OKW8+JaqKPU0LvL2/bgQ+wbvcvA+Fsz0t9ck+xYiSvXV5uz0TP60+yVuMvnhkV76I3zM+26Apvdbtlb5uqNK9H2CIvvhRGj5901q+KgKZPnBeST1huoY+rvVRPhKaUD4KDqI7Hhd8vrE4p73vmxY+B8GyvT1qDr8MBMC+QiiDPa47FD5KQOe8fJoIP/O2lb6Ybwa+6MOcPuGnj71KEsW9HrOmvlCFlD6Tx5O+gB86voHZ9D4SOgQ+8yi8Pe+mIr1EDwW+syirPkCldD6ELUg+Jg/EvjE0nD4Ahci98JWNvXDIKj5/Ep6+2n/qvVlxvL7aTw4/K+uDvcs6Pj6gjXY+2kMgvcA8tr6rblw6GYGIvpvshL5sgt49bcDHPRTkSjzRhwa9DfgYvbJHGL4r0z6+eVqMvmjeRj7iBbW+5OaCPldE+b1a9Ng+XXj+PCwKjr3ZKSK+LyAVP8Glob6aokK9uSVgPvlJgT5dxfa+Lowav/z4B78kyKo8lvwIP5wBq77qBZE+sDRYO7mX/D2ajTi838xBviVmCr/g+mo975ozP2EmIr17JWK+RPp7vrwHjD76phW+TqxfvmVIuL5Fe6U+YRrMPjailL4rmZy8cu7IveWUYr5rIwI+osGSvtaTqT3TFi++sPACPt5pt7yRzjs+seIOvqYItTwizJ++OBN9vlfUzb50yJC+JEC1PoTB1b2VkF2+PdivPruQQr2/8JC9QqQEvv6rWj4M32S+D7KKvueMAj9RMq6+Y8gRPf+RMb1ueI49Xh/mPmeWpjzWSX69uuGVvhvwlT5E/zS+4G8KPavtQz7VXJc+cCHXvkSVDr6WjRk//+jFPgdyGT7NXQC8sJtEvZ7JSryUq1g9DpdkvkgfQ7620b29ouI2vbc5AT7mLK2+Wz1WPrbmkL2Nzl09DvL4O53QIr5poLm9fhoePd0JYb0RscW9oehtvugSST6F/EI+/X4BvqC7370xJfs+RlIwPtUdNb4uQDO9jczjPqqVzL0Gl7O+t1pyPp3PAr1284I+l1+JvkbTGj6V14i+2TyPvBWPKD26SRw+tuhNPcnmIr4GMGu+mSrXPI4cwD73qjM9pB+QPfkHLD6kTL4+LF30vOVVo77CMFO+Z1Swvmh9hb6+KwO+GkwnPVWPUj7MPFa+9HIDv0VLWb5NmmC+BZ2FvgJZoDxzrva+3/W8vtpywz0XcIg+H/8iP1LbPTzZApK+i2IHP0e3iD5RhE++9p+XvqLYyL7zb1W+Vdwsv6blwj7QBl29nCZTPj2B375E8fi+JqAMPmLv2j5K87g+Tb4xPW1Ipb7mHAy+vBySPtSv7b1mLKg9ccpZPYsTFT3M7uM+tQj2u2QfuL4jTUM+xBgdPlrk4D43N4S+t96avXzYmDwrlBs+dbjBPUca4b77aZg+PDNQPh4M0b6rAq++cEwzvlVijb4THpy90L0KvuAb973xQjA/YYqpPoTfmbyU5kI8lO8jPepunL6niyO9vsCfPTcYtT5/c78+CuW0vpWgnT4OjZK+uZq7Ppi9AT/Qgq0+fBhSvZ1sqL53LAo9WdszvmkUb70+WcC84O1JPlkqqL6MJ7G+ThWSudcUP75D4Dg+a/F+Pse0N75NUmk9yM1ePequlbwDH+O8jAeXvsUEo75yNJq+AkqzvWY1Bz3THBe9ai/mPH9oeLzzyiQ+E4VBvpA4Jj7j+HA+xDPfve3z7L3dupo936dUvpb3Fz46A+Q80CmiPvBSjrz7OKg+GQ5QPn5WjTxyrny9c4AMvc2TOz47d6C+xI5IPb6JTj5unC49lGnDvZGEFD5yj/u9EXx9POWuAbtSsCG+D3ukPiJLGb5lzJO9RzVVvrJcwbwuPni8K7LBPgZjLj4/A5y+JApdPkQ+Kb0EjDC97Vx4vfUDvb0PLty+neIKvtGUVb1DhZM+pVZJvsWqb76ojY6+wnhjPuEjGb2dPna9xtQ6vk8Utb30aCG+yVe7vG0Uuj0Atim+D/w0PsJU572aSK4+dAOTPpCjy75/lEU+1BHaPQ0vTL0zbt4912O8PbNQLL1W8Tg94ewIvajDRT2LK1g9h4GEPaN7kL6cxrc6jAstvk6njb6XgjM9BkOGvQDnQ717fHm9ovkPPs3Xdb0v3DO+R2bxPvu12b6a37U9je4Ov72IfL6GihO+ANCDNfxMdT4GC5I+m6fgvTY0DD6HhKs+9clbvpgTNr7k7qw+4P6vPcgw3j0iiMc9Innqu/9C4j4fphM+xyqmPoN2Gz5IjF2+j1aIu94edr4izRC/8lXtvnwlxj3wG469Ak8gO1c64D1lHA0+Dm83vp31Uz6hy0W/sDagvQcOGT2ZWlS+MV3BPDM/+jzv6S2+fbc+vvs1ej6YnNw+Pr/cPhEvOb5oxom+eWSuvgeK6z3+8VG+KIhYvtnrib7LCCa+kWmKPbRcqT2sl9M9RGIMPilzv7059xQ+yBPjPbDC3r765Yc9175QvMjeib6Vey++/fa5vbHLhj7xY8+7yGnru4H7ur5K2bo9gXzQPr5FpjqtIqS8b3LOvGN2tD0MxRe9JppWvcBiqj64x/i9NHdOvgCGoL6ZvaG+O27QvgOdez2kJXo+kIi1PY3wTr3RAOe9xWYcPeFSSz5W4cE+M5GIPihf7j0noJE9bTcRPw4MOj6H/bW9p17Kvh1u0L7TDPK9U0IgPetmxz2SSqO+VtbbvDgcFD0Ke7s+kcmGvZGEZL5je20+G7Ohvfu6Hj7t3LQ8XHBVvuYFDj88x4e++/KDvXbvKr7O1jA+MMTPvYL2Kr4o4J2+nfCLvdjsiL5/G6k9X26hPb2L9T24+Es9OTGJvnq2hz4V8AG+OO4WPldbuL1cCua9aKkPvr6OG7+2bt+9UhhQvhONb76kHge+iyQUPlo3ITwX8QQ9pH4wvvB+1Tzqe7493QjePbcil73IErg8/zTiPMmqor1eIhg+834bvv8XFb5BICM+zXQ4PZFcAj5utMi9Jb8MPuzdsL3k5+C+9suLvQ4zOj5WJ+s95L6aPl89kj2SZOw+7NABPmvak72BMyo+rqUYPrqACL8y3s69ZR3NPl8r1T2EZty9wEdcvbWcVD78FSe+ZXLmvKw2gL6RdtQ+fjGMPsBQAL0f9QO+t480vsitjb1J1cu9i8ywPoENbr4nxpw9Zx0yPjQLgb5vdgc+TKTAPWoUJb6YwWS9kemQPpDkIbwDGN29eYmrvfOcRr1c1v29zmnUvo3NHT7f9Ca+qoSHPphIlb7LXXG9nNAJvRu8Ez5XCJE+dW45vd+x6r6jdQM+WPHJvk0Ckb5U4F6+PeBTPh71Xj0lGsM+U3xvPj/5w71LvJK+/QBYvgjr7j3VDGQ+ja7CPvOG8L2xe0I+Pxo9PupSwr5Gdao+rS8+vrAnoz5oMhw9RF7NvG1cSb4s6UM+4+2oPaWJlj2uB40+Vrp7PqoyYr0KCp++BTDwu90EKb6RTdi7n9iLvZ60Wz1tPs+7GVIdvqBAHT5pymg+xtyzvXgGfr7JYRG/LEeMPoG1Fb7H8ui9TXyfPqFqUbuI+zE9LNtavimWyTr6xaS+5SyYPNgpCD3RckW+vtr3PUwsUD4qazG+oLywPe+0pL6cP+S9PEKDPGQFaj7O1i0+STp6vh/zEb7g0GU+5/3dvtEUmz1fDwS9oakPvtfvP751/cg9co66Ppu7Rj5VfAQ/CiPevacDwb7yrlS+nTWbvV8vjz2h8j69a3XpvlRy+TkMaNu+ShHBPUS0Ar4FWQe+/0+WPfcHlj4xINS+O6tvPsfD+j1Guz6+7zIWviyB/b5qbMU+l9TDPRdMF77jBiU+0ZmmvhmtlT3i/z09/wGrvqdfNL0fsFc83dMEPguyWb4aizI9LH4nPebgCL+s3AI+cVKaPnqwzj26SQU+9qRmvih1+r38NBe/hmsePy2RBD9ZGh6+HRyyvpZIFj1cX6w96AycvYUiiLzcrIu+ji2EvCeuLT3WZh89YoZXPvgG47221NK9pD9mPgZJSzxcCjo+NJFRPVLjSD5+sac++vyfPlp4bT7uOZ4+gqXNPcQosr7G67I9RiUxPTApg72tN1++xbRpPe/DYr7vNmI+zaaBPihxXD3H1Oi8vgwQvwKghj2BqiI/mEQVvOWtmz5znqU+y+twvf5qfr1fXKs8kRWRPkMKnL68PdE9QZ2dvebQ2z4swZO9seoqPL6foTxYUM6+ZjnuPQD1jz6ZAXG+ER6BvktTlL5m0ni9wtQQP6qybz62HM6+KeVkvujY7T6pSwQ+O9EjPiz1k72t/ae9BDuGPr7PLz4jRCM/NtKYvBJEcL6D0Oa9sN3NvdCTCT7HJM8+rr2UPihdCz+7pge+1IKvvVopjj7450i+DaGivTRS+b5GZlw+uEAMvdFovz1nVqq+m4OlPfVABb9F5vA90kK6vRBff77F7Pc9U+o2PpnAAD2FHwq+tnLuPl6uXj5dZjq+Xuj6PXMTgL47j249N99cvvZwHzrepbS+51G7PqIEBL42RIc+6HLVvty0C73q07Q9K5txvObDAz7ZK/O+XZpDPpUDuT7GO/w+Pq6bPWzjDr+X2Q4/XQI6vFR1krw6sE0+5sfjvHrPcT2RN5e+GNo9uoeKej4bG64+mdUqvlTijz65ETa+efMwPgnEtb2S0Oy+o4FHPWd/mL7QVB6+uxyEvuEJnD4n1k4+Nbk8PhTnLj4ZxCg8J0qOvCQF9D5WaEq+Q2wiPnDbtL3YNjS+NVTsPfZ4wD4M44w+iT3svlNX2b7kY6++69YEvnvGqr6+y7U+gkk3vpbvy70dJgG+RpibPsS+1T4/qnm+O7oiP+/NED5nVYO+yKAsv91bPj56l+Y8VGTXPvSCvz3S5z49miyCvTGtxr3Wea293tGUPXf8cD3SIFg/KgPIPvH1pr73Mya/DOfQPR/V3b1shAS+21tePsnG6b6ul7I+MGUoPslMnTsodAM9Ghy8PEhHSj4iqIu+tLYOvlASLr6ELcG+hqEBPq83SL5FIsC+G26Ivtvwxb37lbw87z4pvJsuqj1y0+w9qw4UvZVYfb5dn609z+RMPYzgLz5A29U97/eTPvzRij2r1Sa9Ht6LvujDLT5aokS+IxmiviNv8z32E4e+FdtaPqaYRT40nS0++XowvqHByL0cIhS+CoI9vjkhKb6bMFo9zMBvu4refb4i61a+9l+EPdhPtzs2dxE9WkWWPtJXej4/GT++u4a0Pu3xi71eKWS9gfqlvsHwsb6UhiC+c1bEvKVLSb3HK4G9qTMqPoQ/Tz2KLhS8VrwhvOFUgL5VWLi91/x7vCkMjr0QG7I9SXUnvnqjZL14Ois+KkdSPtS+/byoUgG+ZtdivsRJKr6nEV++fwokvVIV8D3MA6A+C9UzPu1oTL1Skoa9AQikvgX7xzwn0RU+5rFmvsECdr6aZAC+nEaIvXCj374is1e+/YluvHs0j75Xsby8bDeaPiXSI74Hnmw+fkcBPDbsEr4PFyS9z9kyPi3ME76GL2E+fFEHvVcggT7cgVa9MDqPvWx70T5iDqQ9txtlvMMcGr16+eo9DjkBvXuDp70hb5w7vvn8vVgLTz6Fmu+8cIFsPkrAFr9N0A0+jA0svruPQ74lkDw+adWhvtcCDr46hge+OokdPlSRVj494AW+PHAAvetSd77zxVI+lf4+PfTFiL1zhPY9YrOzPdr0kb0tNb8+bSlovSIwWz6hqiC+o8KcPk6fXr6ySre8hRybvoQvDj09qRo+hGb7vWIfrLxhSQS+w2ICvPoU1byppma+1nRFvmJ3Kb4o6YO9q6WHPdukAz3W5MO+JemPPBv56L1No0w8eklRPoxzFj6pBoU9gfwLPsJhdr6zw5w9mk0avnJRN74P76m+6uLdPVug+Dy/2k++M9TWPUcb2j0gbeg982CRvUf/aT7H1MO85P7gvRx2eT55zdA+iC2fvsjPtLx+nkm9NwxuvcYWA77NtoY+TBw2PniTKL5MfQI9cVzaPsdQHL69t4K9721PvkGzEb/X/D89Bw79PQz24TwjJR28DaMXvZoeB73R+nE94wyhvcvN/b2lG/u8q11rvvoTmT7b6JI9S92xPqEVsj7uubE9WQBKvlakND1WYlg+5HQDPtVNi77nHf+9o5ygvtipCzzRD869EReCPtTobzxt8Ck9YTszPbJh073nTqK9KriaPm5uijyRDo++ocm6PkXWx75dWea9fAsPvsj7Rz5idYY92geKPncarT56oiS9aW4hPC1lqr5+Kpu9mByQvsEMWj7VjaA9RB4SPr2zVL6q90Y+ub83vg3r5L4l94++JSl/vr9sgD1AxjC+dwpVvSiQgL28FRA+M80lPnppnD6xydy8D4ZfviFXSD4GbqS+/G2LPHNIeb4mziu+M4Afv0EtU759vT0/akvpvfwDwT5+qpe+mwzhvoy6W7xcYJc+HMG2PCL2Nj4XSpu+CpnePmWRbr4T7Qu+dGluvI9CWr46sFg+nNx9vlnBAr+XbYo+kHdSu3tJFr1WLIa+bVDoPuQqCjpyO4s+/5OTvlwOl76mx4O+czKyvvMKFL4bvDe+41zIvVgli76i6Ey+L0gDvugnJb7OBq+9zGD4PpWGdL1V0tG9A2BlPuZGCT6K03W+b8XDPYnL2zzTdbu+IoKMveL7ED7aZVQ9kViQvlaeUz5jL1Q+OvBRPm9qwT37IdA+MsC3O364yj5Qk6m+001UvsTEPj4tjGO+mM6RPiLsFD4w/pe82ZTrvZ3eMj6e3vG9FQADvTMb6LqamII+GAWtPQATNT0IWZe+M6JGvgAZD73kD5u+uOc7O2R6kD0IZe0+vViCPmZ3sT3L8lI+lmfJPt4ZBL6MNyU+U046PjDUo7yF2lo+4X2qPoImp72cs9c+zXW5vr8kQz6oN8i+OskKPypgnT3ek+O81NQpPt/twb2H1QK+XWlePof0Pz5KJMC+mRw3PkPVnD5e0mY+50KIvjkcsD5drfU9aJ0UPAhlH74WeSY+mGNgPsyNBzsGO9+9YTiiPfAyZD5CH+y9V0kQvmdCs75Vj8C+VopfPhYUUj6gbli8JGGgvANWcj5+l6g9FBOIvR6nrL1kL5Y9poXEPAZW/T3WyRK/s+C/vrfzFT9G0uS9bWHmvWxCcDycvLQ9fuxFvaHFj77R0Z+9MwQmPkLkV775bXe+ZgqJvRIx5LyHYCI+jKE+PQdO6rt6Cmw+XylTvpn1xTz7qlC94NUrPmu9gL7HMyu+OrUcvkxA3734MQ8+Z5fJPgqPlL6Gv9a9SjVfvtxosLwDsHu9MnKzuyqOkr2zVXq+j+udPUKCGD403AI+hlm3vrxLtr4N9sG+sGSrOywH/b58UVu+DYV0PIsTMz63qHQ+4kMSP/q5Ib71U6M+JK8ePte8oL6+sYw+lvufPje4hr7fnf69R+ejvsdqiz52N+a9TBHFPoue2j2n5M2824GcvL+lGL0wHGs+xD2jvu601T3dG/m9kV8jvmzKzr4icwa+XYshPgvP8T6kFSu9HG44ProMiL5uGfm9DuPJvC3pYDwfZhS/6OYkvtySor4FM3A9CwdgvXqXJj4wwSy+S4HUvqTcHT5AAiU9kS6DvvrT5b5bVeg+BFiJuVp1Rz5mtkk+G2mHPkO+xT6xtkU+IyHdPW5xCr6WEpy+vDPsPfdQ7j0gHBY8Zd88vq4V173pCMK7L7h+voI+pT5/sxG+8byEPSEKxL4ZVnA+gfMgPo/POj7gBla+7NAOPy2TGL1k8+S99GXlPb6BoT5jYXg+q+DIvCkywr3PXWU+HXDYPhuTCr5vE46+9222vOyFuj0ejio8KN8QPHcZUT7C/aa8K6huPuDesT3ToFm+6oOFvn670z5JtXk+odG6PcVyOb0qZJm+SS1yvn9+lT7JXBy9huPpve80Hr7DTuM+XOWkveO2OL7H2BW8G/XFPanfAr9NzXQ9Olu3PW+5b767Lk++HEUnPodG7zttgee9BVwLvvkPNr0eFSy/3e+pvnZea73vxSA+oQHLvCuQmD42eFW+VvoxPqlC1b3EVxW+d+KlPUJifb0+p+M8BRs5PHeLYL3ot72+ZlwJPq3Riz6/CZI+lkRNvhnXi7yB45+9SykfPqB5O70PM4U9u2bYvr5mgD4vHIy+zmOtPt1LZD1c3A8+V1JdPgxPhDzG5dM9Dl5mPiqWa771YF6+Ci4Lvqh0wD1OWx49V+72vLyM/z25rLc8cIKUvqLGv735Xpw+puptPodzLb5hey09+fPYu7FzUL7WUQM9wwoFvn/zhD6ejVy+b7ovPnWEOb7fMmW81ZT2PQcHfr2+J4o9/B32vQTImL5mNNG+5g2TPrhGzLwW6Km9M2h2vr21vD5MSNG9juNivchzYj6ztqI+o4STvG21Ab5G3Uo9MO1avYm3QD7vFwq+qfK4vb72kL4BKAa+YbVtvj4iVz0hq8i+H3qsPd4Vcr5YSBu+VZXMPVxkVT4I+Hw+8HmGPjGbA70ffFe9BdoIvdhf1LziP1G9X+3HvCXRh70CAx0+Ryi/vY+zqT5Qh489gkOoPoZ3Ej3YPRw+PP3ivdjAJrwBgpk9SOkFvoID3b3mD2a+VtahPhfvyz2iN4g9hDuUvK9UDD6U88W96wIdPcisYb1qS649e+pgO9G2572gmMq+CAdPPisVAb3cs3S9SkeCviaVeL1LAYG8j0MkPWLHsjz1Tvq9T31FPnVLIrzPf6Q9a5OaPUouljyLoXW95zP2PfTBSz6hZyy+FvXFvinyCD2LIQW9yckmvP5MFL7USJg9hg2pPLzVPjzj/us9/NeSvd54CD5IE++9gRGIPQqVHb4uEwa+yauTvnts/z0iqzm+DAJlPo7Sv7zQCnE9R7+ovUtxGT1g0eE+fkqBva+Zy70Mqpg+rGqbPfnBgD4ZPFu9zuZ0PmSWFj1h8Yk+nYGDPvvYkr5yOkO+F+dgPUXZq73Xiu29t7i3PjhzKT5OPdg8eGKwPBLcjT2XSVI97BAzOj+SO75lLJK+ERVIPkYWWj2pVH2+j4bovoQ0dD0+Svu7Bn0cPiBQl77IDoY+ayDTPPY2h75A/I49ShwSvKsSo77tfe07RU2xvjRsyr5o6Og8YPBJPqjktz67a5o+VnqzvoluXz4Xiik9VLdmvst4Hr3jRZ095SqHvT0NID5lqTm+XztDvniHIL5gK8E9Z/SQvLB2Rr6CeUw+YEX+va5qCD7nEse9xK7PvvOXHT5Mk56+mpZRvkkCwr3Ko449SUhbvr9fG70npkS+tveOvl9YRL5P4wa9uLZePPNxcb6qpGU9uNmGvWOGOz2MLOc9tBPeO3UHTb1ZwHc+cSfhPg6OUz7JtNW9tKEtvmejJ77SRSo+b5hdPhgj1T53AjU7a0wOPrT2fT2vUoy+IOtmvm8mDb6XObY+KnbDverseb2Ff9w8trJuvb/IDT6geTg+NsI/PeAcGr7OvxK+kWk3vgDYIz6BKVo9EBRoPtJwUTxCXKA9/IChvk2wnj1q/mM+1oP9PjO7gb4CggY9tw6hPud6rr2jgbS9dR3GPhWuUD4TNJq95W0uPs2Hfr50WZ4+BciNPR0YAj4T6qq+aESjPhMOdr3txcS9cOAQPZoGcb6zgb2+tHKsPpk4sb1B5wc+QF0UvnIHaz60LUq+0P57vlw73z4lnv08YGJtPQOambyS2No9zWpIPmpTrD6sf629GNAGPpIdWjttTAM+xGICPpSK9T0xKnG+DLiEvax9oL0i9Qm+b4s0PsyhBDz+/gw+TGiUvXw5IT4heA0+GeKvvJ0k0D3Kpe07FgNFPtIhRL6xS7o+zg0GvrsDtrzQQgc7dA5EPqfH9j1JLW082cSePeyDmT004oI9pzAOPXQ/4746DWG97+TePcxd0D12KRe+MhTFvl3buT3n83w+2SjGvZUZVb57nFM+vHa7PQtr1T4kYA4++lTQPW0hVz5yezC9sLPiPiFWy70rqJs8bSwmvoL/JL34DFE5MmNvvlEQyj3teAO/NYKFPnTw9b1gxb69jkL3PemLQr6nzh8+uP9aPrL8Er47Yqy9oB3CPasE775CL4I+NgQpvvwYzj3ndSk8u2U1vZrZZz1NRXa8b4l3PgkZRrwoRw8+ZPQ3viPWoL47Hqs8kOUnvgAYRz5cr3O+9CiHPt0KQD5XTN89ivgMvshl5TtM566+qtVAvgSTLT5Mo5q+kkKePYmrfj7FREq+3aaGPv1nXr1NBU4+ZvAmPiMO0L64wsc9JpcNPscwkj3xi+G94XOVPpDrh70tGnM+dMSbvhXACT6H94K+5oTIveqylb55TfM7i+UtPxxTc77Mqk+8vuRRvv3qND4VJXy98LHrPVBuiT6Kp0Q+6hYOvjsdrT7rMy0+OJAFPk5yHb5+EJi+Fyf+vGO3aL2ELro93yyjvhmK/r4snwS/DWg4Pm7bYb453zW+/Mf5vnhseDy66tG+akdyvpKetL38xiy+rRKZvu8P8b1QAMA+Sb08vsn9kz7KN8K+QokVPx+yEL60dV49cEsrPuMMqD4V5VS+1ek5vWVUIL5pcD2+ki2aPVReeL273v2+HY2cvmOrmz4rE768UcExPqBPzL4xDva9jzCaPhvhrL3RrE6+1ByLPX6wBz6EGMU9/jlhPQPgfz47Ats+QJPaPrVTq75sSPK+q3ggv2nh/72k5hg+jmRWvRwgbL4J8+a+MM4/P4tAMTwSRH88wbADPwLmkT5aoD49lc1RPiIaF79FrJ4+jxe1PtQRGz6AK9O+azYJvXcHjb1MADO+jCeYPVS7uT7UEgU+elHZvb9iWDw3AAa+X/zevVCws77ersS+T4sJv0M7370cHkS+S6tHvbfIuz7uz82+72+iPu5PBb0dc06+ntMDPloeLz5QXy2/xf53PCRLc7tyHP29Wma8Pf4thD59FAM+dZ4rPtPwub1hGDe+PzmqPrWu0r2LGa48ykoXvgArfT32pJ89vHmEPcG95T2i6Ye6qsEGvzkdJr4dt08+LenpvpIF8T6sSr29SJzhuvxRSD5M8wS/j/NOPrZJuz57Or0+mOZmPAR+JL92L+k+icWwvbjp7z0lcRy9wdS7vmzcO74i2TO+Soy8Pt4mgL4vDf0+A7usvstF9j4ZRiy+GK4iPxVnGb6qUoK+wDotvueNnL0cJQy/WanmvKTjfz7MN4s+Wk2mPsA4Hb6Iyg++WBIDPnuQ2D2W1Vm8DbsxvzNVMj/vcz++yUjWPLbFOj1in0Y+r7iVPg3yVz0UFP09+MkbPoPbLL6tFOQ91kwYPtlLhz5m8a280Vy3PkvxFj5AK5o++yIuPaDciz4MPZK+3SY6vuEtHr6/seO9CiqlPA8cur6eaLy9xgE0vcb2Ij52ddQ9xoxrPTyQk76f4xu+2IBYvj3oRz69hes72BrFvqmq1D1cUv69wCylPBE3LD7sxBM+f0QWvrrRxbwETpA9lRlcPuwBeD1K9OQ9lwCCPjiWsz0oUkq+UrmUvv3bYD1lSQe9y0BUviY/rb1ufaM9FhnEPnkB07wAx2m9wYidPX9mFbzlu8i+0TCsPlLxnj4xovG+h1mMvZl8xb2ft8i+v0jnPFMuej0groc+gfuXPi80AD4Mpbw+QnVkPssMtz1lOg4+aJSIPkhmfr0fn8Y9dX6LPbzH6r0c2WO+fUs/voY7L73ycEC6nz1QPr3hIb16RoO9FyTFvRW2k72xS2y81wIvPajUOL7Ccqk703XEPicF9z2D3iw9FbeVvC20ej4AEi++tKjvPYAoE763GoM+2RbePocXJ76vh+K8J678PB1hY76dMuy94I90PukFkD7S7A+9dEzXvcdNor2RFUc+ZOr4Oy1XML3ed8k9JQkKPao6ET6L4/w9gkWPPemYfD5ciqq9phNVPXIdK76lj6K+7s/6PbiZE79xmYu+EMqGvYwlAz7lOCO+G9KoPqRkeD6aC8Q+kOJhvogWM73Yd5S+ssWlPvt/8b48g8K9wfwoPQjZlz4lziK+6TkVPf/PCr6Myu29dqIVPi4h3D0Ef6q+fyprPj+HkL08Qf073V6Hug+Yir6bTZ4+LEiZPbgxrD7eg8g+G576PYszCz5/ppg+YbAGvCOlmL5CIju+j3IWPH0K+z3cC8O9P0y8PmTc2D36Hjc+vD7mPqbADb6MJyY8wB0oPW5+t75Ty4I+L+eMvosjbL7ufMC++S8qPi3ZRz5KCYk+Z2WkvNyElT0Yl+e9D1oPvkcNVj4sCkw+XtDMu5HPL75wZBM69I4wvTkviD5mKZ69ggZwPlyxZL6NljW9WnAsvr4YHL7lIQG+QhRSPT7q4jwG2lk+kdHbPNri+73JDBE89UU4vj1/Xb7AaIA+jRJXPsjZY70cI/o9wLzAPorrlL6lW0Y+Mlm3vq3NST6D6BW+8egkPrsGJT4u3Oo9fVAavL6UIT1b4tu+wXuRvhgzIr6HMHs+Ak3EPtIC6T3eUaG9/CNDvjlhcL6/omO9WESfvovcdr5WhpG98zwQPsk28LxPXo8+FSSHO50QUz4Sa5a+kBLvPqZEU76azw0/ECMwPSKycT0mymU+951wPVfMYL6ezR894UHGPbblmL2d1cK+W8lePr2rDz6EDnc9JcI9PS7zGr6h7QA+9R3+PZ1LEL5+Da6+J9tePVTOjL2yEIG+3/OtPdUS0T4vcU+9mJnCPrZV6r6WN/Q+DQ0VvVchpb4fW5a+Ai4fvhQGFD7RQIC99s/zvtCtWjzdAtC+XFL9u8/ESD6FrsO7oSOlvshPnz7On7i+uD4avj1kJb7uBck9QWRDPpIBwr4heWA+clqSvuVhd74prxG+LV/OPkaeqD7vsZy+qEMOP3CInL0SJGq+bbQFv0lzNz48wCI+x6eOPjgv/76OSKI83/Envjn+GL6+yI0+XFuFvYBfTz5Ocxe+aOICPyLvMb7DwDC+nLbNvgy1q77h54W9RinbPb0fF76vUai+CROFPvzTJr3AjSq9vP1TvJgNbr4BVYg+pBynPMVXJz1WL2M+ML9LPBx2HL7tmbI+UEtivjzqgz6Pg6E+r6WXPZb+JL67ryW+OurnPQB+JzwqfRW9X4m9vsUreb4S0IW+gekBPhtkzj5yQJO9djOVO4Rsqr7kOqg+6od3vRmvuz4Qxeg+EjMdPixzWz57fYg9Ejl8PMY3rL1C1rc+womZvFz4hL2kRpC+vCRBPmpS570PDim+ARShvib/KL4Qvxi+4G1xPmR3aT4VAn2742JVvtLkO71OSki+xyJpPWtmkD0UNwC8XFUrvsaBaT6rQas9I6AJvn49Oz5wJd++bURePqoQrL0TAxQ+t09yPSsElD1DsX49fftwvhltMD2ZTd29kT8KPsCcR73CmhM+4UgePnbvPTwxHaW9qZdQvktkqz1GiEc+puAkvhZFwL4/95Q+GJklPUpBi7xZK/09mQ8PvvLb/b1hSoM+BefsPlndDb1IrUW82vftvfZVmL1s3BE+MeoJvr846b1VY4W+yJKlPkBvtDvuE6a+5ySHvsbeMj027ua9AYzpPR7odD4jA5A+GQ/tPsW49L5Q+g0+L9r2PfVhgb3jEY29ec+EPnk4O74pwKm9Y1DAvgobY75Fdqc+MiEFvKwbzD5G6Ks+btzAvbhpor7NKYY8k6BfvvbZ172EBZm+qZWRu2ThBb91UGm+r3dlvaoahT7orcg7R7hsPgyWnD4Krni8ChPsPgipyTpr+JC+pPpCvYffUL4QcEy+/ni1Pt8kGTwuC2o9GEwTvmm2MD7alRy+nvDjPWFjeT7Emhg+rHTOvUhPm7tOdje+PzR/vmo39D72IKQ8jjy+Pry64T560lc+C1GZvXy097yxgs09Um2Vvj0V1byPfRW+xGwaPjdWubsJRfq9CMIsvo5NqD5tKTi+ErfwPoZPxr5OzpG9YDJfPnScqL1lF0A+iMQQvogZbT1nMzS+fBzaPbDRjr6TVP+9QHYlPvPPSr7R5Ry++SSbPGCVmT19Wpq+4Xy0vUZqSD3gyEs9WB/dPjDWML6MiSU+2KgmvqR2rr6A7fm9ilUyPrmRTr7wkYu+C9dYPlQM1L0V5R8+SEa/Pha2fL5zjqC+Otk0vst3DD5Zk9Q93y5DviVyCb4n5bS+zNUTPZKHor6kemc+BuYDvuJGXT1IGYI+uY7avKdzFz7agxO+aEykvq+KnL70qhk+WsJavhVuC72lSP4+9tYsvrHz6j4b0IS+IK1avZcSBj6w6g2/GiMSvHzhRz1kDJS+N/zTPcErK75cHja+HTWuPrOgSz7vOLm++SIgPk1rFT6udtM9dMpJvvO8XT40LAe/OT5YPqVyPz5YCDQ+U8GvvRho/72vrHa+fZGNvZZQ1z1s9LE+cNKGvPjScT6JULw8lR+8PXXyFj7MfWi99+XcPSYihb7fM1A+lSmnvqer471T3ti92i5APbKn4D00e7G7bgkLPhVQhT5yQgO+YLgRPnm0Vz33ECA+Yv8EvhiF6b2jrh4+qKAYvs/Phj0piz09yckqP/sKxj1lquq9UQ6qPb4qsL1inUK+TBVzPqMkur0lxSq+c/JLvsQIlb4xyi4+mfUrPjpPhD04+WA+/26FPVNjUL47pwC+6hc5vg6KDb5rBj4+Na94vTLOab1HKFC+Hv2pOhdSLT0O8jm/NgSfvdOmyb5Bvem9Th7OPHcIhT1d3aw+FCJzvhnFhr3EBiQ9qDSaPSJtgr7aXxo+ScSfvbEykr0Q4kY+DYcYPkuTCD5JTAG++UIEvnB7ML6CSUg9iGVYvfrxTD58It69FK/Uvv4pg75HuYW++J0Xu+vUpb3HhXC9vkppvZvjbz6YilC90fnEvL6QSb7Z9SQ+VgXAPJ1PQr5cxJe+CHU3PrrMj75xFQc9j5ciPyNOZD4KXhs+/0QdPiPVFj+lbza9WPnNPZ+4Sb0lK/Y8B7cbPpLvjz77tpa9yvESvaEU+b107M29yVyaPSP2c7z9Vcg+xsSDPptGij5d57S+Clt/OykRIr46brq9NXDZvp7U+TwVxi2/wPfFvYBhhb7Q8+k43UTmPmlRlr77Y0k+pyIhvkm0oT5OAvg+zo3HvbEH3D6n4Ia99Rz5PaWpsz0/CQ29F5lbvuj4hb5dgCo8cCsTPwIzhz5EEKG90elRviYAID2zo2c+JovKPjI5Kz7JeQK+QMeAPcJli7yhyBO/6jfGvi7gMj2806s+9Be8PXo9W77fvDi+7J/DvihTMb5bgbG+mDH0vc91Nj5U4hG+JpMYvqEgMT6Rx9k+UcloPjuAPr5btiq+00N1PmigH72AzIC+ZTaNvtffmb7tJqa+7RarPiASMb6TuLG90h9jPSge5L3yK5i8ibAcvDX1Kj6Xa02+ZuLQPnLvkT5YK0c+vPTFvlil+T6InLq+fR8tvp8xoL6fe2q+ExijPsWyhT4iLZY+cZTMPVlESz4JJpM+/1OePRhW672P+PU7v67qPVX0Wr0Oy2m9MTkAvkninb4HNee8+6/IPp8IND2ViKW+aTqGPi8IUT2RQx2+xjkqPtZFEr7AZTW+YrZLPtk46j20p6O90PkAPqKUB74D9ba9vSpfPbnWE74WHsI8O3+lvS6WxzzI5Rm9UqGuvU+zfj51JUo9YZTgPQg1Vbv8y3O9V+fhPURw6Tyu+7m9Cch6vsiEuz2mi4q+exsjPSD7Zj7rtpI95TgyvVesZjxRv9y92DcGvY/xo76a5WM8Z96XvVGafL4c0hU9qOGDvLcXET5Wlie9Qc9PvtSe0L0yY4+7oHC2uuMuar570Y895Hf/PjgdkTw2MYA9Zp8APtuvk71C2vi+8Q5kvpFUor58d4w9g4yGPkqU6L7zO+q+yYehPiRcjL7M3n66HevOPiVUn771NQ2/vbUVP3DPRT6ZQ3a98mkkvyRz8j7TLB++0iLzPJKjKz73Bmq+20iHPi0PJD4gYck9KFXDPqA8Xb43iqS+DRQgPmHTLT3+Zyk9hSixPfDKiz6ML1k8f3RTvh4Tg74AP1C9JPPjPgo2yT5LJaW9AP6BPhFOhb70JFe9letFvkN9TL6fFsm9R8GQvLgbRD7LWg49/WwGPt6juL66fhA+5gNWPp2Gk73ds5Y+lZ+BPTpBaL3nP+s9/U0TPsLoaj6tO1c+UW8CPqjFdr3MHWG9WBojvoMfAr43N3A9VZMfvqYQ5jyM8Lo7hFI7vm56bz5TLKw92EXDvnDBlD4oFiu90aOMvdGzGjz1K0M+Jlt5vt3knb78zru8AtY5vXkNcb79K2w+S0MZvj4Onbyp2Wg+Um/FvaJuYj27l0g+AXxuPvtAlz2ij1q9JD8Yv4TxSj66S0s9+pHwPqZWGb7FnLK+Pc+XvnSTdT0Fat29wpcNP0xEmz317Vm+yD0jPpAh+z7DU749iWDru6xV2j09HRI8W9Lhvrczcz1E61u+yDwrPsLVjTwsqKa+WI8QPxK+F7/ziMi+v9/0PojSuz2rH3e9U+FyPqf2ar5Xh4q+LAb1Ps0aQb6Q1cQ+VEbqva/WDj693ra9/YXXPFraxL4ea5e+upJNPe6nLD3Mciu+44yFvpnlkz4jFNs9aSShvU3tFz17R888kjguPRK6Mz3zHR69ZxZnvqwpHr5GDFM+KpPtPnjqsb4ehO2+AhDWPuBXLD4Qyoo+LKvVPBBX1L4HlOu9YhIlPYw9IL5TMqU90DSZvMii2D0ivY2+nUaWvpCX2jwCdk6+jdmDPbhRGD4rE3E+PzLUvv8OBz+nVVY+WnAJv4FSlb4NcZQ9Cn0pu3a5xT2EL6o++WL3PYTmKr2fHoc9cjwyPUWmbj1OlIy+w9atPkyzNj6L8sc9zyMbvlAijz5t4dU94MmlvS5QH74Lssq8Ern9PiIL4r6OLc88q8dsvVPoOD6Wugq/Ff+PPk1c3L2qYso95zKyPjVU3b50dCa9LbOXvgDWdrwZpM2+ANLlPvsPpbyBlHU+7u8/vm4gtT7WuHA9gW+7viXDbz4C454+TyqiPiWlBr7ijgS/gxvFvZl75j1nPMU9fo+4PezBGL6hbfY++4kJvaa7bb4u18e9+kpzvRG7br75Juu8Mwc4vTdNpTxOFte9CIk+PWlUJD5WdH2+xOcRvkFF5r7Iq6i88QuAPu7Opb6OZ2O+xZ2hPvfUF74rmvK8gAZyPcqcmL4jqee+Hh4FPOcAur3S2PC9eXJRPWRkDr4dkjm+swSXPuMTVT3uS3a+eGILP3yQgj1y/AU+UZ84Pl2asT0QLyq/R7EBvlGcIb3KwQ4/M+6ivqpUGb7oQXG9pyzgPpzEFz5zdCu+EUGbviWjYb7UCfc9I7exvds+Ar4i3GO+vRurvmRmYL5sVR8+r5OrPfnb8j76CF69dKGFvdg1PD2dNJi96NGdvd3sGb7z0SS+JT/wPobm1L7zN5q+uh2RPt1IEb7bkKC+ssvEPoy0o74JuWo+GkY+PmXtNr3AUa4+3o75vbq7PT4/7Qa/VbadPh8fmL6G+sS+pjbDPno87T3trrC+g6kXPry/yr7QIRU/ZEsWvh6k7b7r9JQ+qUKuvME8Lz7aSs4+G3cOPwCzgD4PgtY96lcSPjS6oL1vN8Y99q69PVHQsL4f96a9d8RHvOuZ2T7aGzc+NYQIPmILkj0t5DQ+xdwlvBLyS76APHc9fW4OPl2c0722sqG9C9sqvr1kwT6hbQe+hqV8PtQXLL7vU3c9ABd+vdg6Q750o4I+N4iivgB0uL6i49s+s1OgPddM2b2EXLY9brIhv+i11j3/bDa++L1jO2gvfb4JZAE/OEW8Psvxmr5SXzc+TQeMvt7oLj6z6re+v2kmPs6hib3W1nW+eSGSPTG1mb2LSEI9WnMlPh8STL4BGNW+LvF7Pra23z1VSCk/Is7NvKynJr6IKEg+IRiVPfKPrj3QXFK9cny3vh+srLwLB869MMjtPlASzLwXKwM/vQpaPTj5fz5EQ5G+q9UTvZr7AL4uzbQ9yPDgvh1lnz0KFEe+QF8JPjeBX70WVn0+sCWBvt+Ll75h+mE+e88PviwsFL730ii9EjQjPhQOGb9fbho+hHVDvmylZz4LgSA+fB2svDQVOb5t34691/y3vlNXFD7ctjI+zDTvve25Gb3C9tq9ndppPuAuwD5bghW+YvaSvgASN73H2JM+TcKlPsDV7r4Ja+i9H/zIPntqMr691B8828yaPlk/lLxP0vq9dz0XPvcePr9KUZs9r26Zvpr9rr78xWo+AzoDP2pTvj0Qx8W9K8tmPlfb1LyzdZ+9IWwfPoWMJb8N3YW+rrTFPvSr376WJec+barKvRBxvrsAHJY+C8P3PfRprzzkxiQ+NgqGPRKkDb82QkY8Wg01vYsm2L3Pwy6+kWsMvlBYFL5Kdwm+tqAmPHVXyT4LzEC+xXktvvVPJL7B1kG+hHglPot0wjy2yIC+jET0Ovw2XT4tBqs8n+LevHjWLD43CPC9Idk7PjSZmb6h9KK9MnDGPWqtK73/LMq+fBi7PCCuU73jLTq+ryK9PknEsT2W8Ai+I7eQPhMfVr6lzAq/C0svPHRtOT4iNlQ+rA3mvbdDYb42d+i9euBGO1S9AD5N5TQ8rCE4vovVnj4jGHW+m/C4PkB6XD414Ya+kqAmPUa/IL6E0Ia+Kt7pvZs2tL2Z6j8+Q2KBPpuLhD7Ot6k+aDGSPV1Ee7xMw/C6dCEhvnkQUT7OeNO+Vah2Ps9cWz08IEW9vPQIvRB4nTxC22895wXkvSJF1j3w6CE+Kt1vvjopej5bXdI+zjMfO2/v/T39C6i+uizZvouDV74HAbM8+aDGvC+WPL3tS7i+3YyCvNLuJ7zK1J4+hf2rO70TOrw0GGE9dIO7Pr1Cuz6kfCG+jkpFPX/wlL7GjzO9Rk5ivYy3Jb6nBxC+UsLRPr2WPj3NPk6+mBBJPbpvGz4SiJ0+MW9KPo0teD5y3W4+3A2UPc2hRz343hs+pm6fPhPDgD3zXcE9GjaaPfYXOr6U10q6s/uPPiQckr77pYW9olrUvSL/ZD5NTxy+brgyPgo8Vj7AJVa+GXJDPaPRq75tOoO+U7FxO1fmyr76BEW+Q6mwvtL5Gr7Kz3Y+aVrsPG4lsT0zSLo++IqnPh7mf74/SpC+BoccPkDEGb6GyR6+w+j1vW38Lr2/R3a+sC2CPo2omj3jpj0++W97PYhU/T14CMW9sqWxPqk/9j1MNIe+rmSLvo0zhj4ukEc8E366PtAJAb3TeHM+fa+VPKe9ubwogAc+V8BYPolYYL5NOte++BlWvbGFnD76kBa+kunhvp/iVz4MYaE9IEz4vfEBsz2CIQw+kzUsvtnARb6yuqe6Zymhvq6oij0LPQs98HBXPqyow7wmlQW9m9sGPybX8b0+Nnc+FjrFvQLW4bwEXLg+XgDKvOTNt75Kg9S9b98TPkLTnr6Vat+9g5JLvnXOUL5/8+o90mLMvaZOmr4IcsA8gH9gvmDUlr78TA2+5lfEPlqDML7QhXc9RGwOPlQ2hb6v7NY+Vf+bvpTyLT3SlwK/inqKvnA6cT4aIKK+K9l+vZutST08Agc/+jUKvW6sqD3AUww/YcQqPqKMij4jGEm+vb+Yvqn1lL7oEYC+SJKwvVAtpz32n0w+NF/nPbJRnz56nDE+dovCvtDRv74smow+CqTUPQIkJT5d+Ew+mNNbvQpYHb5iwsu+5vJSPnP80L656Nk+gkycvhIbSr4/DLA9NTOPPhHcsL7kJ929AhVNPveFAj4er789R1+pPoYFKL45C1A+l+C/viGM7rysg06+WxbCPDqKAr6xAeQ9ukDzPDy3aD3a5i2+kk1tPo85R708Z5i+2DwWPkVWoT1flBY+QduSvqpi0jvB14S+dl6bPrInAb76jso9wuOKPRkz9L3YCjg+bbQFvi18wT3QtAw/zfuMPfR7G77x/589LwExPjcmgj426iM+W7uvvb5ggr7Nhis+UzCfvBrHqzwxnrG+PWPAvkNNn75igG++/qVRPo9WHD1Txge/asVgvrCJLr6kClY9P1QevVfi8L5CWzs+LeL0vR4fL75EZ6K9oGeaPphf/DyTRNw8J0PHPlk/Sz7Ls2E9GG/CvBz9bz7BpJy90uzePZzlsb7uSUm+hbWPvkfeML43sgM/OiNXvkWaMj4Jbsc9otxDvnXOsb7cqJE+CAKzvdAFAzwtppG+ojTLvgV+UD2pYG6+Fis+vncdgj7INqi8ByRWPiOnbj5+iCq+GK45vVBmEb7owoE+SHsyPqBIdT5V+y0+RI/6umHxGL0i2jE+UySWvs9qBb7FioQ+qr35PWelCD65odi+vlgLvRAiqDwD8qg9RB1gPfhi27yJWcg+YCG3vvdsnT16OHE+aYMOvarjo70hMKk+BXMLPGhiP756NMU+F6WKPuMXCT+f/U++QDAlPuNrMT4aiYu9ol2Jvsb6vr7eTNy9Tgo6Pqudpz2v210+GHzDvuZvCD6ORg6+8W9SPhuEOD7IUXk9OKvQPR6oAz6E8Um+In8LvV182T6w7R6+q2OlvhL5wz0/3Qg9XzStvUycir6Dhoo8FCfhvcP8EL7W46O+g8aCvM5x2b4Rmx6+XW+9vchDAD6XiaY+uSxtvkOdqL6cJ4M+UZOjPoHWmD24LzQ+U34svodziz6z7Ke+aBatPlVkw72Cz02+SHxIPmeQHL7Ke7s97wdkvvcolr4gAGE9AuuPPaDvE74stbi+EF4dvv3zHT4bh5i+O4PUPZpOI7713Da9HZ5yvnjjKb7Vc+o9NCN1vs4Cjz5pF9++4bj/vb1ImL6Xq08+cHggO6vfIL6srT6+UzPGPgu36T3MiGi+YjFAPqLCZT799/i9sLV5vg/Xer7WTr49PkG+Ps4nNr6jE8M+jNxzvlvZXb4hjO494F/MPkIxQb5Hd/W+HD2PPeTOnj7eAF++tuuYvh4u1r3X/cY9+EgsPh2sRTzSSO+9z9vnPdFIV76tyQO/8nO3vfleUj6J3ee8XftOvh/MHz89qrC9iuRwPlE8qb7kNaG9hQiCPWPHxT1wOW0+o/fRPShYEz4gvnC9tPiEvu7bc740mv89cVVtvaEAiT5NBRQ91VqVvvctlT6e6gg+X1lWvsWKpL6Wuha9AVbhvp8ASD5oPKk+mPuuvfxnur3ZniW+4kKwPXd7Xb5ZQ2O+ST2FvhpzXb3VWRg+aspFPhSKaD2o2hi+tGGLPNESTD72RZ29EuXtviMQrL5js4E++c7LPNuCwr6keJG+qV52vgCTT735z5u9qquWvfvlSz4P2lW+/8pTvG0ier6GmRi+2h7VvSRzTL0aL6a+7gICv5lQ1j6+yaS9lScxvidf8z1whEw+XOubPmn9iz7v27w+n51Zvt5yj73kRKU+VAx3vUBYWL181oy+LFZ9PvzrqT7iQEY+oNkfvgmq+r1OFwY9jTQvPqeHrr7jssc9pRB6PlSIXD70d7U+wUkevil0i76Wipq+Nh5EPq3ZsT5BUqK9sfOVvinNwz4N+w0+5BOTPjVgZr4a+bU9Ds4MPVbyeb0XOYO+xE2IvhY7nbsUQJ+9NQJ7vbGA/rw1LNk+YkTCvqOPEb62QSC+8C2JPpp7Cz1D/le+Z4CHPfG0sT22S7Y9/qehvl3rKj1DyH6+MmMCPsnja77Xa5W9EsgxvFVeaT60kNm90MVcPXFyxz070ga/2y8nPuAjTr7NY6C9kOGqPYP/nT6CplQ+daazPnU27r3faJ4+kLu8vsyLHL42+iS+4bywPEQE6j7V/MU+ygP2vWUAr74kbWY7GT3XuCCLjD4bq/S+krsGPw7AQr5nIdi9WoQuPpsUo70t7IC+zEmaPrlqsD0phOM92LmevMTPeD3sqT8+37UEvsQeHT5PzI49vDWcPa0jML4tqZQ9QY+Xvo/oOL7mb70+SjXBvrSBEb2dOLA9rt94vq/C9b5OfKc8yllKPrR4lb3LusA98QOWvcQw3L1Aqus+ZknMPhsAHb4xLiG87LTXvoOLub3T3wU9cJRmvf7Nyj6Ax08+0IvgOw3EiT6g2sO9meS7PeoETb5nrOM9Ago0vsuOkj7/d5m+4Di5vTYytT0ltnw+ZDCavvEMoD3nTdQ8cVK3u6I8hj32o6C+MJC/vcoCw76bsB0+KkXiPWjMvD2l/Tk/J94Bvt7SqT0CUaS8wN1rPrry370/PDk+1ECtvv+j0T2lICY9SrgXPnvoib4YAGE+FTb4vTPsjT5W0Pc+CV+uPg1suz4x6DS7DjnaPvbj7D3To7E+HTk+vRHVAb3/a1Y++F1ePmOaAr6gd9W+80ulPp/0xz34AIM+r3C4PunVob5jave9RkyXPp6rNT7cd4+9iK17PUAnmD0Gdxw9O+yCvp+Ii70sVAY/XBOWumNuCD6JSQG+Nn1GPqyzr73HnhO+9iFQPZwckr0DRts952xCvV5gWD5mkSC+1+8pvxsfr77e/aO+MDgePTrhzL49uUC+Yfx0Pumut75zQOW+nJOnvaxmfb7Atg49kujMuyjGuz5Xlc89PdbkPBd0aD6pKE8+4144PvVzgD6mTbi+kOZyu8VZJ77CKgQ/IWUdPo49B72DMPS+0v+2vlmaGL5Ec0q9D+z3vPuTAL7dBls+qaMJvm4MLL6WU2E+WkfmvloMlr6ngYk+c2tUvHv68z7q1cE+VrDZves/4b7X2Wa823jLOxGqjL4K1wK+l2yNvKE9or09b9+8k1sovm4NP76YU4K8N+ywvr/pYD6pIWi8YrMZvizVC75yZ7e+mYY0vm5YrD2Ux6e++emfvXqveb3cfiW95jOhPtsnRL6rhfw8NW+jvR1RWD2Khmk8OUqfvt/81T1DuY2+cShQvrqmE7z/CX8+i0YAv2/8E71+7ro+xFXnPt2Wpz4jtYg+WAqovYJ3ZD65DIy9ZG1FPhNnZzxqtDa+FkcZPcA6Ib3OS4A9HGe0PsSdXj68Di++Yrw+Ph+Hwb72yMe+NDxaPi0L377hMoa+AZORvUlrkj1hhe2+srIZPW0X0L6KLjg+oYZkvMJtlj5uwRE8A3uOvmaUvj5n7xQ+58dzvrpWNL2+py699xePvm/2Yj32JQE+asVQvlnnAj6K4Sg+yfiOvvDn7T3TEx8+KrO0PdrtMj5aAmW+g4sBvnqhFL5OP2W92pKtvjotiL2t2Jm+sfSlPrxtV77AjJ49SmaSPqDkGr4O